{
  "version": "1.0",
  "truncation": {
    "direction": "Right",
    "max_length": 512,
    "strategy": "LongestFirst",
    "stride": 0
  },
  "padding": {
    "strategy": "BatchLongest",
    "direction": "Right",
    "pad_to_multiple_of": null,
    "pad_id": 0,
    "pad_type_id": 0,
    "pad_token": "[PAD]"
  },
  "added_tokens": [
    {
      "id": 0,
      "content": "[PAD]",
      "single_word": false,
      "lstrip": false,
      "rstrip": false,
      "normalized": false,
      "special": true
    },
    {
      "id": 1,
      "content": "[UNK]",
      "single_word": false,
      "lstrip": false,
      "rstrip": false,
      "normalized": false,
      "special": true
    },
    {
      "id": 2,
      "content": "[CLS]",
      "single_word": false,
      "lstrip": false,
      "rstrip": false,
      "normalized": false,
      "special": true
    },
    {
      "id": 3,
      "content": "[SEP]",
      "single_word": false,
      "lstrip": false,
      "rstrip": false,
      "normalized": false,
      "special": true
    },
    {
      "id": 4,
      "content": "[MASK]",
      "single_word": false,
      "lstrip": false,
      "rstrip": false,
      "normalized": false,
      "special": true
    }
  ],
  "normalizer": {
    "type": "BertNormalizer",
    "clean_text": true,
    "handle_chinese_chars": true,
    "strip_accents": null,
    "lowercase": true
  },
  "pre_tokenizer": {
    "type": "BertPreTokenizer"
  },
  "post_processor": {
    "type": "TemplateProcessing",
    "single": [
      {
        "SpecialToken": {
          "id": "[CLS]",
          "type_id": 0
        }
      },
      {
        "Sequence": {
          "id": "A",
          "type_id": 0
        }
      },
      {
        "SpecialToken": {
          "id": "[SEP]",
          "type_id": 0
        }
      }
    ],
    "pair": [
      {
        "SpecialToken": {
          "id": "[CLS]",
          "type_id": 0
        }
      },
      {
        "Sequence": {
          "id": "A",
          "type_id": 0
        }
      },
      {
        "SpecialToken": {
          "id": "[SEP]",
          "type_id": 0
        }
      },
      {
        "Sequence": {
          "id": "B",
          "type_id": 1
        }
      },
      {
        "SpecialToken": {
          "id": "[SEP]",
          "type_id": 1
        }
      }
    ],
    "special_tokens": {
      "[CLS]": {
        "id": "[CLS]",
        "ids": [
          2
        ],
        "tokens": [
          "[CLS]"
        ]
      },
      "[SEP]": {
        "id": "[SEP]",
        "ids": [
          3
        ],
        "tokens": [
          "[SEP]"
        ]
      }
    }
  },
  "decoder": {
    "type": "WordPiece",
    "prefix": "##",
    "cleanup": true
  },
  "model": {
    "type": "WordPiece",
    "unk_token": "[UNK]",
    "continuing_subword_prefix": "##",
    "max_input_chars_per_word": 100,
    "vocab": {
      "[PAD]": 0,
      "[UNK]": 1,
      "[CLS]": 2,
      "[SEP]": 3,
      "[MASK]": 4,
      "0": 5,
      "1": 6,
      "2": 7,
      "3": 8,
      "4": 9,
      "5": 10,
      "6": 11,
      "7": 12,
      "8": 13,
      "9": 14,
      "\\": 15,
      "a": 16,
      "b": 17,
      "c": 18,
      "d": 19,
      "e": 20,
      "f": 21,
      "g": 22,
      "h": 23,
      "i": 24,
      "j": 25,
      "k": 26,
      "l": 27,
      "m": 28,
      "n": 29,
      "o": 30,
      "p": 31,
      "q": 32,
      "r": 33,
      "s": 34,
      "t": 35,
      "u": 36,
      "v": 37,
      "w": 38,
      "x": 39,
      "y": 40,
      "z": 41,
      "ª": 42,
      "ß": 43,
      "æ": 44,
      "ð": 45,
      "ø": 46,
      "þ": 47,
      "ı": 48,
      "ł": 49,
      "œ": 50,
      "ɔ": 51,
      "ɛ": 52,
      "ʀ": 53,
      "ʹ": 54,
      "ʻ": 55,
      "ʼ": 56,
      "ʿ": 57,
      "ͽ": 58,
      "α": 59,
      "γ": 60,
      "δ": 61,
      "ε": 62,
      "η": 63,
      "θ": 64,
      "ι": 65,
      "κ": 66,
      "λ": 67,
      "μ": 68,
      "ν": 69,
      "ξ": 70,
      "ο": 71,
      "π": 72,
      "ρ": 73,
      "ς": 74,
      "σ": 75,
      "τ": 76,
      "υ": 77,
      "φ": 78,
      "χ": 79,
      "ψ": 80,
      "ω": 81,
      "а": 82,
      "б": 83,
      "в": 84,
      "г": 85,
      "д": 86,
      "е": 87,
      "з": 88,
      "и": 89,
      "к": 90,
      "л": 91,
      "м": 92,
      "н": 93,
      "о": 94,
      "п": 95,
      "р": 96,
      "с": 97,
      "т": 98,
      "у": 99,
      "ф": 100,
      "х": 101,
      "ц": 102,
      "ч": 103,
      "ш": 104,
      "щ": 105,
      "ы": 106,
      "ь": 107,
      "ю": 108,
      "я": 109,
      "є": 110,
      "і": 111,
      "ґ": 112,
      "א": 113,
      "ב": 114,
      "ד": 115,
      "ה": 116,
      "ו": 117,
      "י": 118,
      "ך": 119,
      "ל": 120,
      "ס": 121,
      "ע": 122,
      "ר": 123,
      "ש": 124,
      "ת": 125,
      "ء": 126,
      "ا": 127,
      "ب": 128,
      "ة": 129,
      "ت": 130,
      "ث": 131,
      "ج": 132,
      "ح": 133,
      "خ": 134,
      "د": 135,
      "ذ": 136,
      "ر": 137,
      "ز": 138,
      "س": 139,
      "ش": 140,
      "ص": 141,
      "ض": 142,
      "ط": 143,
      "ع": 144,
      "غ": 145,
      "ـ": 146,
      "ف": 147,
      "ق": 148,
      "ك": 149,
      "ل": 150,
      "م": 151,
      "ن": 152,
      "ه": 153,
      "و": 154,
      "ى": 155,
      "ي": 156,
      "ڨ": 157,
      "अ": 158,
      "आ": 159,
      "क": 160,
      "ख": 161,
      "ग": 162,
      "च": 163,
      "छ": 164,
      "ज": 165,
      "झ": 166,
      "त": 167,
      "द": 168,
      "न": 169,
      "प": 170,
      "ब": 171,
      "म": 172,
      "य": 173,
      "र": 174,
      "ल": 175,
      "श": 176,
      "स": 177,
      "ह": 178,
      "আ": 179,
      "ক": 180,
      "দ": 181,
      "ধ": 182,
      "ন": 183,
      "প": 184,
      "ব": 185,
      "ম": 186,
      "য": 187,
      "র": 188,
      "শ": 189,
      "স": 190,
      "ਓ": 191,
      "அ": 192,
      "உ": 193,
      "எ": 194,
      "ஓ": 195,
      "க": 196,
      "ச": 197,
      "ட": 198,
      "ண": 199,
      "த": 200,
      "ந": 201,
      "ன": 202,
      "ப": 203,
      "ம": 204,
      "ய": 205,
      "ர": 206,
      "ல": 207,
      "ள": 208,
      "അ": 209,
      "ഇ": 210,
      "ഈ": 211,
      "ഓ": 212,
      "ക": 213,
      "ച": 214,
      "ഞ": 215,
      "ട": 216,
      "ണ": 217,
      "ത": 218,
      "ന": 219,
      "പ": 220,
      "ബ": 221,
      "മ": 222,
      "യ": 223,
      "ര": 224,
      "റ": 225,
      "ല": 226,
      "ള": 227,
      "ഴ": 228,
      "വ": 229,
      "ശ": 230,
      "අ": 231,
      "ඉ": 232,
      "ඊ": 233,
      "ක": 234,
      "ට": 235,
      "ත": 236,
      "ද": 237,
      "න": 238,
      "ප": 239,
      "ම": 240,
      "ය": 241,
      "ර": 242,
      "ව": 243,
      "ශ": 244,
      "හ": 245,
      "ᄀ": 246,
      "ᄁ": 247,
      "ᄂ": 248,
      "ᄃ": 249,
      "ᄄ": 250,
      "ᄅ": 251,
      "ᄆ": 252,
      "ᄇ": 253,
      "ᄈ": 254,
      "ᄉ": 255,
      "ᄊ": 256,
      "ᄋ": 257,
      "ᄌ": 258,
      "ᄍ": 259,
      "ᄎ": 260,
      "ᄏ": 261,
      "ᄐ": 262,
      "ᄑ": 263,
      "ᄒ": 264,
      "ᅡ": 265,
      "ᅢ": 266,
      "ᅣ": 267,
      "ᅤ": 268,
      "ᅥ": 269,
      "ᅦ": 270,
      "ᅧ": 271,
      "ᅨ": 272,
      "ᅩ": 273,
      "ᅪ": 274,
      "ᅫ": 275,
      "ᅬ": 276,
      "ᅭ": 277,
      "ᅮ": 278,
      "ᅯ": 279,
      "ᅰ": 280,
      "ᅱ": 281,
      "ᅲ": 282,
      "ᅳ": 283,
      "ᅴ": 284,
      "ᅵ": 285,
      "ᆨ": 286,
      "ᆩ": 287,
      "ᆪ": 288,
      "ᆫ": 289,
      "ᆬ": 290,
      "ᆭ": 291,
      "ᆮ": 292,
      "ᆯ": 293,
      "ᆰ": 294,
      "ᆱ": 295,
      "ᆲ": 296,
      "ᆶ": 297,
      "ᆷ": 298,
      "ᆸ": 299,
      "ᆹ": 300,
      "ᆺ": 301,
      "ᆻ": 302,
      "ᆼ": 303,
      "ᆽ": 304,
      "ᆾ": 305,
      "ᇀ": 306,
      "ᇁ": 307,
      "ᇂ": 308,
      "ሆ": 309,
      "ለ": 310,
      "መ": 311,
      "ም": 312,
      "ሽ": 313,
      "ቆ": 314,
      "ባ": 315,
      "ት": 316,
      "ቺ": 317,
      "ነ": 318,
      "ኔ": 319,
      "ን": 320,
      "ኝ": 321,
      "አ": 322,
      "እ": 323,
      "ከ": 324,
      "ወ": 325,
      "ው": 326,
      "የ": 327,
      "ይ": 328,
      "ደ": 329,
      "ዴ": 330,
      "ጆ": 331,
      "ጣ": 332,
      "ᴅ": 333,
      "ᴏ": 334,
      "々": 335,
      "あ": 336,
      "い": 337,
      "う": 338,
      "え": 339,
      "お": 340,
      "か": 341,
      "き": 342,
      "く": 343,
      "け": 344,
      "こ": 345,
      "さ": 346,
      "し": 347,
      "す": 348,
      "せ": 349,
      "そ": 350,
      "た": 351,
      "ち": 352,
      "っ": 353,
      "つ": 354,
      "て": 355,
      "と": 356,
      "な": 357,
      "に": 358,
      "ぬ": 359,
      "ね": 360,
      "の": 361,
      "は": 362,
      "ひ": 363,
      "ふ": 364,
      "へ": 365,
      "ほ": 366,
      "ま": 367,
      "み": 368,
      "む": 369,
      "め": 370,
      "も": 371,
      "ゃ": 372,
      "や": 373,
      "ょ": 374,
      "よ": 375,
      "ら": 376,
      "り": 377,
      "る": 378,
      "れ": 379,
      "ろ": 380,
      "わ": 381,
      "を": 382,
      "ん": 383,
      "ア": 384,
      "ィ": 385,
      "イ": 386,
      "エ": 387,
      "オ": 388,
      "カ": 389,
      "キ": 390,
      "ク": 391,
      "ケ": 392,
      "コ": 393,
      "シ": 394,
      "ス": 395,
      "タ": 396,
      "チ": 397,
      "ッ": 398,
      "テ": 399,
      "ト": 400,
      "ニ": 401,
      "ノ": 402,
      "ハ": 403,
      "ヒ": 404,
      "フ": 405,
      "ホ": 406,
      "マ": 407,
      "ミ": 408,
      "ム": 409,
      "メ": 410,
      "モ": 411,
      "ャ": 412,
      "ヤ": 413,
      "ュ": 414,
      "ユ": 415,
      "ョ": 416,
      "ラ": 417,
      "リ": 418,
      "ル": 419,
      "レ": 420,
      "ロ": 421,
      "ワ": 422,
      "ン": 423,
      "ー": 424,
      "ㅎ": 425,
      "一": 426,
      "七": 427,
      "上": 428,
      "下": 429,
      "不": 430,
      "世": 431,
      "两": 432,
      "中": 433,
      "为": 434,
      "丽": 435,
      "久": 436,
      "么": 437,
      "乗": 438,
      "九": 439,
      "也": 440,
      "乭": 441,
      "乸": 442,
      "了": 443,
      "予": 444,
      "事": 445,
      "于": 446,
      "互": 447,
      "井": 448,
      "些": 449,
      "享": 450,
      "人": 451,
      "什": 452,
      "今": 453,
      "从": 454,
      "他": 455,
      "付": 456,
      "们": 457,
      "仮": 458,
      "休": 459,
      "伸": 460,
      "但": 461,
      "住": 462,
      "何": 463,
      "你": 464,
      "使": 465,
      "來": 466,
      "供": 467,
      "依": 468,
      "信": 469,
      "俺": 470,
      "倒": 471,
      "候": 472,
      "借": 473,
      "偉": 474,
      "偎": 475,
      "偽": 476,
      "働": 477,
      "像": 478,
      "僕": 479,
      "先": 480,
      "光": 481,
      "入": 482,
      "全": 483,
      "内": 484,
      "再": 485,
      "冒": 486,
      "出": 487,
      "分": 488,
      "切": 489,
      "別": 490,
      "到": 491,
      "刹": 492,
      "刺": 493,
      "刻": 494,
      "力": 495,
      "功": 496,
      "加": 497,
      "动": 498,
      "動": 499,
      "勘": 500,
      "勝": 501,
      "化": 502,
      "十": 503,
      "危": 504,
      "卻": 505,
      "去": 506,
      "友": 507,
      "反": 508,
      "受": 509,
      "变": 510,
      "口": 511,
      "另": 512,
      "只": 513,
      "叫": 514,
      "叹": 515,
      "吃": 516,
      "合": 517,
      "同": 518,
      "名": 519,
      "向": 520,
      "君": 521,
      "含": 522,
      "吹": 523,
      "吻": 524,
      "味": 525,
      "呼": 526,
      "命": 527,
      "和": 528,
      "咲": 529,
      "員": 530,
      "哭": 531,
      "唇": 532,
      "唯": 533,
      "啊": 534,
      "喉": 535,
      "喝": 536,
      "單": 537,
      "嘘": 538,
      "嘴": 539,
      "囚": 540,
      "回": 541,
      "国": 542,
      "園": 543,
      "在": 544,
      "地": 545,
      "坏": 546,
      "城": 547,
      "堂": 548,
      "堕": 549,
      "填": 550,
      "塵": 551,
      "境": 552,
      "壊": 553,
      "处": 554,
      "変": 555,
      "多": 556,
      "夜": 557,
      "够": 558,
      "夢": 559,
      "大": 560,
      "天": 561,
      "太": 562,
      "失": 563,
      "头": 564,
      "奇": 565,
      "奈": 566,
      "奏": 567,
      "女": 568,
      "奴": 569,
      "她": 570,
      "好": 571,
      "如": 572,
      "妈": 573,
      "妞": 574,
      "始": 575,
      "子": 576,
      "存": 577,
      "学": 578,
      "宁": 579,
      "安": 580,
      "定": 581,
      "宜": 582,
      "実": 583,
      "家": 584,
      "寂": 585,
      "密": 586,
      "对": 587,
      "対": 588,
      "射": 589,
      "將": 590,
      "導": 591,
      "小": 592,
      "少": 593,
      "就": 594,
      "尽": 595,
      "届": 596,
      "屑": 597,
      "岁": 598,
      "岸": 599,
      "崩": 600,
      "己": 601,
      "已": 602,
      "巴": 603,
      "巻": 604,
      "帰": 605,
      "年": 606,
      "幽": 607,
      "広": 608,
      "底": 609,
      "废": 610,
      "度": 611,
      "廢": 612,
      "延": 613,
      "开": 614,
      "引": 615,
      "張": 616,
      "強": 617,
      "弾": 618,
      "当": 619,
      "影": 620,
      "待": 621,
      "很": 622,
      "律": 623,
      "後": 624,
      "得": 625,
      "御": 626,
      "微": 627,
      "心": 628,
      "必": 629,
      "忆": 630,
      "忘": 631,
      "快": 632,
      "念": 633,
      "怎": 634,
      "怕": 635,
      "怖": 636,
      "思": 637,
      "性": 638,
      "恍": 639,
      "恐": 640,
      "息": 641,
      "悔": 642,
      "悲": 643,
      "情": 644,
      "惑": 645,
      "惚": 646,
      "惰": 647,
      "想": 648,
      "愁": 649,
      "意": 650,
      "感": 651,
      "愿": 652,
      "慌": 653,
      "慢": 654,
      "慰": 655,
      "憊": 656,
      "憧": 657,
      "憶": 658,
      "懸": 659,
      "成": 660,
      "我": 661,
      "战": 662,
      "戻": 663,
      "所": 664,
      "手": 665,
      "才": 666,
      "打": 667,
      "承": 668,
      "把": 669,
      "抖": 670,
      "抗": 671,
      "折": 672,
      "抜": 673,
      "抮": 674,
      "抯": 675,
      "抰": 676,
      "抱": 677,
      "抽": 678,
      "担": 679,
      "拒": 680,
      "拔": 681,
      "招": 682,
      "挑": 683,
      "挺": 684,
      "捨": 685,
      "掉": 686,
      "掌": 687,
      "探": 688,
      "掴": 689,
      "描": 690,
      "握": 691,
      "摧": 692,
      "撃": 693,
      "撼": 694,
      "收": 695,
      "放": 696,
      "救": 697,
      "敗": 698,
      "散": 699,
      "数": 700,
      "敵": 701,
      "敷": 702,
      "新": 703,
      "方": 704,
      "无": 705,
      "日": 706,
      "早": 707,
      "时": 708,
      "昌": 709,
      "明": 710,
      "星": 711,
      "映": 712,
      "春": 713,
      "是": 714,
      "時": 715,
      "暗": 716,
      "曲": 717,
      "書": 718,
      "會": 719,
      "有": 720,
      "朋": 721,
      "望": 722,
      "朝": 723,
      "期": 724,
      "未": 725,
      "本": 726,
      "朽": 727,
      "束": 728,
      "来": 729,
      "极": 730,
      "果": 731,
      "架": 732,
      "染": 733,
      "栗": 734,
      "梦": 735,
      "森": 736,
      "楼": 737,
      "楽": 738,
      "概": 739,
      "構": 740,
      "様": 741,
      "次": 742,
      "歌": 743,
      "止": 744,
      "正": 745,
      "此": 746,
      "歩": 747,
      "死": 748,
      "残": 749,
      "毀": 750,
      "毎": 751,
      "每": 752,
      "毒": 753,
      "气": 754,
      "気": 755,
      "永": 756,
      "求": 757,
      "汗": 758,
      "沒": 759,
      "没": 760,
      "沸": 761,
      "法": 762,
      "波": 763,
      "泣": 764,
      "活": 765,
      "浮": 766,
      "海": 767,
      "消": 768,
      "淚": 769,
      "深": 770,
      "淵": 771,
      "測": 772,
      "渴": 773,
      "溢": 774,
      "满": 775,
      "潮": 776,
      "潰": 777,
      "激": 778,
      "灌": 779,
      "灰": 780,
      "焉": 781,
      "無": 782,
      "然": 783,
      "爱": 784,
      "物": 785,
      "狂": 786,
      "狙": 787,
      "猛": 788,
      "现": 789,
      "球": 790,
      "甜": 791,
      "生": 792,
      "由": 793,
      "甲": 794,
      "电": 795,
      "男": 796,
      "画": 797,
      "界": 798,
      "疑": 799,
      "疲": 800,
      "病": 801,
      "痛": 802,
      "痺": 803,
      "瘾": 804,
      "登": 805,
      "白": 806,
      "的": 807,
      "皆": 808,
      "目": 809,
      "相": 810,
      "看": 811,
      "真": 812,
      "眠": 813,
      "眼": 814,
      "着": 815,
      "睡": 816,
      "瞬": 817,
      "知": 818,
      "砂": 819,
      "碰": 820,
      "磨": 821,
      "神": 822,
      "祢": 823,
      "离": 824,
      "私": 825,
      "种": 826,
      "秘": 827,
      "種": 828,
      "空": 829,
      "突": 830,
      "窒": 831,
      "立": 832,
      "站": 833,
      "童": 834,
      "笑": 835,
      "笛": 836,
      "算": 837,
      "築": 838,
      "紅": 839,
      "紙": 840,
      "累": 841,
      "終": 842,
      "絕": 843,
      "給": 844,
      "絵": 845,
      "絶": 846,
      "緒": 847,
      "線": 848,
      "繰": 849,
      "终": 850,
      "经": 851,
      "绑": 852,
      "给": 853,
      "继": 854,
      "续": 855,
      "美": 856,
      "老": 857,
      "而": 858,
      "聖": 859,
      "聞": 860,
      "聴": 861,
      "職": 862,
      "肉": 863,
      "肚": 864,
      "肩": 865,
      "肯": 866,
      "背": 867,
      "能": 868,
      "脉": 869,
      "脚": 870,
      "脱": 871,
      "腾": 872,
      "自": 873,
      "致": 874,
      "與": 875,
      "良": 876,
      "色": 877,
      "艶": 878,
      "花": 879,
      "苦": 880,
      "英": 881,
      "药": 882,
      "落": 883,
      "葉": 884,
      "蔓": 885,
      "薦": 886,
      "虹": 887,
      "蜃": 888,
      "蜜": 889,
      "融": 890,
      "行": 891,
      "衍": 892,
      "衝": 893,
      "被": 894,
      "裝": 895,
      "西": 896,
      "要": 897,
      "見": 898,
      "視": 899,
      "覚": 900,
      "觉": 901,
      "解": 902,
      "触": 903,
      "言": 904,
      "記": 905,
      "許": 906,
      "証": 907,
      "試": 908,
      "話": 909,
      "認": 910,
      "誓": 911,
      "語": 912,
      "誠": 913,
      "誰": 914,
      "諦": 915,
      "謂": 916,
      "譲": 917,
      "讓": 918,
      "让": 919,
      "话": 920,
      "诱": 921,
      "说": 922,
      "負": 923,
      "贈": 924,
      "赌": 925,
      "赤": 926,
      "走": 927,
      "起": 928,
      "超": 929,
      "越": 930,
      "跑": 931,
      "跡": 932,
      "路": 933,
      "跳": 934,
      "踊": 935,
      "身": 936,
      "輝": 937,
      "转": 938,
      "轻": 939,
      "辛": 940,
      "辣": 941,
      "过": 942,
      "近": 943,
      "返": 944,
      "这": 945,
      "远": 946,
      "迷": 947,
      "追": 948,
      "退": 949,
      "送": 950,
      "逃": 951,
      "逐": 952,
      "逗": 953,
      "這": 954,
      "通": 955,
      "連": 956,
      "進": 957,
      "遊": 958,
      "過": 959,
      "道": 960,
      "達": 961,
      "違": 962,
      "遠": 963,
      "遥": 964,
      "那": 965,
      "都": 966,
      "酒": 967,
      "醒": 968,
      "里": 969,
      "重": 970,
      "釘": 971,
      "鏡": 972,
      "锅": 973,
      "長": 974,
      "长": 975,
      "閃": 976,
      "間": 977,
      "闇": 978,
      "问": 979,
      "间": 980,
      "防": 981,
      "限": 982,
      "险": 983,
      "陪": 984,
      "際": 985,
      "隠": 986,
      "隣": 987,
      "離": 988,
      "難": 989,
      "雲": 990,
      "震": 991,
      "霊": 992,
      "青": 993,
      "面": 994,
      "靴": 995,
      "音": 996,
      "頌": 997,
      "頑": 998,
      "頭": 999,
      "頹": 1000,
      "願": 1001,
      "颤": 1002,
      "風": 1003,
      "飛": 1004,
      "食": 1005,
      "飾": 1006,
      "駆": 1007,
      "驭": 1008,
      "驾": 1009,
      "高": 1010,
      "鶴": 1011,
      "麗": 1012,
      "麻": 1013,
      "黑": 1014,
      "點": 1015,
      "鼓": 1016,
      "ﬁ": 1017,
      "ﬂ": 1018,
      "##m": 1019,
      "##e": 1020,
      "##n": 1021,
      "##i": 1022,
      "##t": 1023,
      "##a": 1024,
      "##r": 1025,
      "##k": 1026,
      "##w": 1027,
      "##h": 1028,
      "##l": 1029,
      "##u": 1030,
      "##4": 1031,
      "##0": 1032,
      "##o": 1033,
      "##d": 1034,
      "##s": 1035,
      "##c": 1036,
      "##p": 1037,
      "##2": 1038,
      "##y": 1039,
      "##f": 1040,
      "##v": 1041,
      "##b": 1042,
      "##1": 1043,
      "##5": 1044,
      "##g": 1045,
      "##j": 1046,
      "##ᅡ": 1047,
      "##ᄌ": 1048,
      "##ᅵ": 1049,
      "##ᄅ": 1050,
      "##ᅧ": 1051,
      "##れ": 1052,
      "##る": 1053,
      "##っ": 1054,
      "##て": 1055,
      "##z": 1056,
      "##ᅥ": 1057,
      "##ᆺ": 1058,
      "##ᄋ": 1059,
      "##ᄀ": 1060,
      "##ᅩ": 1061,
      "##ᆫ": 1062,
      "##ᅴ": 1063,
      "##6": 1064,
      "##8": 1065,
      "##ᅪ": 1066,
      "##ᆻ": 1067,
      "##ᄃ": 1068,
      "##ᄆ": 1069,
      "##ᄉ": 1070,
      "##7": 1071,
      "##x": 1072,
      "##q": 1073,
      "##ᆯ": 1074,
      "##ᆨ": 1075,
      "##ᅬ": 1076,
      "##ᅢ": 1077,
      "##ᅮ": 1078,
      "##ᆰ": 1079,
      "##ᅳ": 1080,
      "##9": 1081,
      "##3": 1082,
      "##ᄁ": 1083,
      "##ا": 1084,
      "##ن": 1085,
      "##ᄒ": 1086,
      "##е": 1087,
      "##ᆼ": 1088,
      "##ᄇ": 1089,
      "##ᆸ": 1090,
      "##ᄂ": 1091,
      "##ᅦ": 1092,
      "##ん": 1093,
      "##た": 1094,
      "##ᄄ": 1095,
      "##ᄐ": 1096,
      "##ᆷ": 1097,
      "##ᅭ": 1098,
      "##ᅱ": 1099,
      "##ᄎ": 1100,
      "##ᆭ": 1101,
      "##ᇁ": 1102,
      "##യ": 1103,
      "##ᅣ": 1104,
      "##ᄊ": 1105,
      "##ε": 1106,
      "##ᆹ": 1107,
      "##の": 1108,
      "##こ": 1109,
      "##ろ": 1110,
      "##ı": 1111,
      "##ᇀ": 1112,
      "##ي": 1113,
      "##ه": 1114,
      "##ᆮ": 1115,
      "##م": 1116,
      "##ع": 1117,
      "##リ": 1118,
      "##ス": 1119,
      "##モ": 1120,
      "##テ": 1121,
      "##ル": 1122,
      "##う": 1123,
      "##ち": 1124,
      "##ゃ": 1125,
      "##よ": 1126,
      "##ᄍ": 1127,
      "##ل": 1128,
      "##ら": 1129,
      "##か": 1130,
      "##ᅯ": 1131,
      "##ł": 1132,
      "##ɛ": 1133,
      "##ක": 1134,
      "##න": 1135,
      "##ව": 1136,
      "##ョ": 1137,
      "##ン": 1138,
      "##ð": 1139,
      "##ᄏ": 1140,
      "##ᄑ": 1141,
      "##ᅲ": 1142,
      "##ᆶ": 1143,
      "##ʼ": 1144,
      "##ᇂ": 1145,
      "##な": 1146,
      "##い": 1147,
      "##ᄈ": 1148,
      "##ɔ": 1149,
      "##ø": 1150,
      "##し": 1151,
      "##ょ": 1152,
      "##п": 1153,
      "##у": 1154,
      "##т": 1155,
      "##н": 1156,
      "##и": 1157,
      "##к": 1158,
      "##も": 1159,
      "##き": 1160,
      "##ط": 1161,
      "##ر": 1162,
      "##ف": 1163,
      "##ට": 1164,
      "##ま": 1165,
      "##と": 1166,
      "##に": 1167,
      "##ᆾ": 1168,
      "##ᆽ": 1169,
      "##は": 1170,
      "##り": 1171,
      "##そ": 1172,
      "##ᅫ": 1173,
      "##ね": 1174,
      "##す": 1175,
      "##ω": 1176,
      "##ᅨ": 1177,
      "##み": 1178,
      "##ふ": 1179,
      "##わ": 1180,
      "##さ": 1181,
      "##س": 1182,
      "##ア": 1183,
      "##ᅤ": 1184,
      "##о": 1185,
      "##ч": 1186,
      "##ല": 1187,
      "##ᆲ": 1188,
      "##ム": 1189,
      "##α": 1190,
      "##λ": 1191,
      "##ι": 1192,
      "##け": 1193,
      "##а": 1194,
      "##ك": 1195,
      "##く": 1196,
      "##ح": 1197,
      "##γ": 1198,
      "##κ": 1199,
      "##ο": 1200,
      "##イ": 1201,
      "##ヤ": 1202,
      "##ب": 1203,
      "##ت": 1204,
      "##ث": 1205,
      "##π": 1206,
      "##ᆱ": 1207,
      "##х": 1208,
      "##я": 1209,
      "##ز": 1210,
      "##へ": 1211,
      "##メ": 1212,
      "##ロ": 1213,
      "##ィ": 1214,
      "##ー": 1215,
      "##р": 1216,
      "##з": 1217,
      "##в": 1218,
      "##д": 1219,
      "##с": 1220,
      "##क": 1221,
      "##æ": 1222,
      "##ش": 1223,
      "##ь": 1224,
      "##و": 1225,
      "##ß": 1226,
      "##د": 1227,
      "##ホ": 1228,
      "##ク": 1229,
      "##ട": 1230,
      "##റ": 1231,
      "##र": 1232,
      "##ة": 1233,
      "##ニ": 1234,
      "##せ": 1235,
      "##ص": 1236,
      "##ト": 1237,
      "##ይ": 1238,
      "##ത": 1239,
      "##ম": 1240,
      "##ש": 1241,
      "##ר": 1242,
      "##י": 1243,
      "##র": 1244,
      "##ء": 1245,
      "##え": 1246,
      "##ヒ": 1247,
      "##ュ": 1248,
      "##ذ": 1249,
      "##خ": 1250,
      "##ミ": 1251,
      "##स": 1252,
      "##お": 1253,
      "##ノ": 1254,
      "##ட": 1255,
      "##キ": 1256,
      "##þ": 1257,
      "##ﬁ": 1258,
      "##ज": 1259,
      "##ほ": 1260,
      "##ρ": 1261,
      "##δ": 1262,
      "##ς": 1263,
      "##л": 1264,
      "##ᴏ": 1265,
      "##ʀ": 1266,
      "##ᴅ": 1267,
      "##υ": 1268,
      "##ᆩ": 1269,
      "##を": 1270,
      "##ல": 1271,
      "##ق": 1272,
      "##ന": 1273,
      "##マ": 1274,
      "##ッ": 1275,
      "##ـ": 1276,
      "##є": 1277,
      "##ᆬ": 1278,
      "##む": 1279,
      "##м": 1280,
      "##ᅰ": 1281,
      "##ワ": 1282,
      "##フ": 1283,
      "##ക": 1284,
      "##ラ": 1285,
      "##コ": 1286,
      "##ו": 1287,
      "##च": 1288,
      "##つ": 1289,
      "##ኝ": 1290,
      "##ሽ": 1291,
      "##ണ": 1292,
      "##മ": 1293,
      "##ª": 1294,
      "##ඊ": 1295,
      "##η": 1296,
      "##あ": 1297,
      "##ን": 1298,
      "##ጆ": 1299,
      "##σ": 1300,
      "##ኔ": 1301,
      "##ш": 1302,
      "##ʹ": 1303,
      "##ج": 1304,
      "##ض": 1305,
      "##シ": 1306,
      "##タ": 1307,
      "##የ": 1308,
      "##ት": 1309,
      "##ர": 1310,
      "##த": 1311,
      "##θ": 1312,
      "##ю": 1313,
      "##τ": 1314,
      "##や": 1315,
      "##ख": 1316,
      "##め": 1317,
      "##œ": 1318,
      "##ы": 1319,
      "##ண": 1320,
      "##ハ": 1321,
      "##і": 1322,
      "##ц": 1323,
      "##ケ": 1324,
      "##ද": 1325,
      "##ぬ": 1326,
      "##प": 1327,
      "##न": 1328,
      "##প": 1329,
      "##ন": 1330,
      "##φ": 1331,
      "##ν": 1332,
      "##ᆪ": 1333,
      "##ለ": 1334,
      "##ャ": 1335,
      "##ת": 1336,
      "##б": 1337,
      "##غ": 1338,
      "##द": 1339,
      "##ப": 1340,
      "##г": 1341,
      "##ቺ": 1342,
      "##ى": 1343,
      "##ጣ": 1344,
      "##ደ": 1345,
      "##ም": 1346,
      "##ነ": 1347,
      "##ள": 1348,
      "##ള": 1349,
      "##ধ": 1350,
      "##म": 1351,
      "##ත": 1352,
      "##ര": 1353,
      "##μ": 1354,
      "##ψ": 1355,
      "##ल": 1356,
      "##ዴ": 1357,
      "##ባ": 1358,
      "##ڨ": 1359,
      "##ґ": 1360,
      "##ன": 1361,
      "##ප": 1362,
      "th": 1363,
      "##ou": 1364,
      "##in": 1365,
      "the": 1366,
      "you": 1367,
      "##er": 1368,
      "##nd": 1369,
      "##ing": 1370,
      "##on": 1371,
      "##ll": 1372,
      "##at": 1373,
      "to": 1374,
      "##re": 1375,
      "##an": 1376,
      "##ow": 1377,
      "and": 1378,
      "##ea": 1379,
      "##ve": 1380,
      "##or": 1381,
      "it": 1382,
      "##me": 1383,
      "##ee": 1384,
      "me": 1385,
      "##it": 1386,
      "##st": 1387,
      "wh": 1388,
      "##ay": 1389,
      "##ke": 1390,
      "in": 1391,
      "##ot": 1392,
      "my": 1393,
      "##gh": 1394,
      "on": 1395,
      "be": 1396,
      "##se": 1397,
      "##ut": 1398,
      "li": 1399,
      "##es": 1400,
      "##et": 1401,
      "we": 1402,
      "of": 1403,
      "##ver": 1404,
      "that": 1405,
      "##is": 1406,
      "st": 1407,
      "so": 1408,
      "##en": 1409,
      "##ck": 1410,
      "##ar": 1411,
      "lo": 1412,
      "##ld": 1413,
      "##ght": 1414,
      "sh": 1415,
      "your": 1416,
      "##ed": 1417,
      "##id": 1418,
      "##as": 1419,
      "go": 1420,
      "##le": 1421,
      "for": 1422,
      "all": 1423,
      "##ight": 1424,
      "re": 1425,
      "is": 1426,
      "kn": 1427,
      "ba": 1428,
      "ha": 1429,
      "##ch": 1430,
      "don": 1431,
      "can": 1432,
      "##ith": 1433,
      "##om": 1434,
      "##ake": 1435,
      "##ill": 1436,
      "##ce": 1437,
      "with": 1438,
      "##ust": 1439,
      "know": 1440,
      "##ear": 1441,
      "ca": 1442,
      "do": 1443,
      "like": 1444,
      "##ur": 1445,
      "love": 1446,
      "but": 1447,
      "up": 1448,
      "no": 1449,
      "##ere": 1450,
      "this": 1451,
      "##ir": 1452,
      "co": 1453,
      "got": 1454,
      "just": 1455,
      "what": 1456,
      "wan": 1457,
      "##od": 1458,
      "oh": 1459,
      "he": 1460,
      "get": 1461,
      "##th": 1462,
      "ch": 1463,
      "tr": 1464,
      "when": 1465,
      "##one": 1466,
      "ne": 1467,
      "##al": 1468,
      "ho": 1469,
      "##un": 1470,
      "ti": 1471,
      "##ly": 1472,
      "##na": 1473,
      "ever": 1474,
      "not": 1475,
      "fr": 1476,
      "##ould": 1477,
      "##ad": 1478,
      "##own": 1479,
      "out": 1480,
      "see": 1481,
      "now": 1482,
      "##ind": 1483,
      "##ain": 1484,
      "ll": 1485,
      "some": 1486,
      "an": 1487,
      "they": 1488,
      "##ore": 1489,
      "##ie": 1490,
      "##ig": 1491,
      "if": 1492,
      "she": 1493,
      "##am": 1494,
      "al": 1495,
      "fee": 1496,
      "time": 1497,
      "##ong": 1498,
      "down": 1499,
      "##rou": 1500,
      "was": 1501,
      "wor": 1502,
      "sa": 1503,
      "let": 1504,
      "##use": 1505,
      "as": 1506,
      "##ion": 1507,
      "fa": 1508,
      "every": 1509,
      "bl": 1510,
      "##way": 1511,
      "pl": 1512,
      "##ro": 1513,
      "hear": 1514,
      "one": 1515,
      "##ic": 1516,
      "are": 1517,
      "##ra": 1518,
      "there": 1519,
      "yea": 1520,
      "feel": 1521,
      "never": 1522,
      "want": 1523,
      "ve": 1524,
      "##ive": 1525,
      "come": 1526,
      "yeah": 1527,
      "##eep": 1528,
      "##ide": 1529,
      "say": 1530,
      "rea": 1531,
      "##ter": 1532,
      "##by": 1533,
      "will": 1534,
      "##ok": 1535,
      "from": 1536,
      "make": 1537,
      "##ell": 1538,
      "at": 1539,
      "##out": 1540,
      "##fe": 1541,
      "have": 1542,
      "##il": 1543,
      "back": 1544,
      "##pp": 1545,
      "la": 1546,
      "ro": 1547,
      "##nt": 1548,
      "take": 1549,
      "cause": 1550,
      "##her": 1551,
      "##uck": 1552,
      "way": 1553,
      "##eed": 1554,
      "baby": 1555,
      "##ine": 1556,
      "##ink": 1557,
      "who": 1558,
      "##een": 1559,
      "##us": 1560,
      "sp": 1561,
      "man": 1562,
      "wa": 1563,
      "cl": 1564,
      "##ge": 1565,
      "##op": 1566,
      "de": 1567,
      "her": 1568,
      "##um": 1569,
      "##ri": 1570,
      "how": 1571,
      "##thing": 1572,
      "##ess": 1573,
      "day": 1574,
      "gon": 1575,
      "need": 1576,
      "##ead": 1577,
      "ain": 1578,
      "hi": 1579,
      "mo": 1580,
      "##igg": 1581,
      "##ct": 1582,
      "could": 1583,
      "life": 1584,
      "here": 1585,
      "heart": 1586,
      "wanna": 1587,
      "tell": 1588,
      "ab": 1589,
      "##urn": 1590,
      "right": 1591,
      "look": 1592,
      "bo": 1593,
      "been": 1594,
      "##ody": 1595,
      "##ak": 1596,
      "##ame": 1597,
      "##art": 1598,
      "##irl": 1599,
      "##ol": 1600,
      "##ry": 1601,
      "nigg": 1602,
      "night": 1603,
      "girl": 1604,
      "think": 1605,
      "where": 1606,
      "##alk": 1607,
      "##ate": 1608,
      "away": 1609,
      "##ers": 1610,
      "gonna": 1611,
      "keep": 1612,
      "good": 1613,
      "br": 1614,
      "our": 1615,
      "sl": 1616,
      "##round": 1617,
      "##itt": 1618,
      "thing": 1619,
      "by": 1620,
      "##ard": 1621,
      "or": 1622,
      "##ound": 1623,
      "su": 1624,
      "##and": 1625,
      "more": 1626,
      "##ue": 1627,
      "fl": 1628,
      "give": 1629,
      "##nder": 1630,
      "##pe": 1631,
      "ag": 1632,
      "di": 1633,
      "try": 1634,
      "bre": 1635,
      "am": 1636,
      "##ent": 1637,
      "##ose": 1638,
      "##ving": 1639,
      "##rough": 1640,
      "through": 1641,
      "too": 1642,
      "##ven": 1643,
      "##lly": 1644,
      "fuck": 1645,
      "##other": 1646,
      "about": 1647,
      "sw": 1648,
      "ey": 1649,
      "us": 1650,
      "##ang": 1651,
      "##ta": 1652,
      "##ick": 1653,
      "then": 1654,
      "com": 1655,
      "won": 1656,
      "run": 1657,
      "##ream": 1658,
      "##hing": 1659,
      "over": 1660,
      "only": 1661,
      "again": 1662,
      "world": 1663,
      "bet": 1664,
      "##nds": 1665,
      "them": 1666,
      "would": 1667,
      "##lf": 1668,
      "se": 1669,
      "bit": 1670,
      "still": 1671,
      "##ss": 1672,
      "call": 1673,
      "##body": 1674,
      "why": 1675,
      "##ft": 1676,
      "any": 1677,
      "said": 1678,
      "lea": 1679,
      "##ul": 1680,
      "le": 1681,
      "long": 1682,
      "dr": 1683,
      "off": 1684,
      "did": 1685,
      "im": 1686,
      "light": 1687,
      "em": 1688,
      "##oh": 1689,
      "##ittle": 1690,
      "thou": 1691,
      "around": 1692,
      "little": 1693,
      "well": 1694,
      "mind": 1695,
      "##ack": 1696,
      "fall": 1697,
      "##sed": 1698,
      "hold": 1699,
      "had": 1700,
      "con": 1701,
      "home": 1702,
      "his": 1703,
      "##ree": 1704,
      "##wn": 1705,
      "##ath": 1706,
      "##atch": 1707,
      "##ade": 1708,
      "##to": 1709,
      "eyes": 1710,
      "##row": 1711,
      "turn": 1712,
      "sc": 1713,
      "##im": 1714,
      "##ure": 1715,
      "sm": 1716,
      "##ways": 1717,
      "these": 1718,
      "than": 1719,
      "were": 1720,
      "find": 1721,
      "##ance": 1722,
      "bel": 1723,
      "wait": 1724,
      "wo": 1725,
      "always": 1726,
      "##ies": 1727,
      "##ning": 1728,
      "##ile": 1729,
      "##ast": 1730,
      "##iss": 1731,
      "##ble": 1732,
      "nothing": 1733,
      "fo": 1734,
      "##ise": 1735,
      "dream": 1736,
      "##ked": 1737,
      "pr": 1738,
      "head": 1739,
      "tw": 1740,
      "##ace": 1741,
      "fi": 1742,
      "nigga": 1743,
      "shit": 1744,
      "##side": 1745,
      "live": 1746,
      "play": 1747,
      "en": 1748,
      "bitch": 1749,
      "##be": 1750,
      "##oney": 1751,
      "put": 1752,
      "sk": 1753,
      "##ull": 1754,
      "pre": 1755,
      "##ty": 1756,
      "##ation": 1757,
      "##ff": 1758,
      "##self": 1759,
      "stay": 1760,
      "better": 1761,
      "##ip": 1762,
      "god": 1763,
      "ya": 1764,
      "into": 1765,
      "po": 1766,
      "everything": 1767,
      "##ist": 1768,
      "hey": 1769,
      "high": 1770,
      "things": 1771,
      "wr": 1772,
      "real": 1773,
      "##ish": 1774,
      "gotta": 1775,
      "ra": 1776,
      "new": 1777,
      "mu": 1778,
      "hard": 1779,
      "leave": 1780,
      "even": 1781,
      "##ice": 1782,
      "boy": 1783,
      "##ber": 1784,
      "show": 1785,
      "him": 1786,
      "talk": 1787,
      "##our": 1788,
      "##red": 1789,
      "##ite": 1790,
      "##ity": 1791,
      "ma": 1792,
      "gu": 1793,
      "na": 1794,
      "sun": 1795,
      "sing": 1796,
      "da": 1797,
      "ex": 1798,
      "something": 1799,
      "##get": 1800,
      "under": 1801,
      "may": 1802,
      "##ant": 1803,
      "should": 1804,
      "ooh": 1805,
      "gone": 1806,
      "walk": 1807,
      "##ord": 1808,
      "##ting": 1809,
      "ton": 1810,
      "belie": 1811,
      "##ark": 1812,
      "really": 1813,
      "stop": 1814,
      "##fore": 1815,
      "str": 1816,
      "break": 1817,
      "before": 1818,
      "start": 1819,
      "##ild": 1820,
      "pe": 1821,
      "##ass": 1822,
      "##ough": 1823,
      "##day": 1824,
      "niggas": 1825,
      "much": 1826,
      "frie": 1827,
      "sou": 1828,
      "##eet": 1829,
      "end": 1830,
      "un": 1831,
      "made": 1832,
      "gl": 1833,
      "money": 1834,
      "alone": 1835,
      "going": 1836,
      "tonight": 1837,
      "believe": 1838,
      "##ds": 1839,
      "its": 1840,
      "##ca": 1841,
      "ah": 1842,
      "old": 1843,
      "##el": 1844,
      "pro": 1845,
      "watch": 1846,
      "##ms": 1847,
      "##co": 1848,
      "left": 1849,
      "stand": 1850,
      "name": 1851,
      "##ous": 1852,
      "cra": 1853,
      "face": 1854,
      "##dy": 1855,
      "##ange": 1856,
      "pa": 1857,
      "bu": 1858,
      "peop": 1859,
      "af": 1860,
      "another": 1861,
      "ar": 1862,
      "people": 1863,
      "car": 1864,
      "qu": 1865,
      "feeling": 1866,
      "##ease": 1867,
      "last": 1868,
      "same": 1869,
      "##orn": 1870,
      "##ears": 1871,
      "hand": 1872,
      "thought": 1873,
      "##ment": 1874,
      "stre": 1875,
      "gre": 1876,
      "inside": 1877,
      "##ood": 1878,
      "bad": 1879,
      "##ps": 1880,
      "roll": 1881,
      "part": 1882,
      "place": 1883,
      "burn": 1884,
      "lost": 1885,
      "##all": 1886,
      "##est": 1887,
      "hea": 1888,
      "work": 1889,
      "happ": 1890,
      "##pt": 1891,
      "song": 1892,
      "free": 1893,
      "bro": 1894,
      "fore": 1895,
      "##ther": 1896,
      "##ah": 1897,
      "##per": 1898,
      "##ful": 1899,
      "##ew": 1900,
      "their": 1901,
      "soul": 1902,
      "fire": 1903,
      "has": 1904,
      "star": 1905,
      "move": 1906,
      "two": 1907,
      "bring": 1908,
      "##ime": 1909,
      "##oo": 1910,
      "kill": 1911,
      "##ag": 1912,
      "rock": 1913,
      "cry": 1914,
      "own": 1915,
      "care": 1916,
      "##ount": 1917,
      "##ng": 1918,
      "die": 1919,
      "hit": 1920,
      "##ock": 1921,
      "done": 1922,
      "while": 1923,
      "without": 1924,
      "might": 1925,
      "wrong": 1926,
      "##vin": 1927,
      "pain": 1928,
      "please": 1929,
      "mean": 1930,
      "##ze": 1931,
      "big": 1932,
      "hope": 1933,
      "mine": 1934,
      "hands": 1935,
      "##ory": 1936,
      "gr": 1937,
      "##pl": 1938,
      "gra": 1939,
      "sleep": 1940,
      "coming": 1941,
      "lord": 1942,
      "##mber": 1943,
      "far": 1944,
      "##are": 1945,
      "cr": 1946,
      "##aking": 1947,
      "change": 1948,
      "##ness": 1949,
      "##ug": 1950,
      "##ater": 1951,
      "side": 1952,
      "dis": 1953,
      "fight": 1954,
      "bea": 1955,
      "##zy": 1956,
      "##ts": 1957,
      "beat": 1958,
      "enough": 1959,
      "myself": 1960,
      "##less": 1961,
      "##ather": 1962,
      "war": 1963,
      "dark": 1964,
      "hell": 1965,
      "ri": 1966,
      "##ash": 1967,
      "##here": 1968,
      "other": 1969,
      "##pen": 1970,
      "rain": 1971,
      "reme": 1972,
      "##os": 1973,
      "yo": 1974,
      "everybody": 1975,
      "##ied": 1976,
      "close": 1977,
      "##ling": 1978,
      "black": 1979,
      "broke": 1980,
      "miss": 1981,
      "days": 1982,
      "came": 1983,
      "dont": 1984,
      "beca": 1985,
      "##eak": 1986,
      "##ac": 1987,
      "because": 1988,
      "sin": 1989,
      "told": 1990,
      "##time": 1991,
      "dance": 1992,
      "##irst": 1993,
      "##atter": 1994,
      "forever": 1995,
      "##oth": 1996,
      "hur": 1997,
      "maybe": 1998,
      "true": 1999,
      "cold": 2000,
      "##ence": 2001,
      "##sh": 2002,
      "##em": 2003,
      "##ach": 2004,
      "looking": 2005,
      "remember": 2006,
      "wind": 2007,
      "mi": 2008,
      "##les": 2009,
      "##ave": 2010,
      "hel": 2011,
      "best": 2012,
      "jo": 2013,
      "fun": 2014,
      "unt": 2015,
      "open": 2016,
      "##ump": 2017,
      "sky": 2018,
      "set": 2019,
      "young": 2020,
      "wish": 2021,
      "sho": 2022,
      "body": 2023,
      "##ush": 2024,
      "fly": 2025,
      "sound": 2026,
      "does": 2027,
      "##ci": 2028,
      "those": 2029,
      "ear": 2030,
      "##ouch": 2031,
      "mother": 2032,
      "##ud": 2033,
      "##qu": 2034,
      "found": 2035,
      "sweet": 2036,
      "street": 2037,
      "##uh": 2038,
      "yes": 2039,
      "waiting": 2040,
      "dead": 2041,
      "door": 2042,
      "first": 2043,
      "des": 2044,
      "##ne": 2045,
      "##ught": 2046,
      "list": 2047,
      "breath": 2048,
      "el": 2049,
      "someone": 2050,
      "bout": 2051,
      "##eal": 2052,
      "##ict": 2053,
      "game": 2054,
      "deep": 2055,
      "pull": 2056,
      "ride": 2057,
      "##son": 2058,
      "words": 2059,
      "##rist": 2060,
      "didn": 2061,
      "##gether": 2062,
      "used": 2063,
      "getting": 2064,
      "mor": 2065,
      "together": 2066,
      "beg": 2067,
      "ad": 2068,
      "ass": 2069,
      "##ign": 2070,
      "pret": 2071,
      "uh": 2072,
      "touch": 2073,
      "##ouse": 2074,
      "wonder": 2075,
      "kind": 2076,
      "sur": 2077,
      "help": 2078,
      "##end": 2079,
      "ph": 2080,
      "##ans": 2081,
      "must": 2082,
      "round": 2083,
      "living": 2084,
      "##mer": 2085,
      "##ub": 2086,
      "after": 2087,
      "friends": 2088,
      "fre": 2089,
      "##ction": 2090,
      "slow": 2091,
      "dro": 2092,
      "dem": 2093,
      "until": 2094,
      "nobody": 2095,
      "comes": 2096,
      "ta": 2097,
      "mar": 2098,
      "##right": 2099,
      "per": 2100,
      "##uth": 2101,
      "whole": 2102,
      "trying": 2103,
      "listen": 2104,
      "cont": 2105,
      "crazy": 2106,
      "knew": 2107,
      "flo": 2108,
      "##anc": 2109,
      "many": 2110,
      "##llow": 2111,
      "sure": 2112,
      "ask": 2113,
      "beh": 2114,
      "##pped": 2115,
      "alright": 2116,
      "seen": 2117,
      "ste": 2118,
      "town": 2119,
      "che": 2120,
      "blood": 2121,
      "dam": 2122,
      "##ott": 2123,
      "tre": 2124,
      "blue": 2125,
      "til": 2126,
      "##age": 2127,
      "##ort": 2128,
      "forget": 2129,
      "kiss": 2130,
      "ready": 2131,
      "lose": 2132,
      "##xt": 2133,
      "drink": 2134,
      "once": 2135,
      "friend": 2136,
      "road": 2137,
      "lot": 2138,
      "times": 2139,
      "dreams": 2140,
      "si": 2141,
      "running": 2142,
      "save": 2143,
      "##ady": 2144,
      "##cked": 2145,
      "till": 2146,
      "##oke": 2147,
      "took": 2148,
      "##mor": 2149,
      "late": 2150,
      "though": 2151,
      "##where": 2152,
      "##ses": 2153,
      "count": 2154,
      "lay": 2155,
      "heaven": 2156,
      "matter": 2157,
      "sn": 2158,
      "##ery": 2159,
      "morning": 2160,
      "##ma": 2161,
      "city": 2162,
      "blow": 2163,
      "hot": 2164,
      "fin": 2165,
      "goes": 2166,
      "christ": 2167,
      "house": 2168,
      "sea": 2169,
      "yourself": 2170,
      "mus": 2171,
      "beaut": 2172,
      "red": 2173,
      "line": 2174,
      "hate": 2175,
      "##ffer": 2176,
      "king": 2177,
      "pray": 2178,
      "sometime": 2179,
      "child": 2180,
      "low": 2181,
      "underst": 2182,
      "##ama": 2183,
      "##asy": 2184,
      "kid": 2185,
      "##ally": 2186,
      "##ph": 2187,
      "fool": 2188,
      "##ppin": 2189,
      "cut": 2190,
      "else": 2191,
      "win": 2192,
      "lie": 2193,
      "##hh": 2194,
      "alive": 2195,
      "strong": 2196,
      "heard": 2197,
      "ac": 2198,
      "##ove": 2199,
      "##pping": 2200,
      "behind": 2201,
      "stra": 2202,
      "makes": 2203,
      "lone": 2204,
      "ground": 2205,
      "pass": 2206,
      "##ever": 2207,
      "aw": 2208,
      "##tin": 2209,
      "##ross": 2210,
      "anything": 2211,
      "sometimes": 2212,
      "truth": 2213,
      "##ions": 2214,
      "damn": 2215,
      "understand": 2216,
      "lear": 2217,
      "music": 2218,
      "water": 2219,
      "wall": 2220,
      "##ny": 2221,
      "##ated": 2222,
      "mon": 2223,
      "white": 2224,
      "today": 2225,
      "shake": 2226,
      "gi": 2227,
      "rest": 2228,
      "somebody": 2229,
      "ap": 2230,
      "guess": 2231,
      "##ia": 2232,
      "next": 2233,
      "grow": 2234,
      "broken": 2235,
      "gold": 2236,
      "fine": 2237,
      "follow": 2238,
      "##ap": 2239,
      "##ane": 2240,
      "girls": 2241,
      "vo": 2242,
      "flow": 2243,
      "cu": 2244,
      "throw": 2245,
      "bed": 2246,
      "falling": 2247,
      "sil": 2248,
      "##umb": 2249,
      "moon": 2250,
      "party": 2251,
      "gun": 2252,
      "te": 2253,
      "air": 2254,
      "##ings": 2255,
      "##ple": 2256,
      "##ost": 2257,
      "room": 2258,
      "##ves": 2259,
      "act": 2260,
      "##fuck": 2261,
      "smile": 2262,
      "knows": 2263,
      "wake": 2264,
      "##ab": 2265,
      "saw": 2266,
      "reason": 2267,
      "fast": 2268,
      "ay": 2269,
      "fucking": 2270,
      "##come": 2271,
      "##ying": 2272,
      "##ank": 2273,
      "years": 2274,
      "feels": 2275,
      "##ire": 2276,
      "cho": 2277,
      "sor": 2278,
      "thinking": 2279,
      "##vil": 2280,
      "prom": 2281,
      "wanted": 2282,
      "whoa": 2283,
      "went": 2284,
      "lights": 2285,
      "top": 2286,
      "fear": 2287,
      "cri": 2288,
      "##ung": 2289,
      "wom": 2290,
      "feet": 2291,
      "hang": 2292,
      "res": 2293,
      "lonely": 2294,
      "ill": 2295,
      "full": 2296,
      "happy": 2297,
      "##ress": 2298,
      "wast": 2299,
      "##ls": 2300,
      "dri": 2301,
      "happen": 2302,
      "learn": 2303,
      "speak": 2304,
      "shot": 2305,
      "easy": 2306,
      "pay": 2307,
      "sit": 2308,
      "##ones": 2309,
      "past": 2310,
      "gave": 2311,
      "fill": 2312,
      "##iful": 2313,
      "since": 2314,
      "jes": 2315,
      "woman": 2316,
      "sum": 2317,
      "ke": 2318,
      "##ons": 2319,
      "ok": 2320,
      "##oud": 2321,
      "##unk": 2322,
      "along": 2323,
      "##mm": 2324,
      "##ains": 2325,
      "moment": 2326,
      "dar": 2327,
      "soon": 2328,
      "arms": 2329,
      "death": 2330,
      "floor": 2331,
      "stars": 2332,
      "beautiful": 2333,
      "pretty": 2334,
      "##iz": 2335,
      "jesus": 2336,
      "hide": 2337,
      "tried": 2338,
      "shine": 2339,
      "pow": 2340,
      "##itch": 2341,
      "catch": 2342,
      "each": 2343,
      "doing": 2344,
      "couldn": 2345,
      "differ": 2346,
      "##led": 2347,
      "word": 2348,
      "hurt": 2349,
      "dou": 2350,
      "rem": 2351,
      "lies": 2352,
      "contro": 2353,
      "##ating": 2354,
      "chance": 2355,
      "min": 2356,
      "rel": 2357,
      "ange": 2358,
      "bar": 2359,
      "making": 2360,
      "born": 2361,
      "danc": 2362,
      "cool": 2363,
      "chang": 2364,
      "pea": 2365,
      "drop": 2366,
      "straight": 2367,
      "cre": 2368,
      "##if": 2369,
      "##lin": 2370,
      "##fect": 2371,
      "##int": 2372,
      "##uss": 2373,
      "rid": 2374,
      "mad": 2375,
      "tears": 2376,
      "wild": 2377,
      "check": 2378,
      "lau": 2379,
      "goodby": 2380,
      "bitches": 2381,
      "scream": 2382,
      "reach": 2383,
      "forg": 2384,
      "mama": 2385,
      "being": 2386,
      "##ces": 2387,
      "hop": 2388,
      "three": 2389,
      "##ily": 2390,
      "##mas": 2391,
      "##cho": 2392,
      "##ys": 2393,
      "everyone": 2394,
      "meet": 2395,
      "fam": 2396,
      "seems": 2397,
      "##gg": 2398,
      "mid": 2399,
      "lead": 2400,
      "dad": 2401,
      "talking": 2402,
      "##ors": 2403,
      "bott": 2404,
      "lover": 2405,
      "laugh": 2406,
      "smoke": 2407,
      "ball": 2408,
      "sat": 2409,
      "bir": 2410,
      "trust": 2411,
      "##hy": 2412,
      "drive": 2413,
      "bra": 2414,
      "motherfuck": 2415,
      "dra": 2416,
      "dir": 2417,
      "step": 2418,
      "brother": 2419,
      "bright": 2420,
      "par": 2421,
      "##ious": 2422,
      "skin": 2423,
      "goodbye": 2424,
      "tryna": 2425,
      "control": 2426,
      "worth": 2427,
      "##orm": 2428,
      "fel": 2429,
      "boys": 2430,
      "tea": 2431,
      "earth": 2432,
      "mist": 2433,
      "##ket": 2434,
      "apart": 2435,
      "pick": 2436,
      "land": 2437,
      "christmas": 2438,
      "##og": 2439,
      "gh": 2440,
      "son": 2441,
      "summer": 2442,
      "##bo": 2443,
      "sad": 2444,
      "##ared": 2445,
      "##ont": 2446,
      "##more": 2447,
      "##ret": 2448,
      "##light": 2449,
      "met": 2450,
      "peace": 2451,
      "great": 2452,
      "##ines": 2453,
      "eye": 2454,
      "rise": 2455,
      "mill": 2456,
      "sick": 2457,
      "mess": 2458,
      "jump": 2459,
      "##ween": 2460,
      "kick": 2461,
      "##ize": 2462,
      "between": 2463,
      "pie": 2464,
      "promise": 2465,
      "bur": 2466,
      "tight": 2467,
      "##ren": 2468,
      "##ows": 2469,
      "youre": 2470,
      "col": 2471,
      "##der": 2472,
      "wear": 2473,
      "blind": 2474,
      "use": 2475,
      "gets": 2476,
      "rhy": 2477,
      "sign": 2478,
      "breathe": 2479,
      "app": 2480,
      "above": 2481,
      "such": 2482,
      "power": 2483,
      "comp": 2484,
      "honey": 2485,
      "cha": 2486,
      "##uff": 2487,
      "mer": 2488,
      "dec": 2489,
      "most": 2490,
      "thank": 2491,
      "felt": 2492,
      "goin": 2493,
      "pop": 2494,
      "shoot": 2495,
      "begin": 2496,
      "taking": 2497,
      "tomor": 2498,
      "hair": 2499,
      "##up": 2500,
      "##outh": 2501,
      "tomorrow": 2502,
      "shad": 2503,
      "trou": 2504,
      "different": 2505,
      "clear": 2506,
      "walking": 2507,
      "##man": 2508,
      "##ues": 2509,
      "upon": 2510,
      "##raid": 2511,
      "both": 2512,
      "plan": 2513,
      "fell": 2514,
      "calling": 2515,
      "cur": 2516,
      "very": 2517,
      "tired": 2518,
      "year": 2519,
      "ser": 2520,
      "##ich": 2521,
      "##az": 2522,
      "conf": 2523,
      "caught": 2524,
      "bou": 2525,
      "mouth": 2526,
      "doesn": 2527,
      "sorry": 2528,
      "holding": 2529,
      "mis": 2530,
      "ring": 2531,
      "loved": 2532,
      "##gn": 2533,
      "wouldn": 2534,
      "afraid": 2535,
      "##men": 2536,
      "river": 2537,
      "yet": 2538,
      "knee": 2539,
      "anymore": 2540,
      "##eek": 2541,
      "##pect": 2542,
      "faith": 2543,
      "vi": 2544,
      "##ute": 2545,
      "streets": 2546,
      "half": 2547,
      "loving": 2548,
      "cal": 2549,
      "hearts": 2550,
      "##aw": 2551,
      "burning": 2552,
      "##ary": 2553,
      "perfect": 2554,
      "##ond": 2555,
      "cou": 2556,
      "standing": 2557,
      "dog": 2558,
      "loud": 2559,
      "okay": 2560,
      "gettin": 2561,
      "##oked": 2562,
      "four": 2563,
      "fu": 2564,
      "hum": 2565,
      "started": 2566,
      "yours": 2567,
      "spend": 2568,
      "##dle": 2569,
      "ten": 2570,
      "es": 2571,
      "bus": 2572,
      "says": 2573,
      "los": 2574,
      "que": 2575,
      "push": 2576,
      "front": 2577,
      "##not": 2578,
      "fuckin": 2579,
      "voice": 2580,
      "seem": 2581,
      "sen": 2582,
      "##ats": 2583,
      "##att": 2584,
      "saying": 2585,
      "##vy": 2586,
      "emp": 2587,
      "sec": 2588,
      "takes": 2589,
      "##hin": 2590,
      "tast": 2591,
      "phone": 2592,
      "pri": 2593,
      "mil": 2594,
      "##sw": 2595,
      "tear": 2596,
      "woah": 2597,
      "bang": 2598,
      "men": 2599,
      "##ife": 2600,
      "sex": 2601,
      "carry": 2602,
      "##ward": 2603,
      "ins": 2604,
      "##io": 2605,
      "pict": 2606,
      "nothin": 2607,
      "wit": 2608,
      "##akin": 2609,
      "kids": 2610,
      "chor": 2611,
      "less": 2612,
      "cant": 2613,
      "cle": 2614,
      "pra": 2615,
      "babe": 2616,
      "mom": 2617,
      "chorus": 2618,
      "picture": 2619,
      "send": 2620,
      "eat": 2621,
      "swear": 2622,
      "##cy": 2623,
      "##ssed": 2624,
      "##ect": 2625,
      "father": 2626,
      "luck": 2627,
      "oo": 2628,
      "nice": 2629,
      "thr": 2630,
      "turned": 2631,
      "hour": 2632,
      "##ready": 2633,
      "whatever": 2634,
      "clos": 2635,
      "already": 2636,
      "build": 2637,
      "near": 2638,
      "wasn": 2639,
      "cross": 2640,
      "ones": 2641,
      "##nin": 2642,
      "##its": 2643,
      "sim": 2644,
      "##earch": 2645,
      "##ert": 2646,
      "moving": 2647,
      "int": 2648,
      "seco": 2649,
      "story": 2650,
      "singing": 2651,
      "rec": 2652,
      "reg": 2653,
      "devil": 2654,
      "comin": 2655,
      "answ": 2656,
      "hoes": 2657,
      "outside": 2658,
      "search": 2659,
      "tra": 2660,
      "##bb": 2661,
      "sy": 2662,
      "gang": 2663,
      "dest": 2664,
      "nah": 2665,
      "lookin": 2666,
      "green": 2667,
      "bull": 2668,
      "supp": 2669,
      "lady": 2670,
      "hall": 2671,
      "##ills": 2672,
      "which": 2673,
      "doll": 2674,
      "##ier": 2675,
      "stick": 2676,
      "mir": 2677,
      "fing": 2678,
      "wants": 2679,
      "whis": 2680,
      "##und": 2681,
      "holy": 2682,
      "##iness": 2683,
      "##ical": 2684,
      "hat": 2685,
      "##anger": 2686,
      "called": 2687,
      "##bt": 2688,
      "sitt": 2689,
      "##igh": 2690,
      "lips": 2691,
      "##ars": 2692,
      "lives": 2693,
      "dist": 2694,
      "rich": 2695,
      "nights": 2696,
      "mount": 2697,
      "inst": 2698,
      "become": 2699,
      "blame": 2700,
      "##med": 2701,
      "daddy": 2702,
      "ret": 2703,
      "known": 2704,
      "##ner": 2705,
      "leaving": 2706,
      "imp": 2707,
      "empty": 2708,
      "sto": 2709,
      "##unt": 2710,
      "puss": 2711,
      "knock": 2712,
      "lift": 2713,
      "giving": 2714,
      "block": 2715,
      "cannot": 2716,
      "read": 2717,
      "cuz": 2718,
      "train": 2719,
      "belong": 2720,
      "id": 2721,
      "dancing": 2722,
      "club": 2723,
      "ways": 2724,
      "##ugg": 2725,
      "meant": 2726,
      "dear": 2727,
      "mag": 2728,
      "finally": 2729,
      "playing": 2730,
      "##ins": 2731,
      "##den": 2732,
      "fut": 2733,
      "higher": 2734,
      "watching": 2735,
      "dre": 2736,
      "##land": 2737,
      "ref": 2738,
      "scared": 2739,
      "hom": 2740,
      "rap": 2741,
      "##chool": 2742,
      "thats": 2743,
      "worry": 2744,
      "huh": 2745,
      "million": 2746,
      "somewhere": 2747,
      "##aa": 2748,
      "diam": 2749,
      "##vi": 2750,
      "corn": 2751,
      "shin": 2752,
      "##neath": 2753,
      "##able": 2754,
      "cover": 2755,
      "sell": 2756,
      "##sand": 2757,
      "##oc": 2758,
      "proble": 2759,
      "##ition": 2760,
      "snow": 2761,
      "suck": 2762,
      "school": 2763,
      "buy": 2764,
      "##ult": 2765,
      "att": 2766,
      "doo": 2767,
      "five": 2768,
      "pussy": 2769,
      "har": 2770,
      "dick": 2771,
      "squ": 2772,
      "compl": 2773,
      "keeps": 2774,
      "knees": 2775,
      "darling": 2776,
      "expl": 2777,
      "stri": 2778,
      "##als": 2779,
      "##ian": 2780,
      "##umber": 2781,
      "##ible": 2782,
      "feelin": 2783,
      "sight": 2784,
      "future": 2785,
      "##cket": 2786,
      "against": 2787,
      "second": 2788,
      "taste": 2789,
      "##bs": 2790,
      "##eel": 2791,
      "joy": 2792,
      "deal": 2793,
      "##ots": 2794,
      "ghost": 2795,
      "thousand": 2796,
      "char": 2797,
      "across": 2798,
      "brain": 2799,
      "pol": 2800,
      "spir": 2801,
      "##ude": 2802,
      "##ised": 2803,
      "glory": 2804,
      "ty": 2805,
      "stuck": 2806,
      "super": 2807,
      "ind": 2808,
      "clean": 2809,
      "bleed": 2810,
      "rad": 2811,
      "oce": 2812,
      "children": 2813,
      "lil": 2814,
      "rep": 2815,
      "trouble": 2816,
      "bag": 2817,
      "ce": 2818,
      "shout": 2819,
      "##ations": 2820,
      "talkin": 2821,
      "##iling": 2822,
      "darkness": 2823,
      "warm": 2824,
      "coll": 2825,
      "pur": 2826,
      "dirty": 2827,
      "hund": 2828,
      "ooo": 2829,
      "tri": 2830,
      "yuh": 2831,
      "track": 2832,
      "bust": 2833,
      "sold": 2834,
      "quick": 2835,
      "hundred": 2836,
      "##alked": 2837,
      "hor": 2838,
      "boom": 2839,
      "quest": 2840,
      "family": 2841,
      "isn": 2842,
      "ed": 2843,
      "hood": 2844,
      "space": 2845,
      "flame": 2846,
      "vis": 2847,
      "##ric": 2848,
      "mur": 2849,
      "six": 2850,
      "##akes": 2851,
      "waste": 2852,
      "angel": 2853,
      "##ned": 2854,
      "closer": 2855,
      "##my": 2856,
      "ver": 2857,
      "crack": 2858,
      "spin": 2859,
      "ele": 2860,
      "sty": 2861,
      "self": 2862,
      "crow": 2863,
      "tryin": 2864,
      "point": 2865,
      "shall": 2866,
      "##amp": 2867,
      "##iver": 2868,
      "##ene": 2869,
      "mem": 2870,
      "window": 2871,
      "ice": 2872,
      "##eas": 2873,
      "thoughts": 2874,
      "fad": 2875,
      "safe": 2876,
      "smok": 2877,
      "den": 2878,
      "comm": 2879,
      "##vor": 2880,
      "rather": 2881,
      "pretend": 2882,
      "walls": 2883,
      "praise": 2884,
      "drown": 2885,
      "write": 2886,
      "mel": 2887,
      "bell": 2888,
      "hid": 2889,
      "loves": 2890,
      "##nce": 2891,
      "nowhere": 2892,
      "weak": 2893,
      "shut": 2894,
      "sol": 2895,
      "livin": 2896,
      "everywhere": 2897,
      "##ison": 2898,
      "##ced": 2899,
      "##ster": 2900,
      "fade": 2901,
      "telling": 2902,
      "##ror": 2903,
      "pen": 2904,
      "everyday": 2905,
      "##ates": 2906,
      "minute": 2907,
      "shame": 2908,
      "number": 2909,
      "freak": 2910,
      "ive": 2911,
      "cloth": 2912,
      "##br": 2913,
      "cons": 2914,
      "##key": 2915,
      "cir": 2916,
      "storm": 2917,
      "changed": 2918,
      "pack": 2919,
      "mot": 2920,
      "breaking": 2921,
      "aint": 2922,
      "looks": 2923,
      "##ield": 2924,
      "doin": 2925,
      "##ming": 2926,
      "guy": 2927,
      "leg": 2928,
      "drug": 2929,
      "wide": 2930,
      "##icked": 2931,
      "##ips": 2932,
      "##night": 2933,
      "hung": 2934,
      "mr": 2935,
      "doubt": 2936,
      "grace": 2937,
      "fact": 2938,
      "##erve": 2939,
      "songs": 2940,
      "##king": 2941,
      "alm": 2942,
      "memor": 2943,
      "circ": 2944,
      "losing": 2945,
      "wine": 2946,
      "dying": 2947,
      "##aster": 2948,
      "crying": 2949,
      "##ote": 2950,
      "##osed": 2951,
      "working": 2952,
      "pour": 2953,
      "ocean": 2954,
      "clou": 2955,
      "paper": 2956,
      "answer": 2957,
      "cash": 2958,
      "stone": 2959,
      "eh": 2960,
      "within": 2961,
      "forgive": 2962,
      "small": 2963,
      "##yal": 2964,
      "middle": 2965,
      "##ilt": 2966,
      "prob": 2967,
      "##of": 2968,
      "##ably": 2969,
      "pers": 2970,
      "san": 2971,
      "##cial": 2972,
      "##thin": 2973,
      "awake": 2974,
      "del": 2975,
      "turning": 2976,
      "tree": 2977,
      "pat": 2978,
      "shoes": 2979,
      "add": 2980,
      "gim": 2981,
      "##enty": 2982,
      "cla": 2983,
      "fig": 2984,
      "needs": 2985,
      "dope": 2986,
      "bones": 2987,
      "clothes": 2988,
      "ru": 2989,
      "dreaming": 2990,
      "spr": 2991,
      "sal": 2992,
      "looked": 2993,
      "fake": 2994,
      "jack": 2995,
      "anyone": 2996,
      "tor": 2997,
      "lovin": 2998,
      "fucked": 2999,
      "##mes": 3000,
      "##air": 3001,
      "miles": 3002,
      "tee": 3003,
      "memories": 3004,
      "##unch": 3005,
      "##ried": 3006,
      "country": 3007,
      "mic": 3008,
      "##sel": 3009,
      "spirit": 3010,
      "inf": 3011,
      "sense": 3012,
      "nat": 3013,
      "runnin": 3014,
      "heat": 3015,
      "##app": 3016,
      "swe": 3017,
      "hy": 3018,
      "##ru": 3019,
      "wash": 3020,
      "##ork": 3021,
      "##une": 3022,
      "week": 3023,
      "rev": 3024,
      "means": 3025,
      "few": 3026,
      "lad": 3027,
      "##ising": 3028,
      "single": 3029,
      "##ger": 3030,
      "heavy": 3031,
      "neck": 3032,
      "probably": 3033,
      "walked": 3034,
      "human": 3035,
      "##rie": 3036,
      "bom": 3037,
      "cand": 3038,
      "def": 3039,
      "couple": 3040,
      "##rew": 3041,
      "longer": 3042,
      "##rought": 3043,
      "style": 3044,
      "esca": 3045,
      "je": 3046,
      "spe": 3047,
      "chill": 3048,
      "##min": 3049,
      "queen": 3050,
      "press": 3051,
      "teach": 3052,
      "dust": 3053,
      "share": 3054,
      "figure": 3055,
      "somethin": 3056,
      "law": 3057,
      "grave": 3058,
      "radio": 3059,
      "drunk": 3060,
      "ob": 3061,
      "bless": 3062,
      "clouds": 3063,
      "tong": 3064,
      "sand": 3065,
      "funk": 3066,
      "tem": 3067,
      "glass": 3068,
      "strange": 3069,
      "##cept": 3070,
      "soft": 3071,
      "treat": 3072,
      "hello": 3073,
      "lets": 3074,
      "##iv": 3075,
      "##mit": 3076,
      "clim": 3077,
      "twist": 3078,
      "dig": 3079,
      "piece": 3080,
      "bow": 3081,
      "glad": 3082,
      "sink": 3083,
      "##iet": 3084,
      "ter": 3085,
      "someday": 3086,
      "##ete": 3087,
      "sitting": 3088,
      "##aces": 3089,
      "##00": 3090,
      "funny": 3091,
      "##ony": 3092,
      "choose": 3093,
      "crowd": 3094,
      "sent": 3095,
      "##zz": 3096,
      "weed": 3097,
      "winter": 3098,
      "none": 3099,
      "ahead": 3100,
      "##ils": 3101,
      "exc": 3102,
      "band": 3103,
      "##eric": 3104,
      "##pper": 3105,
      "west": 3106,
      "feelings": 3107,
      "yell": 3108,
      "nor": 3109,
      "##read": 3110,
      "kept": 3111,
      "murder": 3112,
      "state": 3113,
      "##rise": 3114,
      "ash": 3115,
      "shining": 3116,
      "gimme": 3117,
      "##cks": 3118,
      "record": 3119,
      "##lo": 3120,
      "mma": 3121,
      "##how": 3122,
      "almost": 3123,
      "##ana": 3124,
      "sist": 3125,
      "##igger": 3126,
      "raise": 3127,
      "held": 3128,
      "ign": 3129,
      "magic": 3130,
      "##ken": 3131,
      "dry": 3132,
      "south": 3133,
      "freed": 3134,
      "corner": 3135,
      "##elu": 3136,
      "lines": 3137,
      "##mb": 3138,
      "silence": 3139,
      "##ib": 3140,
      "gen": 3141,
      "imag": 3142,
      "brand": 3143,
      "ju": 3144,
      "blues": 3145,
      "##iew": 3146,
      "##irt": 3147,
      "americ": 3148,
      "##ets": 3149,
      "ohh": 3150,
      "und": 3151,
      "book": 3152,
      "died": 3153,
      "gro": 3154,
      "##ards": 3155,
      "hole": 3156,
      "wel": 3157,
      "sme": 3158,
      "rolling": 3159,
      "angels": 3160,
      "##oy": 3161,
      "lying": 3162,
      "##attle": 3163,
      "trip": 3164,
      "##ester": 3165,
      "##ices": 3166,
      "dawn": 3167,
      "swing": 3168,
      "##ution": 3169,
      "enem": 3170,
      "foot": 3171,
      "fix": 3172,
      "poor": 3173,
      "##shine": 3174,
      "cro": 3175,
      "oooh": 3176,
      "disapp": 3177,
      "fair": 3178,
      "memory": 3179,
      "##nday": 3180,
      "return": 3181,
      "theres": 3182,
      "trees": 3183,
      "paid": 3184,
      "##vel": 3185,
      "pas": 3186,
      "brought": 3187,
      "anyway": 3188,
      "joh": 3189,
      "spot": 3190,
      "weight": 3191,
      "cour": 3192,
      "kinda": 3193,
      "missing": 3194,
      "climb": 3195,
      "evil": 3196,
      "chain": 3197,
      "smell": 3198,
      "women": 3199,
      "paint": 3200,
      "freedom": 3201,
      "bottom": 3202,
      "fighting": 3203,
      "mountain": 3204,
      "##ial": 3205,
      "##ks": 3206,
      "fat": 3207,
      "hust": 3208,
      "vict": 3209,
      "clock": 3210,
      "sleeping": 3211,
      "##te": 3212,
      "welcome": 3213,
      "##ughter": 3214,
      "john": 3215,
      "feed": 3216,
      "##ome": 3217,
      "killing": 3218,
      "wings": 3219,
      "##ual": 3220,
      "simple": 3221,
      "grand": 3222,
      "conc": 3223,
      "mmm": 3224,
      "sug": 3225,
      "secret": 3226,
      "trave": 3227,
      "pride": 3228,
      "needed": 3229,
      "##sent": 3230,
      "bare": 3231,
      "wave": 3232,
      "##cha": 3233,
      "bound": 3234,
      "fail": 3235,
      "surv": 3236,
      "survive": 3237,
      "loose": 3238,
      "jud": 3239,
      "outta": 3240,
      "bill": 3241,
      "bey": 3242,
      "cor": 3243,
      "##ants": 3244,
      "wra": 3245,
      "slowly": 3246,
      "ends": 3247,
      "spent": 3248,
      "seven": 3249,
      "chas": 3250,
      "##vent": 3251,
      "dress": 3252,
      "bye": 3253,
      "lean": 3254,
      "##old": 3255,
      "##roud": 3256,
      "learned": 3257,
      "ow": 3258,
      "having": 3259,
      "favor": 3260,
      "##jah": 3261,
      "test": 3262,
      "swim": 3263,
      "inv": 3264,
      "##amed": 3265,
      "path": 3266,
      "bri": 3267,
      "##ey": 3268,
      "yester": 3269,
      "##amb": 3270,
      "chest": 3271,
      "somehow": 3272,
      "wis": 3273,
      "yesterday": 3274,
      "cast": 3275,
      "##tern": 3276,
      "hallelu": 3277,
      "rul": 3278,
      "sub": 3279,
      "craw": 3280,
      "fresh": 3281,
      "##cing": 3282,
      "tongue": 3283,
      "least": 3284,
      "given": 3285,
      "desire": 3286,
      "double": 3287,
      "wife": 3288,
      "##ging": 3289,
      "##cc": 3290,
      "remind": 3291,
      "##onest": 3292,
      "cup": 3293,
      "##onds": 3294,
      "hanging": 3295,
      "escape": 3296,
      "div": 3297,
      "person": 3298,
      "##ron": 3299,
      "type": 3300,
      "##line": 3301,
      "box": 3302,
      "thinkin": 3303,
      "instead": 3304,
      "##ither": 3305,
      "##selves": 3306,
      "grind": 3307,
      "bottle": 3308,
      "job": 3309,
      "kis": 3310,
      "heal": 3311,
      "##ha": 3312,
      "##cri": 3313,
      "short": 3314,
      "beyond": 3315,
      "honest": 3316,
      "supposed": 3317,
      "pos": 3318,
      "hurts": 3319,
      "mercy": 3320,
      "fit": 3321,
      "diamonds": 3322,
      "steal": 3323,
      "park": 3324,
      "stup": 3325,
      "##under": 3326,
      "leaves": 3327,
      "##frie": 3328,
      "streng": 3329,
      "strength": 3330,
      "rollin": 3331,
      "art": 3332,
      "##ters": 3333,
      "proud": 3334,
      "sunshine": 3335,
      "hallelujah": 3336,
      "med": 3337,
      "ago": 3338,
      "cree": 3339,
      "danger": 3340,
      "inc": 3341,
      "draw": 3342,
      "##ved": 3343,
      "scene": 3344,
      "##ase": 3345,
      "verse": 3346,
      "##dom": 3347,
      "bought": 3348,
      "grab": 3349,
      "##ail": 3350,
      "motherfucker": 3351,
      "##eap": 3352,
      "haven": 3353,
      "stupid": 3354,
      "whisper": 3355,
      "nuh": 3356,
      "searching": 3357,
      "ran": 3358,
      "gri": 3359,
      "##ized": 3360,
      "acc": 3361,
      "spit": 3362,
      "drum": 3363,
      "golden": 3364,
      "skies": 3365,
      "played": 3366,
      "quiet": 3367,
      "view": 3368,
      "key": 3369,
      "##vers": 3370,
      "trick": 3371,
      "dumb": 3372,
      "mach": 3373,
      "spl": 3374,
      "bird": 3375,
      "##ides": 3376,
      "mirror": 3377,
      "##la": 3378,
      "shadows": 3379,
      "##cious": 3380,
      "turns": 3381,
      "rhyth": 3382,
      "nine": 3383,
      "wont": 3384,
      "stuff": 3385,
      "special": 3386,
      "##atic": 3387,
      "##isf": 3388,
      "brown": 3389,
      "emb": 3390,
      "##que": 3391,
      "mas": 3392,
      "sayin": 3393,
      "quit": 3394,
      "riding": 3395,
      "shadow": 3396,
      "anybody": 3397,
      "##rets": 3398,
      "problem": 3399,
      "bee": 3400,
      "quite": 3401,
      "cat": 3402,
      "realize": 3403,
      "viol": 3404,
      "blo": 3405,
      "##ief": 3406,
      "starts": 3407,
      "chick": 3408,
      "later": 3409,
      "business": 3410,
      "load": 3411,
      "filled": 3412,
      "##imp": 3413,
      "dep": 3414,
      "lock": 3415,
      "gas": 3416,
      "screaming": 3417,
      "bank": 3418,
      "class": 3419,
      "##iday": 3420,
      "wee": 3421,
      "##ures": 3422,
      "dirt": 3423,
      "wet": 3424,
      "##ges": 3425,
      "##iny": 3426,
      "eight": 3427,
      "surp": 3428,
      "rom": 3429,
      "case": 3430,
      "beauty": 3431,
      "brid": 3432,
      "beneath": 3433,
      "tall": 3434,
      "news": 3435,
      "crew": 3436,
      "satisf": 3437,
      "##used": 3438,
      "happened": 3439,
      "##room": 3440,
      "fol": 3441,
      "built": 3442,
      "asked": 3443,
      "silver": 3444,
      "knowing": 3445,
      "lucky": 3446,
      "harder": 3447,
      "hoping": 3448,
      "makin": 3449,
      "dollar": 3450,
      "wood": 3451,
      "hours": 3452,
      "rhythm": 3453,
      "taken": 3454,
      "question": 3455,
      "ayy": 3456,
      "places": 3457,
      "ext": 3458,
      "##act": 3459,
      "woo": 3460,
      "fur": 3461,
      "rose": 3462,
      "##ored": 3463,
      "fingers": 3464,
      "stare": 3465,
      "ladies": 3466,
      "numb": 3467,
      "##ina": 3468,
      "ye": 3469,
      "##ird": 3470,
      "field": 3471,
      "gent": 3472,
      "battle": 3473,
      "driving": 3474,
      "pound": 3475,
      "sounds": 3476,
      "waves": 3477,
      "bear": 3478,
      "pieces": 3479,
      "fle": 3480,
      "twenty": 3481,
      "price": 3482,
      "##aint": 3483,
      "buck": 3484,
      "homie": 3485,
      "respect": 3486,
      "##gu": 3487,
      "fe": 3488,
      "ev": 3489,
      "insane": 3490,
      "guns": 3491,
      "weather": 3492,
      "momma": 3493,
      "gyal": 3494,
      "##athing": 3495,
      "comf": 3496,
      "##friend": 3497,
      "mix": 3498,
      "sail": 3499,
      "hip": 3500,
      "mod": 3501,
      "repe": 3502,
      "bone": 3503,
      "bend": 3504,
      "spark": 3505,
      "deserve": 3506,
      "faces": 3507,
      "teeth": 3508,
      "suffer": 3509,
      "fate": 3510,
      "sli": 3511,
      "edge": 3512,
      "games": 3513,
      "hill": 3514,
      "spread": 3515,
      "switch": 3516,
      "lit": 3517,
      "tough": 3518,
      "##ppers": 3519,
      "rush": 3520,
      "##ience": 3521,
      "beside": 3522,
      "pot": 3523,
      "##ens": 3524,
      "sweat": 3525,
      "sister": 3526,
      "trap": 3527,
      "inn": 3528,
      "##kets": 3529,
      "midnight": 3530,
      "stack": 3531,
      "whip": 3532,
      "mary": 3533,
      "##oon": 3534,
      "##ics": 3535,
      "sugar": 3536,
      "explain": 3537,
      "hero": 3538,
      "grown": 3539,
      "##ator": 3540,
      "glow": 3541,
      "lovers": 3542,
      "speed": 3543,
      "##ushing": 3544,
      "locked": 3545,
      "falls": 3546,
      "##esh": 3547,
      "mov": 3548,
      "##ention": 3549,
      "##ches": 3550,
      "boss": 3551,
      "##leep": 3552,
      "ben": 3553,
      "team": 3554,
      "season": 3555,
      "twice": 3556,
      "age": 3557,
      "chic": 3558,
      "flying": 3559,
      "sha": 3560,
      "asleep": 3561,
      "##eels": 3562,
      "inna": 3563,
      "boot": 3564,
      "drinking": 3565,
      "stead": 3566,
      "birth": 3567,
      "wre": 3568,
      "##essed": 3569,
      "stronger": 3570,
      "aye": 3571,
      "cars": 3572,
      "wasted": 3573,
      "##cle": 3574,
      "amaz": 3575,
      "rules": 3576,
      "cow": 3577,
      "gal": 3578,
      "##ient": 3579,
      "##dd": 3580,
      "rub": 3581,
      "york": 3582,
      "ment": 3583,
      "exp": 3584,
      "##ined": 3585,
      "silent": 3586,
      "favorite": 3587,
      "regret": 3588,
      "chains": 3589,
      "chase": 3590,
      "prove": 3591,
      "sorrow": 3592,
      "slip": 3593,
      "woke": 3594,
      "bells": 3595,
      "anywhere": 3596,
      "keeping": 3597,
      "##uel": 3598,
      "##ject": 3599,
      "race": 3600,
      "east": 3601,
      "ly": 3602,
      "pump": 3603,
      "drag": 3604,
      "eng": 3605,
      "jam": 3606,
      "lu": 3607,
      "##iting": 3608,
      "##aked": 3609,
      "drugs": 3610,
      "asking": 3611,
      "color": 3612,
      "moves": 3613,
      "truck": 3614,
      "hoo": 3615,
      "arm": 3616,
      "##ashing": 3617,
      "surre": 3618,
      "cook": 3619,
      "wrote": 3620,
      "finger": 3621,
      "atta": 3622,
      "heads": 3623,
      "cele": 3624,
      "er": 3625,
      "##bel": 3626,
      "##ike": 3627,
      "sett": 3628,
      "bum": 3629,
      "##etto": 3630,
      "pon": 3631,
      "oth": 3632,
      "ohhh": 3633,
      "chasing": 3634,
      "seeing": 3635,
      "breathing": 3636,
      "##town": 3637,
      "##odies": 3638,
      "##mp": 3639,
      "worst": 3640,
      "smoking": 3641,
      "bomb": 3642,
      "early": 3643,
      "##ments": 3644,
      "flesh": 3645,
      "master": 3646,
      "##ident": 3647,
      "crown": 3648,
      "mistake": 3649,
      "underneath": 3650,
      "drift": 3651,
      "beats": 3652,
      "pocket": 3653,
      "##set": 3654,
      "lick": 3655,
      "capt": 3656,
      "laid": 3657,
      "shaw": 3658,
      "coast": 3659,
      "##ship": 3660,
      "others": 3661,
      "##wards": 3662,
      "whenever": 3663,
      "chur": 3664,
      "##erg": 3665,
      "strugg": 3666,
      "##ney": 3667,
      "expect": 3668,
      "aut": 3669,
      "##ctor": 3670,
      "crash": 3671,
      "exist": 3672,
      "##res": 3673,
      "lately": 3674,
      "cy": 3675,
      "##che": 3676,
      "##sta": 3677,
      "sunday": 3678,
      "pill": 3679,
      "cos": 3680,
      "shots": 3681,
      "bass": 3682,
      "growing": 3683,
      "calif": 3684,
      "##ax": 3685,
      "thug": 3686,
      "rising": 3687,
      "vision": 3688,
      "pleas": 3689,
      "swall": 3690,
      "tv": 3691,
      "##ode": 3692,
      "emot": 3693,
      "##fu": 3694,
      "parad": 3695,
      "##ale": 3696,
      "##ited": 3697,
      "birds": 3698,
      "##uts": 3699,
      "californ": 3700,
      "mc": 3701,
      "##ched": 3702,
      "rob": 3703,
      "mistakes": 3704,
      "problems": 3705,
      "lou": 3706,
      "cop": 3707,
      "##otten": 3708,
      "neigh": 3709,
      "##sy": 3710,
      "below": 3711,
      "10": 3712,
      "savi": 3713,
      "rhyme": 3714,
      "creep": 3715,
      "dat": 3716,
      "bitter": 3717,
      "celebr": 3718,
      "##va": 3719,
      "store": 3720,
      "ghetto": 3721,
      "disc": 3722,
      "playin": 3723,
      "##ching": 3724,
      "fame": 3725,
      "cried": 3726,
      "neighb": 3727,
      "wi": 3728,
      "listening": 3729,
      "dj": 3730,
      "shawty": 3731,
      "bump": 3732,
      "inter": 3733,
      "staring": 3734,
      "aff": 3735,
      "youth": 3736,
      "pap": 3737,
      "thunder": 3738,
      "brothers": 3739,
      "##bles": 3740,
      "dire": 3741,
      "thang": 3742,
      "cost": 3743,
      "scr": 3744,
      "sud": 3745,
      "bree": 3746,
      "hes": 3747,
      "bounce": 3748,
      "saved": 3749,
      "wondering": 3750,
      "letting": 3751,
      "cru": 3752,
      "surrender": 3753,
      "california": 3754,
      "##usion": 3755,
      "pal": 3756,
      "eas": 3757,
      "spoke": 3758,
      "##phone": 3759,
      "bite": 3760,
      "##kin": 3761,
      "stranger": 3762,
      "holl": 3763,
      "beating": 3764,
      "##ler": 3765,
      "plans": 3766,
      "merry": 3767,
      "laughing": 3768,
      "lovely": 3769,
      "unf": 3770,
      "pum": 3771,
      "stor": 3772,
      "bigger": 3773,
      "church": 3774,
      "minds": 3775,
      "calm": 3776,
      "pimp": 3777,
      "finish": 3778,
      "changing": 3779,
      "pulled": 3780,
      "gift": 3781,
      "surround": 3782,
      "pressure": 3783,
      "anim": 3784,
      "wherever": 3785,
      "guys": 3786,
      "swallow": 3787,
      "rum": 3788,
      "steady": 3789,
      "##wood": 3790,
      "const": 3791,
      "##ground": 3792,
      "deeper": 3793,
      "sudden": 3794,
      "santa": 3795,
      "hon": 3796,
      "##ually": 3797,
      "hist": 3798,
      "mark": 3799,
      "wheel": 3800,
      "##ertain": 3801,
      "seat": 3802,
      "disappear": 3803,
      "shore": 3804,
      "crime": 3805,
      "jah": 3806,
      "ship": 3807,
      "innoc": 3808,
      "##fl": 3809,
      "brings": 3810,
      "##uce": 3811,
      "diamond": 3812,
      "hiding": 3813,
      "reality": 3814,
      "##go": 3815,
      "movin": 3816,
      "champ": 3817,
      "ol": 3818,
      "souls": 3819,
      "##ray": 3820,
      "distance": 3821,
      "##oooo": 3822,
      "lived": 3823,
      "defe": 3824,
      "pan": 3825,
      "stage": 3826,
      "ge": 3827,
      "machine": 3828,
      "food": 3829,
      "smil": 3830,
      "destro": 3831,
      "reco": 3832,
      "complete": 3833,
      "police": 3834,
      "tick": 3835,
      "fed": 3836,
      "plus": 3837,
      "flip": 3838,
      "doors": 3839,
      "##any": 3840,
      "fears": 3841,
      "dey": 3842,
      "endless": 3843,
      "##mon": 3844,
      "flash": 3845,
      "blessed": 3846,
      "choice": 3847,
      "chose": 3848,
      "boo": 3849,
      "paradise": 3850,
      "folks": 3851,
      "calls": 3852,
      "coff": 3853,
      "wonderful": 3854,
      "##ten": 3855,
      "worse": 3856,
      "rough": 3857,
      "killed": 3858,
      "##iff": 3859,
      "cloud": 3860,
      "fish": 3861,
      "det": 3862,
      "syst": 3863,
      "stood": 3864,
      "ridin": 3865,
      "attention": 3866,
      "sexy": 3867,
      "tele": 3868,
      "either": 3869,
      "##de": 3870,
      "##atin": 3871,
      "older": 3872,
      "taught": 3873,
      "##ities": 3874,
      "##ination": 3875,
      "voices": 3876,
      "##ctions": 3877,
      "enter": 3878,
      "cig": 3879,
      "dum": 3880,
      "##race": 3881,
      "noise": 3882,
      "spell": 3883,
      "prin": 3884,
      "enemy": 3885,
      "flowers": 3886,
      "refle": 3887,
      "fallen": 3888,
      "judge": 3889,
      "dev": 3890,
      "mighty": 3891,
      "month": 3892,
      "guit": 3893,
      "##ider": 3894,
      "hol": 3895,
      "addict": 3896,
      "##illy": 3897,
      "hun": 3898,
      "trans": 3899,
      "history": 3900,
      "legs": 3901,
      "##ety": 3902,
      "shoulder": 3903,
      "beginning": 3904,
      "wander": 3905,
      "spinning": 3906,
      "table": 3907,
      "wound": 3908,
      "shar": 3909,
      "bread": 3910,
      "yellow": 3911,
      "passed": 3912,
      "breaks": 3913,
      "tu": 3914,
      "takin": 3915,
      "sna": 3916,
      "hook": 3917,
      "evening": 3918,
      "##olog": 3919,
      "myst": 3920,
      "claim": 3921,
      "repeat": 3922,
      "stom": 3923,
      "du": 3924,
      "ourselves": 3925,
      "pet": 3926,
      "shouldn": 3927,
      "fant": 3928,
      "##ckets": 3929,
      "##ceive": 3930,
      "wrist": 3931,
      "walkin": 3932,
      "pure": 3933,
      "sle": 3934,
      "knife": 3935,
      "adv": 3936,
      "foc": 3937,
      "handle": 3938,
      "dare": 3939,
      "beer": 3940,
      "flames": 3941,
      "join": 3942,
      "##ision": 3943,
      "##boy": 3944,
      "closed": 3945,
      "deny": 3946,
      "highway": 3947,
      "remain": 3948,
      "bodies": 3949,
      "wicked": 3950,
      "opp": 3951,
      "raised": 3952,
      "spring": 3953,
      "missed": 3954,
      "poison": 3955,
      "##sence": 3956,
      "etern": 3957,
      "bridge": 3958,
      "##gin": 3959,
      "##iest": 3960,
      "##itten": 3961,
      "fro": 3962,
      "gener": 3963,
      "##let": 3964,
      "##ided": 3965,
      "bec": 3966,
      "haters": 3967,
      "##aze": 3968,
      "clap": 3969,
      "cell": 3970,
      "waitin": 3971,
      "stress": 3972,
      "prot": 3973,
      "mam": 3974,
      "shows": 3975,
      "dy": 3976,
      "whats": 3977,
      "hmm": 3978,
      "morn": 3979,
      "cond": 3980,
      "elect": 3981,
      "letter": 3982,
      "match": 3983,
      "cap": 3984,
      "ner": 3985,
      "post": 3986,
      "hungry": 3987,
      "##ley": 3988,
      "##jo": 3989,
      "grey": 3990,
      "slide": 3991,
      "shor": 3992,
      "fift": 3993,
      "acting": 3994,
      "revol": 3995,
      "bullet": 3996,
      "##gr": 3997,
      "breeze": 3998,
      "liqu": 3999,
      "passion": 4000,
      "thee": 4001,
      "smokin": 4002,
      "imagine": 4003,
      "kitch": 4004,
      "joke": 4005,
      "##ift": 4006,
      "din": 4007,
      "flight": 4008,
      "gives": 4009,
      "repl": 4010,
      "tur": 4011,
      "beast": 4012,
      "forgot": 4013,
      "horse": 4014,
      "candy": 4015,
      "##ky": 4016,
      "faster": 4017,
      "north": 4018,
      "tune": 4019,
      "##aret": 4020,
      "##itting": 4021,
      "system": 4022,
      "fan": 4023,
      "beach": 4024,
      "burned": 4025,
      "prayer": 4026,
      "starting": 4027,
      "thro": 4028,
      "rockin": 4029,
      "lung": 4030,
      "pres": 4031,
      "##ances": 4032,
      "sittin": 4033,
      "boat": 4034,
      "passing": 4035,
      "gentle": 4036,
      "##ealous": 4037,
      "secrets": 4038,
      "van": 4039,
      "thrill": 4040,
      "##ern": 4041,
      "final": 4042,
      "fort": 4043,
      "yah": 4044,
      "force": 4045,
      "grass": 4046,
      "rip": 4047,
      "destroy": 4048,
      "ahh": 4049,
      "form": 4050,
      "signs": 4051,
      "message": 4052,
      "happiness": 4053,
      "certain": 4054,
      "flex": 4055,
      "nose": 4056,
      "##ged": 4057,
      "booty": 4058,
      "##pend": 4059,
      "kitchen": 4060,
      "bor": 4061,
      "cent": 4062,
      "lif": 4063,
      "nation": 4064,
      "harm": 4065,
      "scars": 4066,
      "desp": 4067,
      "excuse": 4068,
      "hurry": 4069,
      "naked": 4070,
      "barely": 4071,
      "##ured": 4072,
      "tender": 4073,
      "weeke": 4074,
      "pictures": 4075,
      "disco": 4076,
      "amazing": 4077,
      "movie": 4078,
      "jealous": 4079,
      "thin": 4080,
      "funky": 4081,
      "watched": 4082,
      "##afuck": 4083,
      "##ify": 4084,
      "burns": 4085,
      "tied": 4086,
      "##zen": 4087,
      "pu": 4088,
      "bay": 4089,
      "veins": 4090,
      "grew": 4091,
      "wol": 4092,
      "blast": 4093,
      "building": 4094,
      "##ii": 4095,
      "cops": 4096,
      "prison": 4097,
      "digg": 4098,
      "slave": 4099,
      "aim": 4100,
      "##par": 4101,
      "bud": 4102,
      "cock": 4103,
      "##ries": 4104,
      "butter": 4105,
      "bury": 4106,
      "runs": 4107,
      "crush": 4108,
      "satur": 4109,
      "punk": 4110,
      "glor": 4111,
      "blowing": 4112,
      "fools": 4113,
      "imma": 4114,
      "course": 4115,
      "meaning": 4116,
      "happens": 4117,
      "##itty": 4118,
      "##pes": 4119,
      "doctor": 4120,
      "wishing": 4121,
      "groove": 4122,
      "est": 4123,
      "offer": 4124,
      "godd": 4125,
      "ham": 4126,
      "preach": 4127,
      "fault": 4128,
      "moonlight": 4129,
      "##uc": 4130,
      "conne": 4131,
      "##ained": 4132,
      "strike": 4133,
      "butt": 4134,
      "busy": 4135,
      "gather": 4136,
      "fist": 4137,
      "ending": 4138,
      "##ba": 4139,
      "era": 4140,
      "ven": 4141,
      "scre": 4142,
      "cares": 4143,
      "mountains": 4144,
      "colors": 4145,
      "##cted": 4146,
      "settle": 4147,
      "motherfuckin": 4148,
      "jail": 4149,
      "##ether": 4150,
      "attack": 4151,
      "fading": 4152,
      "guitar": 4153,
      "##val": 4154,
      "comfort": 4155,
      "20": 4156,
      "##rr": 4157,
      "ent": 4158,
      "demons": 4159,
      "ble": 4160,
      "reasons": 4161,
      "cas": 4162,
      "##ssible": 4163,
      "jew": 4164,
      "wasting": 4165,
      "zone": 4166,
      "fallin": 4167,
      "roof": 4168,
      "##kest": 4169,
      "fil": 4170,
      "dough": 4171,
      "exact": 4172,
      "seek": 4173,
      "shirt": 4174,
      "ban": 4175,
      "##umble": 4176,
      "thick": 4177,
      "ears": 4178,
      "island": 4179,
      "ease": 4180,
      "gard": 4181,
      "stopped": 4182,
      "##xic": 4183,
      "bother": 4184,
      "headed": 4185,
      "unk": 4186,
      "ant": 4187,
      "america": 4188,
      "tide": 4189,
      "##rent": 4190,
      "wreck": 4191,
      "jer": 4192,
      "whiskey": 4193,
      "onto": 4194,
      "##ik": 4195,
      "savior": 4196,
      "tru": 4197,
      "jeans": 4198,
      "unless": 4199,
      "##aine": 4200,
      "suit": 4201,
      "mirac": 4202,
      "hits": 4203,
      "tip": 4204,
      "cigaret": 4205,
      "foreign": 4206,
      "wearing": 4207,
      "order": 4208,
      "##ular": 4209,
      "rocks": 4210,
      "forgotten": 4211,
      "stole": 4212,
      "youll": 4213,
      "cher": 4214,
      "uns": 4215,
      "pin": 4216,
      "steel": 4217,
      "waited": 4218,
      "por": 4219,
      "saturday": 4220,
      "guide": 4221,
      "surprise": 4222,
      "hoe": 4223,
      "bath": 4224,
      "stayed": 4225,
      "bullsh": 4226,
      "motion": 4227,
      "##bre": 4228,
      "scar": 4229,
      "shaking": 4230,
      "torn": 4231,
      "windows": 4232,
      "pulling": 4233,
      "kingdom": 4234,
      "##ole": 4235,
      "##bble": 4236,
      "page": 4237,
      "echo": 4238,
      "keys": 4239,
      "row": 4240,
      "counting": 4241,
      "##wind": 4242,
      "thanks": 4243,
      "buried": 4244,
      "nature": 4245,
      "val": 4246,
      "forward": 4247,
      "dressed": 4248,
      "lungs": 4249,
      "decide": 4250,
      "callin": 4251,
      "bon": 4252,
      "rule": 4253,
      "american": 4254,
      "##ball": 4255,
      "vall": 4256,
      "boog": 4257,
      "ang": 4258,
      "lane": 4259,
      "brave": 4260,
      "victim": 4261,
      "design": 4262,
      "rhymes": 4263,
      "##aker": 4264,
      "threw": 4265,
      "mud": 4266,
      "sheet": 4267,
      "##attered": 4268,
      "bleeding": 4269,
      "moved": 4270,
      "difference": 4271,
      "##hood": 4272,
      "dollars": 4273,
      "##els": 4274,
      "hustle": 4275,
      "tat": 4276,
      "precious": 4277,
      "reign": 4278,
      "##aged": 4279,
      "holly": 4280,
      "##ittin": 4281,
      "##hhhh": 4282,
      "tex": 4283,
      "daughter": 4284,
      "##itude": 4285,
      "bal": 4286,
      "poppin": 4287,
      "notice": 4288,
      "##cess": 4289,
      "faded": 4290,
      "##utes": 4291,
      "raw": 4292,
      "univer": 4293,
      "ought": 4294,
      "##ealing": 4295,
      "gangsta": 4296,
      "##ops": 4297,
      "mm": 4298,
      "girlfriend": 4299,
      "homies": 4300,
      "darlin": 4301,
      "sacri": 4302,
      "##ingle": 4303,
      "##atest": 4304,
      "##ppy": 4305,
      "thy": 4306,
      "killer": 4307,
      "romance": 4308,
      "##ural": 4309,
      "adore": 4310,
      "situ": 4311,
      "kissed": 4312,
      "promised": 4313,
      "bars": 4314,
      "base": 4315,
      "worship": 4316,
      "admit": 4317,
      "chicken": 4318,
      "##ives": 4319,
      "surf": 4320,
      "misery": 4321,
      "hollow": 4322,
      "greatest": 4323,
      "##da": 4324,
      "##oned": 4325,
      "hyp": 4326,
      "answers": 4327,
      "fever": 4328,
      "bands": 4329,
      "mood": 4330,
      "##quer": 4331,
      "bas": 4332,
      "questions": 4333,
      "##beat": 4334,
      "promises": 4335,
      "steps": 4336,
      "dude": 4337,
      "friday": 4338,
      "##ption": 4339,
      "recogn": 4340,
      "mission": 4341,
      "bullshit": 4342,
      "weekend": 4343,
      "##vation": 4344,
      "shes": 4345,
      "dime": 4346,
      "##fully": 4347,
      "desper": 4348,
      "among": 4349,
      "written": 4350,
      "desert": 4351,
      "plane": 4352,
      "changes": 4353,
      "likes": 4354,
      "smiling": 4355,
      "suddenly": 4356,
      "youve": 4357,
      "soldier": 4358,
      "stories": 4359,
      "ug": 4360,
      "pants": 4361,
      "showed": 4362,
      "exactly": 4363,
      "wise": 4364,
      "bru": 4365,
      "convers": 4366,
      "psy": 4367,
      "crawl": 4368,
      "##cci": 4369,
      "garden": 4370,
      "tellin": 4371,
      "##sion": 4372,
      "rainb": 4373,
      "broad": 4374,
      "flag": 4375,
      "##ners": 4376,
      "action": 4377,
      "arr": 4378,
      "sinking": 4379,
      "dangerous": 4380,
      "rappers": 4381,
      "maj": 4382,
      "##ified": 4383,
      "ling": 4384,
      "##mare": 4385,
      "relax": 4386,
      "ashes": 4387,
      "resist": 4388,
      "pist": 4389,
      "bringing": 4390,
      "##ital": 4391,
      "chee": 4392,
      "dogs": 4393,
      "wat": 4394,
      "hen": 4395,
      "haunt": 4396,
      "##uit": 4397,
      "shell": 4398,
      "tow": 4399,
      "throat": 4400,
      "protect": 4401,
      "whether": 4402,
      "sacrif": 4403,
      "names": 4404,
      "curse": 4405,
      "roses": 4406,
      "nightmare": 4407,
      "strang": 4408,
      "clown": 4409,
      "tie": 4410,
      "liquor": 4411,
      "motherfuckers": 4412,
      "fou": 4413,
      "waking": 4414,
      "cries": 4415,
      "embrace": 4416,
      "##gest": 4417,
      "givin": 4418,
      "swee": 4419,
      "grows": 4420,
      "hills": 4421,
      "shed": 4422,
      "19": 4423,
      "prep": 4424,
      "diss": 4425,
      "struggle": 4426,
      "##joy": 4427,
      "quar": 4428,
      "tells": 4429,
      "cheap": 4430,
      "##ique": 4431,
      "aren": 4432,
      "main": 4433,
      "fal": 4434,
      "begun": 4435,
      "prod": 4436,
      "sip": 4437,
      "pleasure": 4438,
      "mystery": 4439,
      "further": 4440,
      "##ja": 4441,
      "destiny": 4442,
      "melody": 4443,
      "worried": 4444,
      "##ka": 4445,
      "##etime": 4446,
      "gucci": 4447,
      "began": 4448,
      "grip": 4449,
      "##ili": 4450,
      "drowning": 4451,
      "prof": 4452,
      "energ": 4453,
      "reaching": 4454,
      "begins": 4455,
      "spill": 4456,
      "separ": 4457,
      "mornin": 4458,
      "kisses": 4459,
      "weap": 4460,
      "nin": 4461,
      "deliver": 4462,
      "fold": 4463,
      "scratch": 4464,
      "circle": 4465,
      "##oid": 4466,
      "##con": 4467,
      "pushing": 4468,
      "disgu": 4469,
      "surely": 4470,
      "##ature": 4471,
      "coffee": 4472,
      "wanting": 4473,
      "glo": 4474,
      "cruel": 4475,
      "##lic": 4476,
      "shorty": 4477,
      "##airs": 4478,
      "rings": 4479,
      "workin": 4480,
      "bottles": 4481,
      "begging": 4482,
      "##ffic": 4483,
      "praying": 4484,
      "present": 4485,
      "writing": 4486,
      "confess": 4487,
      "equ": 4488,
      "goddam": 4489,
      "weh": 4490,
      "##down": 4491,
      "pistol": 4492,
      "tun": 4493,
      "##back": 4494,
      "company": 4495,
      "divine": 4496,
      "cream": 4497,
      "kings": 4498,
      "shines": 4499,
      "holds": 4500,
      "##away": 4501,
      "duck": 4502,
      "lust": 4503,
      "succ": 4504,
      "wrapped": 4505,
      "flood": 4506,
      "extra": 4507,
      "forth": 4508,
      "stro": 4509,
      "wire": 4510,
      "sees": 4511,
      "enjoy": 4512,
      "card": 4513,
      "seemed": 4514,
      "lim": 4515,
      "frame": 4516,
      "trapped": 4517,
      "trippin": 4518,
      "fantasy": 4519,
      "ray": 4520,
      "vir": 4521,
      "ast": 4522,
      "buzz": 4523,
      "lamb": 4524,
      "fie": 4525,
      "underground": 4526,
      "purp": 4527,
      "##wh": 4528,
      "truly": 4529,
      "##aly": 4530,
      "troubles": 4531,
      "##ero": 4532,
      "except": 4533,
      "##fer": 4534,
      "##ury": 4535,
      "sla": 4536,
      "dee": 4537,
      "covered": 4538,
      "emotion": 4539,
      "smash": 4540,
      "ris": 4541,
      "##icide": 4542,
      "sins": 4543,
      "enemies": 4544,
      "release": 4545,
      "split": 4546,
      "boogie": 4547,
      "loc": 4548,
      "dip": 4549,
      "##thern": 4550,
      "##ache": 4551,
      "##ste": 4552,
      "chair": 4553,
      "float": 4554,
      "toes": 4555,
      "smo": 4556,
      "mal": 4557,
      "boots": 4558,
      "##uu": 4559,
      "floating": 4560,
      "blows": 4561,
      "guard": 4562,
      "shy": 4563,
      "hab": 4564,
      "lightning": 4565,
      "ugly": 4566,
      "lifetime": 4567,
      "often": 4568,
      "constant": 4569,
      "gar": 4570,
      "click": 4571,
      "non": 4572,
      "led": 4573,
      "faithful": 4574,
      "rage": 4575,
      "travel": 4576,
      "wheels": 4577,
      "##ix": 4578,
      "##vous": 4579,
      "dropped": 4580,
      "dece": 4581,
      "beef": 4582,
      "celebrate": 4583,
      "mile": 4584,
      "satisfied": 4585,
      "twisted": 4586,
      "sam": 4587,
      "dancin": 4588,
      "##ga": 4589,
      "treas": 4590,
      "putting": 4591,
      "jour": 4592,
      "##cer": 4593,
      "punch": 4594,
      "serious": 4595,
      "swag": 4596,
      "cake": 4597,
      "presence": 4598,
      "sneak": 4599,
      "lip": 4600,
      "energy": 4601,
      "johnny": 4602,
      "throne": 4603,
      "##bies": 4604,
      "limit": 4605,
      "stret": 4606,
      "drinkin": 4607,
      "lack": 4608,
      "medic": 4609,
      "ignore": 4610,
      "cheek": 4611,
      "squee": 4612,
      "hardly": 4613,
      "dom": 4614,
      "wer": 4615,
      "bags": 4616,
      "level": 4617,
      "contin": 4618,
      "##ression": 4619,
      "serve": 4620,
      "whose": 4621,
      "vac": 4622,
      "ir": 4623,
      "plain": 4624,
      "geor": 4625,
      "jingle": 4626,
      "##anted": 4627,
      "opened": 4628,
      "minutes": 4629,
      "valley": 4630,
      "##idence": 4631,
      "crib": 4632,
      "##fection": 4633,
      "gods": 4634,
      "stones": 4635,
      "fla": 4636,
      "moments": 4637,
      "jim": 4638,
      "##yy": 4639,
      "sheets": 4640,
      "shape": 4641,
      "pub": 4642,
      "monster": 4643,
      "revolution": 4644,
      "liar": 4645,
      "pockets": 4646,
      "rent": 4647,
      "plenty": 4648,
      "metal": 4649,
      "phot": 4650,
      "##ites": 4651,
      "focus": 4652,
      "glock": 4653,
      "became": 4654,
      "unkn": 4655,
      "pills": 4656,
      "melt": 4657,
      "rocking": 4658,
      "heartbeat": 4659,
      "sus": 4660,
      "terri": 4661,
      "mac": 4662,
      "electric": 4663,
      "sang": 4664,
      "darkest": 4665,
      "cryin": 4666,
      "planet": 4667,
      "tracks": 4668,
      "ur": 4669,
      "frozen": 4670,
      "unc": 4671,
      "hopes": 4672,
      "pink": 4673,
      "date": 4674,
      "##ids": 4675,
      "##ancy": 4676,
      "gain": 4677,
      "rack": 4678,
      "motherfucking": 4679,
      "situation": 4680,
      "blunt": 4681,
      "shade": 4682,
      "##tain": 4683,
      "tang": 4684,
      "goddamn": 4685,
      "##umbling": 4686,
      "horn": 4687,
      "##ense": 4688,
      "finding": 4689,
      "lied": 4690,
      "100": 4691,
      "wrap": 4692,
      "warning": 4693,
      "ceiling": 4694,
      "sir": 4695,
      "gray": 4696,
      "owe": 4697,
      "vibe": 4698,
      "matters": 4699,
      "brick": 4700,
      "thinks": 4701,
      "stud": 4702,
      "##bby": 4703,
      "camer": 4704,
      "shel": 4705,
      "lots": 4706,
      "mass": 4707,
      "tal": 4708,
      "singin": 4709,
      "##ades": 4710,
      "neighbor": 4711,
      "smooth": 4712,
      "seh": 4713,
      "##gs": 4714,
      "purple": 4715,
      "jung": 4716,
      "patient": 4717,
      "goodnight": 4718,
      "##iers": 4719,
      "disguise": 4720,
      "nast": 4721,
      "ann": 4722,
      "leavin": 4723,
      "sippin": 4724,
      "plug": 4725,
      "unknown": 4726,
      "animal": 4727,
      "unl": 4728,
      "drank": 4729,
      "coke": 4730,
      "married": 4731,
      "wow": 4732,
      "##iction": 4733,
      "vain": 4734,
      "weep": 4735,
      "throwing": 4736,
      "fields": 4737,
      "cats": 4738,
      "##tes": 4739,
      "pig": 4740,
      "bedroom": 4741,
      "holdin": 4742,
      "hollywood": 4743,
      "##ala": 4744,
      "lesson": 4745,
      "staying": 4746,
      "laying": 4747,
      "direction": 4748,
      "ry": 4749,
      "##raph": 4750,
      "##so": 4751,
      "##head": 4752,
      "circles": 4753,
      "eating": 4754,
      "bricks": 4755,
      "bent": 4756,
      "40": 4757,
      "muth": 4758,
      "##ope": 4759,
      "undone": 4760,
      "coc": 4761,
      "##inary": 4762,
      "ord": 4763,
      "innocent": 4764,
      "holiday": 4765,
      "##iding": 4766,
      "note": 4767,
      "fash": 4768,
      "willing": 4769,
      "drama": 4770,
      "able": 4771,
      "##astic": 4772,
      "silly": 4773,
      "##pin": 4774,
      "dies": 4775,
      "kno": 4776,
      "shooting": 4777,
      "sens": 4778,
      "happening": 4779,
      "##though": 4780,
      "famous": 4781,
      "pool": 4782,
      "learning": 4783,
      "sigh": 4784,
      "plays": 4785,
      "thre": 4786,
      "##thy": 4787,
      "sunny": 4788,
      "screw": 4789,
      "##ume": 4790,
      "##sess": 4791,
      "confused": 4792,
      "##ada": 4793,
      "tar": 4794,
      "##icated": 4795,
      "roam": 4796,
      "blowin": 4797,
      "thirst": 4798,
      "pi": 4799,
      "stream": 4800,
      "screen": 4801,
      "accept": 4802,
      "hammer": 4803,
      "miracle": 4804,
      "priv": 4805,
      "##ality": 4806,
      "complain": 4807,
      "stands": 4808,
      "disease": 4809,
      "iron": 4810,
      "relig": 4811,
      "everytime": 4812,
      "stops": 4813,
      "tha": 4814,
      "walks": 4815,
      "##lt": 4816,
      "dub": 4817,
      "gut": 4818,
      "nasty": 4819,
      "##ility": 4820,
      "rainbow": 4821,
      "shoulders": 4822,
      "deh": 4823,
      "yard": 4824,
      "trash": 4825,
      "puff": 4826,
      "vill": 4827,
      "touched": 4828,
      "although": 4829,
      "jet": 4830,
      "flat": 4831,
      "##irty": 4832,
      "tempt": 4833,
      "towards": 4834,
      "birthday": 4835,
      "##ita": 4836,
      "repre": 4837,
      "50": 4838,
      "benz": 4839,
      "lar": 4840,
      "witness": 4841,
      "believing": 4842,
      "bills": 4843,
      "purpose": 4844,
      "greed": 4845,
      "##table": 4846,
      "##agne": 4847,
      "trigger": 4848,
      "ima": 4849,
      "allow": 4850,
      "coat": 4851,
      "universe": 4852,
      "smart": 4853,
      "shop": 4854,
      "cad": 4855,
      "texas": 4856,
      "remains": 4857,
      "##iled": 4858,
      "winds": 4859,
      "common": 4860,
      "hangin": 4861,
      "weren": 4862,
      "##ann": 4863,
      "##ians": 4864,
      "##itate": 4865,
      "candle": 4866,
      "lion": 4867,
      "30": 4868,
      "bop": 4869,
      "resc": 4870,
      "peep": 4871,
      "lones": 4872,
      "tech": 4873,
      "lonesome": 4874,
      "washed": 4875,
      "ours": 4876,
      "##cent": 4877,
      "##eared": 4878,
      "burnin": 4879,
      "x2": 4880,
      "##pers": 4881,
      "proof": 4882,
      "sacrifice": 4883,
      "hopeless": 4884,
      "foolish": 4885,
      "##liness": 4886,
      "kissing": 4887,
      "##vern": 4888,
      "gy": 4889,
      "abs": 4890,
      "##ium": 4891,
      "##ative": 4892,
      "jungle": 4893,
      "##ired": 4894,
      "##ically": 4895,
      "player": 4896,
      "mister": 4897,
      "cards": 4898,
      "dan": 4899,
      "victory": 4900,
      "champagne": 4901,
      "chances": 4902,
      "brighter": 4903,
      "ballin": 4904,
      "lang": 4905,
      "##bed": 4906,
      "square": 4907,
      "strangers": 4908,
      "worthy": 4909,
      "##ished": 4910,
      "violence": 4911,
      "army": 4912,
      "##iced": 4913,
      "bat": 4914,
      "av": 4915,
      "##ering": 4916,
      "louder": 4917,
      "##ping": 4918,
      "trunk": 4919,
      "cure": 4920,
      "natural": 4921,
      "##rage": 4922,
      "desperate": 4923,
      "impo": 4924,
      "tail": 4925,
      "##ered": 4926,
      "##call": 4927,
      "flows": 4928,
      "##uct": 4929,
      "neg": 4930,
      "represent": 4931,
      "station": 4932,
      "apolog": 4933,
      "daw": 4934,
      "watchin": 4935,
      "sings": 4936,
      "##aaaa": 4937,
      "bloody": 4938,
      "fashion": 4939,
      "##arm": 4940,
      "drove": 4941,
      "sch": 4942,
      "guil": 4943,
      "speaking": 4944,
      "##lon": 4945,
      "colour": 4946,
      "sav": 4947,
      "juice": 4948,
      "downtown": 4949,
      "bi": 4950,
      "journey": 4951,
      "chem": 4952,
      "alb": 4953,
      "aside": 4954,
      "patience": 4955,
      "nut": 4956,
      "quarter": 4957,
      "wah": 4958,
      "##ica": 4959,
      "blew": 4960,
      "reck": 4961,
      "addicted": 4962,
      "recognize": 4963,
      "shelter": 4964,
      "fifty": 4965,
      "lazy": 4966,
      "simp": 4967,
      "thirty": 4968,
      "roads": 4969,
      "months": 4970,
      "piss": 4971,
      "guilty": 4972,
      "##mo": 4973,
      "waters": 4974,
      "joe": 4975,
      "##gue": 4976,
      "finna": 4977,
      "rot": 4978,
      "hotel": 4979,
      "rolled": 4980,
      "##born": 4981,
      "demon": 4982,
      "monkey": 4983,
      "cocaine": 4984,
      "refuse": 4985,
      "mart": 4986,
      "magn": 4987,
      "strip": 4988,
      "##oop": 4989,
      "actin": 4990,
      "gate": 4991,
      "lake": 4992,
      "ticket": 4993,
      "fli": 4994,
      "works": 4995,
      "saving": 4996,
      "trade": 4997,
      "moth": 4998,
      "code": 4999,
      "conquer": 5000,
      "selling": 5001,
      "crossed": 5002,
      "ting": 5003,
      "swimming": 5004,
      "daylight": 5005,
      "insp": 5006,
      "third": 5007,
      "squad": 5008,
      "tour": 5009,
      "heavens": 5010,
      "picked": 5011,
      "dreamed": 5012,
      "ringing": 5013,
      "sword": 5014,
      "##oming": 5015,
      "shift": 5016,
      "bullets": 5017,
      "yall": 5018,
      "##ograph": 5019,
      "drinks": 5020,
      "##sp": 5021,
      "holes": 5022,
      "hurting": 5023,
      "##ston": 5024,
      "toe": 5025,
      "flower": 5026,
      "nervous": 5027,
      "laughter": 5028,
      "##aced": 5029,
      "12": 5030,
      "crashing": 5031,
      "bunch": 5032,
      "simply": 5033,
      "loss": 5034,
      "leads": 5035,
      "smiles": 5036,
      "anytime": 5037,
      "##col": 5038,
      "hah": 5039,
      "tatto": 5040,
      "dw": 5041,
      "idea": 5042,
      "impossible": 5043,
      "forty": 5044,
      "distant": 5045,
      "conversation": 5046,
      "##ille": 5047,
      "prov": 5048,
      "##ris": 5049,
      "rapper": 5050,
      "toast": 5051,
      "rope": 5052,
      "##vity": 5053,
      "##ledge": 5054,
      "sunrise": 5055,
      "pear": 5056,
      "greater": 5057,
      "hidden": 5058,
      "monday": 5059,
      "collect": 5060,
      "burden": 5061,
      "pouring": 5062,
      "##cif": 5063,
      "##bes": 5064,
      "stun": 5065,
      "shock": 5066,
      "##acy": 5067,
      "polit": 5068,
      "pit": 5069,
      "recall": 5070,
      "madness": 5071,
      "telephone": 5072,
      "ooooh": 5073,
      "##break": 5074,
      "una": 5075,
      "weary": 5076,
      "pair": 5077,
      "wid": 5078,
      "wipe": 5079,
      "vers": 5080,
      "gates": 5081,
      "easier": 5082,
      "worlds": 5083,
      "##ressed": 5084,
      "choke": 5085,
      "marry": 5086,
      "cheese": 5087,
      "##cin": 5088,
      "mask": 5089,
      "##asses": 5090,
      "##ara": 5091,
      "rust": 5092,
      "##illa": 5093,
      "ashamed": 5094,
      "ignor": 5095,
      "sway": 5096,
      "anger": 5097,
      "##ages": 5098,
      "##icious": 5099,
      "guar": 5100,
      "parent": 5101,
      "loaded": 5102,
      "##izz": 5103,
      "roots": 5104,
      "ko": 5105,
      "##rest": 5106,
      "wolf": 5107,
      "eyed": 5108,
      "##itation": 5109,
      "cage": 5110,
      "ec": 5111,
      "didnt": 5112,
      "dinner": 5113,
      "score": 5114,
      "destru": 5115,
      "dread": 5116,
      "##board": 5117,
      "##aws": 5118,
      "president": 5119,
      "sunlight": 5120,
      "vol": 5121,
      "seas": 5122,
      "guarant": 5123,
      "himself": 5124,
      "rear": 5125,
      "carried": 5126,
      "sour": 5127,
      "witch": 5128,
      "believed": 5129,
      "mention": 5130,
      "louis": 5131,
      "ni": 5132,
      "eag": 5133,
      "slam": 5134,
      "stab": 5135,
      "hearing": 5136,
      "killin": 5137,
      "ga": 5138,
      "import": 5139,
      "dun": 5140,
      "sac": 5141,
      "dive": 5142,
      "##sa": 5143,
      "ghosts": 5144,
      "erase": 5145,
      "havin": 5146,
      "careful": 5147,
      "##ency": 5148,
      "text": 5149,
      "papa": 5150,
      "suicide": 5151,
      "##icate": 5152,
      "rat": 5153,
      "##we": 5154,
      "tony": 5155,
      "amb": 5156,
      "sober": 5157,
      "squeeze": 5158,
      "##ndon": 5159,
      "rever": 5160,
      "flick": 5161,
      "whi": 5162,
      "chop": 5163,
      "##inite": 5164,
      "##gan": 5165,
      "carol": 5166,
      "##erest": 5167,
      "tax": 5168,
      "tape": 5169,
      "deg": 5170,
      "##nch": 5171,
      "survi": 5172,
      "holla": 5173,
      "tiny": 5174,
      "sunset": 5175,
      "trail": 5176,
      "false": 5177,
      "##ns": 5178,
      "showing": 5179,
      "autom": 5180,
      "##etic": 5181,
      "seal": 5182,
      "##ped": 5183,
      "##tal": 5184,
      "##athy": 5185,
      "numbers": 5186,
      "seed": 5187,
      "##cend": 5188,
      "uncle": 5189,
      "angry": 5190,
      "rude": 5191,
      "eternity": 5192,
      "mexic": 5193,
      "##ism": 5194,
      "appro": 5195,
      "feather": 5196,
      "slipping": 5197,
      "waan": 5198,
      "##alt": 5199,
      "comb": 5200,
      "apple": 5201,
      "arrive": 5202,
      "od": 5203,
      "##star": 5204,
      "flies": 5205,
      "worked": 5206,
      "leather": 5207,
      "govern": 5208,
      "bord": 5209,
      "gay": 5210,
      "##ened": 5211,
      "fright": 5212,
      "london": 5213,
      "##sty": 5214,
      "belly": 5215,
      "selfish": 5216,
      "heels": 5217,
      "named": 5218,
      "clip": 5219,
      "southern": 5220,
      "regrets": 5221,
      "court": 5222,
      "ped": 5223,
      "discover": 5224,
      "##ari": 5225,
      "string": 5226,
      "tom": 5227,
      "whist": 5228,
      "salvation": 5229,
      "##unts": 5230,
      "imm": 5231,
      "healing": 5232,
      "stays": 5233,
      "lin": 5234,
      "mek": 5235,
      "##ames": 5236,
      "grou": 5237,
      "##walk": 5238,
      "proc": 5239,
      "shades": 5240,
      "honor": 5241,
      "receive": 5242,
      "mack": 5243,
      "##bbed": 5244,
      "lege": 5245,
      "serv": 5246,
      "tearing": 5247,
      "muthafuck": 5248,
      "march": 5249,
      "bun": 5250,
      "port": 5251,
      "bubble": 5252,
      "soldiers": 5253,
      "##wa": 5254,
      "colle": 5255,
      "whore": 5256,
      "##ract": 5257,
      "wisdom": 5258,
      "##ints": 5259,
      "cen": 5260,
      "rebel": 5261,
      "slee": 5262,
      "easily": 5263,
      "jac": 5264,
      "fans": 5265,
      "breakin": 5266,
      "##iliar": 5267,
      "rout": 5268,
      "##rom": 5269,
      "painted": 5270,
      "##zed": 5271,
      "##fall": 5272,
      "uhh": 5273,
      "afford": 5274,
      "scra": 5275,
      "micro": 5276,
      "babies": 5277,
      "##nes": 5278,
      "blink": 5279,
      "restless": 5280,
      "heavenly": 5281,
      "pun": 5282,
      "separate": 5283,
      "solid": 5284,
      "frank": 5285,
      "proper": 5286,
      "##ino": 5287,
      "##yard": 5288,
      "##stal": 5289,
      "cigarette": 5290,
      "bold": 5291,
      "##eous": 5292,
      "also": 5293,
      "board": 5294,
      "hella": 5295,
      "boyfriend": 5296,
      "lotta": 5297,
      "##cient": 5298,
      "sleigh": 5299,
      "records": 5300,
      "dogg": 5301,
      "reveal": 5302,
      "album": 5303,
      "ee": 5304,
      "occ": 5305,
      "letters": 5306,
      "balls": 5307,
      "hug": 5308,
      "plastic": 5309,
      "hating": 5310,
      "resp": 5311,
      "blown": 5312,
      "size": 5313,
      "spray": 5314,
      "hips": 5315,
      "atl": 5316,
      "tricks": 5317,
      "##vid": 5318,
      "following": 5319,
      "orig": 5320,
      "map": 5321,
      "sets": 5322,
      "drifting": 5323,
      "standin": 5324,
      "crit": 5325,
      "weigh": 5326,
      "wedd": 5327,
      "closing": 5328,
      "##ware": 5329,
      "crawling": 5330,
      "kar": 5331,
      "##vious": 5332,
      "command": 5333,
      "whine": 5334,
      "virgin": 5335,
      "suffering": 5336,
      "dut": 5337,
      "brains": 5338,
      "becomes": 5339,
      "hush": 5340,
      "plate": 5341,
      "heartache": 5342,
      "knocking": 5343,
      "captain": 5344,
      "liber": 5345,
      "whatcha": 5346,
      "##inal": 5347,
      "proph": 5348,
      "dea": 5349,
      "forest": 5350,
      "righteous": 5351,
      "pillow": 5352,
      "waist": 5353,
      "role": 5354,
      "cred": 5355,
      "tort": 5356,
      "fought": 5357,
      "lame": 5358,
      "##form": 5359,
      "strings": 5360,
      "stat": 5361,
      "##gging": 5362,
      "##chie": 5363,
      "rewind": 5364,
      "highest": 5365,
      "aftern": 5366,
      "bored": 5367,
      "pity": 5368,
      "compare": 5369,
      "##ho": 5370,
      "advice": 5371,
      "ding": 5372,
      "lee": 5373,
      "parts": 5374,
      "choo": 5375,
      "horiz": 5376,
      "surpri": 5377,
      "##aded": 5378,
      "dawg": 5379,
      "trace": 5380,
      "intent": 5381,
      "##rod": 5382,
      "ree": 5383,
      "ancient": 5384,
      "appear": 5385,
      "gram": 5386,
      "setting": 5387,
      "books": 5388,
      "##pa": 5389,
      "woods": 5390,
      "center": 5391,
      "grin": 5392,
      "kicks": 5393,
      "lifted": 5394,
      "##por": 5395,
      "weapon": 5396,
      "hail": 5397,
      "scri": 5398,
      "sadness": 5399,
      "ded": 5400,
      "nic": 5401,
      "hurric": 5402,
      "##gged": 5403,
      "softly": 5404,
      "reflection": 5405,
      "religion": 5406,
      "shook": 5407,
      "salt": 5408,
      "##udes": 5409,
      "fortune": 5410,
      "rescue": 5411,
      "parents": 5412,
      "##eral": 5413,
      "agree": 5414,
      "##rete": 5415,
      "figured": 5416,
      "rolls": 5417,
      "knowledge": 5418,
      "mane": 5419,
      "shoulda": 5420,
      "kicking": 5421,
      "##ette": 5422,
      "saint": 5423,
      "##eased": 5424,
      "##itive": 5425,
      "chicks": 5426,
      "summertime": 5427,
      "hunger": 5428,
      "daily": 5429,
      "wounds": 5430,
      "gravity": 5431,
      "ber": 5432,
      "mend": 5433,
      "fades": 5434,
      "couch": 5435,
      "spoken": 5436,
      "raining": 5437,
      "##urs": 5438,
      "##ences": 5439,
      "satan": 5440,
      "milk": 5441,
      "cult": 5442,
      "##box": 5443,
      "##ato": 5444,
      "weeks": 5445,
      "spending": 5446,
      "attitude": 5447,
      "afric": 5448,
      "snap": 5449,
      "public": 5450,
      "bast": 5451,
      "um": 5452,
      "freeze": 5453,
      "generation": 5454,
      "dice": 5455,
      "stopping": 5456,
      "demand": 5457,
      "palm": 5458,
      "##sters": 5459,
      "##gun": 5460,
      "##hhh": 5461,
      "##anta": 5462,
      "loneliness": 5463,
      "rode": 5464,
      "bein": 5465,
      "doub": 5466,
      "##ona": 5467,
      "##sec": 5468,
      "winning": 5469,
      "fancy": 5470,
      "rejo": 5471,
      "damned": 5472,
      "soci": 5473,
      "##work": 5474,
      "nuts": 5475,
      "obs": 5476,
      "eternal": 5477,
      "buddy": 5478,
      "sharp": 5479,
      "exper": 5480,
      "lyin": 5481,
      "##iving": 5482,
      "cab": 5483,
      "pract": 5484,
      "##ring": 5485,
      "claus": 5486,
      "yay": 5487,
      "pale": 5488,
      "##zzy": 5489,
      "mall": 5490,
      "##rel": 5491,
      "violent": 5492,
      "clue": 5493,
      "packed": 5494,
      "##house": 5495,
      "emotions": 5496,
      "nar": 5497,
      "##oking": 5498,
      "frag": 5499,
      "completely": 5500,
      "##rate": 5501,
      "hatin": 5502,
      "wea": 5503,
      "pad": 5504,
      "snake": 5505,
      "upside": 5506,
      "##lla": 5507,
      "seasons": 5508,
      "tool": 5509,
      "ram": 5510,
      "##gl": 5511,
      "charge": 5512,
      "burst": 5513,
      "tripping": 5514,
      "##ists": 5515,
      "chosen": 5516,
      "##play": 5517,
      "##ti": 5518,
      "betray": 5519,
      "lands": 5520,
      "hardest": 5521,
      "magaz": 5522,
      "pretending": 5523,
      "colder": 5524,
      "borrow": 5525,
      "##gia": 5526,
      "cheer": 5527,
      "##ooo": 5528,
      "warri": 5529,
      "langu": 5530,
      "jumping": 5531,
      "meas": 5532,
      "host": 5533,
      "mat": 5534,
      "meat": 5535,
      "private": 5536,
      "sons": 5537,
      "##cul": 5538,
      "behold": 5539,
      "##vest": 5540,
      "afternoon": 5541,
      "important": 5542,
      "longing": 5543,
      "##antic": 5544,
      "talked": 5545,
      "sack": 5546,
      "pushed": 5547,
      "sake": 5548,
      "innocence": 5549,
      "blade": 5550,
      "lull": 5551,
      "facts": 5552,
      "prince": 5553,
      "##ya": 5554,
      "##eam": 5555,
      "racks": 5556,
      "whoo": 5557,
      "mob": 5558,
      "jumped": 5559,
      "tag": 5560,
      "treasure": 5561,
      "pace": 5562,
      "phys": 5563,
      "oper": 5564,
      "inde": 5565,
      "wedding": 5566,
      "themselves": 5567,
      "##bie": 5568,
      "theyre": 5569,
      "thrown": 5570,
      "sipping": 5571,
      "##mental": 5572,
      "sides": 5573,
      "disg": 5574,
      "##using": 5575,
      "terror": 5576,
      "concrete": 5577,
      "##ued": 5578,
      "james": 5579,
      "liked": 5580,
      "picking": 5581,
      "cann": 5582,
      "##mme": 5583,
      "drip": 5584,
      "dreamin": 5585,
      "familiar": 5586,
      "##eart": 5587,
      "reached": 5588,
      "sever": 5589,
      "##zing": 5590,
      "success": 5591,
      "##ening": 5592,
      "ski": 5593,
      "camera": 5594,
      "##do": 5595,
      "weird": 5596,
      "sheep": 5597,
      "##oms": 5598,
      "hypnot": 5599,
      "creation": 5600,
      "iss": 5601,
      "nails": 5602,
      "chillin": 5603,
      "cuts": 5604,
      "blessing": 5605,
      "##lights": 5606,
      "zero": 5607,
      "stomach": 5608,
      "sevent": 5609,
      "solo": 5610,
      "depend": 5611,
      "junk": 5612,
      "ruin": 5613,
      "group": 5614,
      "##illac": 5615,
      "freaky": 5616,
      "chew": 5617,
      "##gas": 5618,
      "fruit": 5619,
      "tit": 5620,
      "siren": 5621,
      "blaze": 5622,
      "dash": 5623,
      "glorious": 5624,
      "##pless": 5625,
      "##miss": 5626,
      "major": 5627,
      "##psy": 5628,
      "medicine": 5629,
      "##urb": 5630,
      "hurricane": 5631,
      "twel": 5632,
      "younger": 5633,
      "amen": 5634,
      "seeds": 5635,
      "eve": 5636,
      "knocked": 5637,
      "finished": 5638,
      "consider": 5639,
      "cute": 5640,
      "crimin": 5641,
      "cadillac": 5642,
      "aband": 5643,
      "spine": 5644,
      "heading": 5645,
      "##lev": 5646,
      "planned": 5647,
      "rivers": 5648,
      "shiver": 5649,
      "overcome": 5650,
      "automatic": 5651,
      "oooo": 5652,
      "toss": 5653,
      "kicked": 5654,
      "worn": 5655,
      "mike": 5656,
      "camp": 5657,
      "rubber": 5658,
      "spo": 5659,
      "quickly": 5660,
      "alc": 5661,
      "habit": 5662,
      "##anna": 5663,
      "slap": 5664,
      "ep": 5665,
      "neighborhood": 5666,
      "risk": 5667,
      "prayers": 5668,
      "##itted": 5669,
      "create": 5670,
      "commun": 5671,
      "itself": 5672,
      "##eeting": 5673,
      "justice": 5674,
      "twelve": 5675,
      "screams": 5676,
      "##pr": 5677,
      "##asting": 5678,
      "sucker": 5679,
      "surprised": 5680,
      "shakin": 5681,
      "drops": 5682,
      "##ific": 5683,
      "horses": 5684,
      "pul": 5685,
      "event": 5686,
      "cous": 5687,
      "tan": 5688,
      "laughed": 5689,
      "sort": 5690,
      "bam": 5691,
      "comfor": 5692,
      "ske": 5693,
      "sweeter": 5694,
      "reckless": 5695,
      "turnin": 5696,
      "drivin": 5697,
      "tone": 5698,
      "blur": 5699,
      "##nie": 5700,
      "ordinary": 5701,
      "blaz": 5702,
      "stock": 5703,
      "digging": 5704,
      "using": 5705,
      "mental": 5706,
      "bible": 5707,
      "due": 5708,
      "##ham": 5709,
      "ali": 5710,
      "drums": 5711,
      "##rupt": 5712,
      "scare": 5713,
      "##ral": 5714,
      "engine": 5715,
      "surface": 5716,
      "##ton": 5717,
      "interest": 5718,
      "##ami": 5719,
      "visions": 5720,
      "molly": 5721,
      "project": 5722,
      "pipe": 5723,
      "##over": 5724,
      "neon": 5725,
      "##fast": 5726,
      "followed": 5727,
      "motor": 5728,
      "porch": 5729,
      "toy": 5730,
      "ef": 5731,
      "kickin": 5732,
      "worries": 5733,
      "bliss": 5734,
      "damage": 5735,
      "touching": 5736,
      "tale": 5737,
      "thru": 5738,
      "sisters": 5739,
      "traffic": 5740,
      "##ays": 5741,
      "position": 5742,
      "elev": 5743,
      "sweep": 5744,
      "##ggin": 5745,
      "##istic": 5746,
      "tank": 5747,
      "fav": 5748,
      "babylon": 5749,
      "modern": 5750,
      "wore": 5751,
      "intern": 5752,
      "created": 5753,
      "##band": 5754,
      "roar": 5755,
      "cared": 5756,
      "clearly": 5757,
      "slept": 5758,
      "stretch": 5759,
      "empt": 5760,
      "wond": 5761,
      "bail": 5762,
      "leading": 5763,
      "norm": 5764,
      "hunt": 5765,
      "fills": 5766,
      "##ohol": 5767,
      "government": 5768,
      "##ents": 5769,
      "honestly": 5770,
      "##hile": 5771,
      "cowboy": 5772,
      "crooked": 5773,
      "coun": 5774,
      "##pher": 5775,
      "##ville": 5776,
      "holler": 5777,
      "##fly": 5778,
      "ou": 5779,
      "sweetest": 5780,
      "deck": 5781,
      "aven": 5782,
      "##uring": 5783,
      "##dest": 5784,
      "flowing": 5785,
      "reb": 5786,
      "popping": 5787,
      "vide": 5788,
      "##oe": 5789,
      "dwell": 5790,
      "##otion": 5791,
      "weve": 5792,
      "billy": 5793,
      "fiend": 5794,
      "weal": 5795,
      "##rome": 5796,
      "ended": 5797,
      "backwards": 5798,
      "belongs": 5799,
      "biggest": 5800,
      "##po": 5801,
      "stepped": 5802,
      "riot": 5803,
      "##ipp": 5804,
      "reven": 5805,
      "language": 5806,
      "##ffi": 5807,
      "image": 5808,
      "racing": 5809,
      "jones": 5810,
      "mothafuck": 5811,
      "drawn": 5812,
      "temper": 5813,
      "mut": 5814,
      "crystal": 5815,
      "alcohol": 5816,
      "society": 5817,
      "beep": 5818,
      "descri": 5819,
      "danced": 5820,
      "##elly": 5821,
      "dim": 5822,
      "sacred": 5823,
      "15": 5824,
      "thigh": 5825,
      "##olen": 5826,
      "confusion": 5827,
      "convin": 5828,
      "raz": 5829,
      "gor": 5830,
      "smack": 5831,
      "ego": 5832,
      "defeat": 5833,
      "jane": 5834,
      "offic": 5835,
      "##azz": 5836,
      "missin": 5837,
      "24": 5838,
      "##esome": 5839,
      "##hip": 5840,
      "collide": 5841,
      "len": 5842,
      "brook": 5843,
      "keepin": 5844,
      "courage": 5845,
      "suppose": 5846,
      "destruction": 5847,
      "mail": 5848,
      "shower": 5849,
      "georgia": 5850,
      "unto": 5851,
      "aud": 5852,
      "##ram": 5853,
      "stairs": 5854,
      "nearly": 5855,
      "chin": 5856,
      "obvious": 5857,
      "##stick": 5858,
      "height": 5859,
      "cherry": 5860,
      "et": 5861,
      "sending": 5862,
      "aware": 5863,
      "wed": 5864,
      "##ding": 5865,
      "overd": 5866,
      "deb": 5867,
      "legend": 5868,
      "##ano": 5869,
      "fron": 5870,
      "arrow": 5871,
      "poet": 5872,
      "weakness": 5873,
      "##acked": 5874,
      "18": 5875,
      "##ppa": 5876,
      "stoned": 5877,
      "college": 5878,
      "awhile": 5879,
      "sticks": 5880,
      "surrounded": 5881,
      "##lyn": 5882,
      "blinded": 5883,
      "slick": 5884,
      "paris": 5885,
      "flew": 5886,
      "illusion": 5887,
      "##ees": 5888,
      "rare": 5889,
      "horizon": 5890,
      "cracks": 5891,
      "gall": 5892,
      "haze": 5893,
      "awa": 5894,
      "shattered": 5895,
      "cali": 5896,
      "brush": 5897,
      "messed": 5898,
      "haffi": 5899,
      "playa": 5900,
      "threat": 5901,
      "panic": 5902,
      "seconds": 5903,
      "mum": 5904,
      "chi": 5905,
      "slang": 5906,
      "helpless": 5907,
      "jewel": 5908,
      "fence": 5909,
      "##reme": 5910,
      "##road": 5911,
      "thugs": 5912,
      "##sing": 5913,
      "decided": 5914,
      "spare": 5915,
      "##rated": 5916,
      "stere": 5917,
      "##mos": 5918,
      "##ju": 5919,
      "11": 5920,
      "##ae": 5921,
      "##eech": 5922,
      "swinging": 5923,
      "replace": 5924,
      "stolen": 5925,
      "##action": 5926,
      "breed": 5927,
      "prop": 5928,
      "model": 5929,
      "##no": 5930,
      "tattoo": 5931,
      "forgiveness": 5932,
      "##imate": 5933,
      "snitch": 5934,
      "thumb": 5935,
      "sixt": 5936,
      "skip": 5937,
      "pages": 5938,
      "range": 5939,
      "##lling": 5940,
      "conta": 5941,
      "heroes": 5942,
      "egg": 5943,
      "##bor": 5944,
      "tap": 5945,
      "mixed": 5946,
      "border": 5947,
      "bush": 5948,
      "shotgun": 5949,
      "##alal": 5950,
      "cart": 5951,
      "traged": 5952,
      "defend": 5953,
      "ren": 5954,
      "##oured": 5955,
      "appre": 5956,
      "county": 5957,
      "paul": 5958,
      "depth": 5959,
      "jimmy": 5960,
      "##lish": 5961,
      "##fire": 5962,
      "ecst": 5963,
      "plant": 5964,
      "##cl": 5965,
      "wing": 5966,
      "drain": 5967,
      "shared": 5968,
      "lap": 5969,
      "##lem": 5970,
      "wack": 5971,
      "micha": 5972,
      "inch": 5973,
      "heartbreak": 5974,
      "effect": 5975,
      "sting": 5976,
      "realized": 5977,
      "failed": 5978,
      "health": 5979,
      "##pet": 5980,
      "##aby": 5981,
      "frown": 5982,
      "instru": 5983,
      "rains": 5984,
      "##uge": 5985,
      "drives": 5986,
      "hay": 5987,
      "##nam": 5988,
      "shoe": 5989,
      "personal": 5990,
      "hype": 5991,
      "dish": 5992,
      "bridges": 5993,
      "explode": 5994,
      "##itions": 5995,
      "plead": 5996,
      "gat": 5997,
      "sellin": 5998,
      "nick": 5999,
      "puttin": 6000,
      "kills": 6001,
      "michael": 6002,
      "connect": 6003,
      "suff": 6004,
      "poss": 6005,
      "bloom": 6006,
      "##olved": 6007,
      "teacher": 6008,
      "oun": 6009,
      "stacks": 6010,
      "void": 6011,
      "##pel": 6012,
      "dah": 6013,
      "##umn": 6014,
      "##gy": 6015,
      "awful": 6016,
      "##atures": 6017,
      "##nessee": 6018,
      "bark": 6019,
      "scen": 6020,
      "max": 6021,
      "rejoice": 6022,
      "##itter": 6023,
      "hearted": 6024,
      "rights": 6025,
      "waits": 6026,
      "approach": 6027,
      "##ior": 6028,
      "pis": 6029,
      "tennessee": 6030,
      "groo": 6031,
      "everl": 6032,
      "mour": 6033,
      "hee": 6034,
      "cam": 6035,
      "neither": 6036,
      "fif": 6037,
      "microphone": 6038,
      "boun": 6039,
      "redee": 6040,
      "fir": 6041,
      "kush": 6042,
      "imagination": 6043,
      "fires": 6044,
      "##bl": 6045,
      "##ishing": 6046,
      "ja": 6047,
      "tooth": 6048,
      "##oph": 6049,
      "fairy": 6050,
      "choir": 6051,
      "awesome": 6052,
      "needle": 6053,
      "screamin": 6054,
      "haunted": 6055,
      "ak": 6056,
      "tore": 6057,
      "satisfy": 6058,
      "auth": 6059,
      "##dro": 6060,
      "##ading": 6061,
      "shelf": 6062,
      "##ida": 6063,
      "halo": 6064,
      "shown": 6065,
      "pole": 6066,
      "ayo": 6067,
      "batt": 6068,
      "rome": 6069,
      "moan": 6070,
      "blessings": 6071,
      "##nded": 6072,
      "visit": 6073,
      "savage": 6074,
      "roller": 6075,
      "phil": 6076,
      "loyal": 6077,
      "breakfast": 6078,
      "bore": 6079,
      "preacher": 6080,
      "tend": 6081,
      "glove": 6082,
      "covers": 6083,
      "shack": 6084,
      "pounds": 6085,
      "chat": 6086,
      "script": 6087,
      "##iter": 6088,
      "delight": 6089,
      "granted": 6090,
      "sinner": 6091,
      "pil": 6092,
      "unfold": 6093,
      "hittin": 6094,
      "beam": 6095,
      "prepare": 6096,
      "sixteen": 6097,
      "guts": 6098,
      "inner": 6099,
      "millions": 6100,
      "consci": 6101,
      "climbing": 6102,
      "hotter": 6103,
      "stomp": 6104,
      "dudes": 6105,
      "despair": 6106,
      "pitch": 6107,
      "ate": 6108,
      "##gress": 6109,
      "der": 6110,
      "stall": 6111,
      "clique": 6112,
      "stray": 6113,
      "lemme": 6114,
      "psych": 6115,
      "core": 6116,
      "compet": 6117,
      "symp": 6118,
      "##zzle": 6119,
      "marching": 6120,
      "oceans": 6121,
      "##isible": 6122,
      "herself": 6123,
      "jama": 6124,
      "stu": 6125,
      "bike": 6126,
      "oil": 6127,
      "basement": 6128,
      "credit": 6129,
      "dump": 6130,
      "killa": 6131,
      "penny": 6132,
      "divide": 6133,
      "cigarettes": 6134,
      "##roll": 6135,
      "naught": 6136,
      "obl": 6137,
      "guilt": 6138,
      "gin": 6139,
      "conscience": 6140,
      "teena": 6141,
      "farm": 6142,
      "knockin": 6143,
      "jul": 6144,
      "talks": 6145,
      "##igo": 6146,
      "kin": 6147,
      "shap": 6148,
      "movies": 6149,
      "##otton": 6150,
      "stepping": 6151,
      "pave": 6152,
      "troub": 6153,
      "swore": 6154,
      "sed": 6155,
      "prepared": 6156,
      "##for": 6157,
      "wha": 6158,
      "blank": 6159,
      "thread": 6160,
      "triple": 6161,
      "dod": 6162,
      "sup": 6163,
      "jumpin": 6164,
      "dang": 6165,
      "jay": 6166,
      "##fo": 6167,
      "##kened": 6168,
      "##urity": 6169,
      "runaway": 6170,
      "backs": 6171,
      "##ago": 6172,
      "understood": 6173,
      "gaze": 6174,
      "sleeve": 6175,
      "original": 6176,
      "tid": 6177,
      "##bird": 6178,
      "##he": 6179,
      "span": 6180,
      "orle": 6181,
      "##style": 6182,
      "skull": 6183,
      "chocol": 6184,
      "fer": 6185,
      "stir": 6186,
      "fem": 6187,
      "lam": 6188,
      "coupe": 6189,
      "disaster": 6190,
      "entertain": 6191,
      "pard": 6192,
      "##bal": 6193,
      "##sey": 6194,
      "lemon": 6195,
      "bombs": 6196,
      "homes": 6197,
      "##anes": 6198,
      "intentions": 6199,
      "sche": 6200,
      "##oint": 6201,
      "##ateful": 6202,
      "bid": 6203,
      "gee": 6204,
      "rail": 6205,
      "dial": 6206,
      "link": 6207,
      "ox": 6208,
      "swell": 6209,
      "photograph": 6210,
      "plot": 6211,
      "##ortun": 6212,
      "orleans": 6213,
      "##otic": 6214,
      "shr": 6215,
      "##ration": 6216,
      "##ado": 6217,
      "##hal": 6218,
      "og": 6219,
      "laws": 6220,
      "everlasting": 6221,
      "cum": 6222,
      "toys": 6223,
      "animals": 6224,
      "whispers": 6225,
      "whistle": 6226,
      "tragedy": 6227,
      "nerve": 6228,
      "thorn": 6229,
      "##sses": 6230,
      "##inate": 6231,
      "greet": 6232,
      "humble": 6233,
      "##aints": 6234,
      "invisible": 6235,
      "jord": 6236,
      "maker": 6237,
      "##icy": 6238,
      "fifth": 6239,
      "aching": 6240,
      "catching": 6241,
      "chemical": 6242,
      "##cal": 6243,
      "cling": 6244,
      "goodness": 6245,
      "##unting": 6246,
      "sailing": 6247,
      "chrome": 6248,
      "##inis": 6249,
      "mari": 6250,
      "whom": 6251,
      "december": 6252,
      "royal": 6253,
      "prize": 6254,
      "##ww": 6255,
      "shinin": 6256,
      "hater": 6257,
      "coo": 6258,
      "cong": 6259,
      "##vis": 6260,
      "throwin": 6261,
      "revenge": 6262,
      "ties": 6263,
      "##aah": 6264,
      "winner": 6265,
      "fors": 6266,
      "decision": 6267,
      "hus": 6268,
      "smiled": 6269,
      "wandering": 6270,
      "ger": 6271,
      "hooked": 6272,
      "py": 6273,
      "stain": 6274,
      "spirits": 6275,
      "criminal": 6276,
      "pee": 6277,
      "comprom": 6278,
      "log": 6279,
      "finds": 6280,
      "strapped": 6281,
      "##vet": 6282,
      "zo": 6283,
      "notes": 6284,
      "affection": 6285,
      "dropping": 6286,
      "underw": 6287,
      "charm": 6288,
      "actually": 6289,
      "stumble": 6290,
      "infl": 6291,
      "reflect": 6292,
      "fifteen": 6293,
      "zom": 6294,
      "sleepin": 6295,
      "leader": 6296,
      "parking": 6297,
      "pulls": 6298,
      "cutting": 6299,
      "##rewell": 6300,
      "mult": 6301,
      "flyin": 6302,
      "emptiness": 6303,
      "21": 6304,
      "16": 6305,
      "nuff": 6306,
      "wolves": 6307,
      "fred": 6308,
      "grandma": 6309,
      "joint": 6310,
      "skinny": 6311,
      "appreci": 6312,
      "pier": 6313,
      "##flow": 6314,
      "##erk": 6315,
      "##ugged": 6316,
      "##fied": 6317,
      "tower": 6318,
      "ripped": 6319,
      "introd": 6320,
      "social": 6321,
      "hatred": 6322,
      "autumn": 6323,
      "##seng": 6324,
      "speech": 6325,
      "##uggin": 6326,
      "mash": 6327,
      "haha": 6328,
      "parade": 6329,
      "avoid": 6330,
      "partner": 6331,
      "frost": 6332,
      "mommy": 6333,
      "##ggy": 6334,
      "##ald": 6335,
      "aver": 6336,
      "fuss": 6337,
      "80": 6338,
      "doom": 6339,
      "express": 6340,
      "dyin": 6341,
      "chaos": 6342,
      "terrible": 6343,
      "bob": 6344,
      "outl": 6345,
      "##case": 6346,
      "possess": 6347,
      "##aha": 6348,
      "##bbin": 6349,
      "indeed": 6350,
      "sauce": 6351,
      "killers": 6352,
      "snatch": 6353,
      "shady": 6354,
      "fellas": 6355,
      "harmony": 6356,
      "farewell": 6357,
      "##dream": 6358,
      "large": 6359,
      "rick": 6360,
      "whoop": 6361,
      "freaks": 6362,
      "seventeen": 6363,
      "lunch": 6364,
      "prayed": 6365,
      "bathroom": 6366,
      "existence": 6367,
      "dome": 6368,
      "sym": 6369,
      "account": 6370,
      "vel": 6371,
      "gently": 6372,
      "rocket": 6373,
      "slippin": 6374,
      "thirsty": 6375,
      "eff": 6376,
      "focused": 6377,
      "blan": 6378,
      "##port": 6379,
      "root": 6380,
      "neighbors": 6381,
      "##isions": 6382,
      "conv": 6383,
      "slipped": 6384,
      "balance": 6385,
      "ecstasy": 6386,
      "##ication": 6387,
      "relation": 6388,
      "vibr": 6389,
      "fog": 6390,
      "##izing": 6391,
      "meal": 6392,
      "##ius": 6393,
      "lasts": 6394,
      "filling": 6395,
      "french": 6396,
      "cheat": 6397,
      "aah": 6398,
      "hitting": 6399,
      "alley": 6400,
      "rider": 6401,
      "senses": 6402,
      "chocolate": 6403,
      "wars": 6404,
      "techn": 6405,
      "pred": 6406,
      "askin": 6407,
      "##bid": 6408,
      "memph": 6409,
      "reading": 6410,
      "##ec": 6411,
      "brooklyn": 6412,
      "thief": 6413,
      "##uk": 6414,
      "oak": 6415,
      "daydream": 6416,
      "##respect": 6417,
      "cousin": 6418,
      "##bbing": 6419,
      "deadly": 6420,
      "possible": 6421,
      "cotton": 6422,
      "##east": 6423,
      "forced": 6424,
      "pardon": 6425,
      "bond": 6426,
      "lullaby": 6427,
      "##rors": 6428,
      "smoked": 6429,
      "possib": 6430,
      "pir": 6431,
      "##ession": 6432,
      "driver": 6433,
      "##eg": 6434,
      "##je": 6435,
      "rainy": 6436,
      "##cover": 6437,
      "disrespect": 6438,
      "ci": 6439,
      "anch": 6440,
      "charl": 6441,
      "opin": 6442,
      "tease": 6443,
      "funeral": 6444,
      "oppos": 6445,
      "alarm": 6446,
      "creeping": 6447,
      "coal": 6448,
      "deaf": 6449,
      "##phere": 6450,
      "whoever": 6451,
      "chips": 6452,
      "naughty": 6453,
      "continue": 6454,
      "decay": 6455,
      "bind": 6456,
      "blah": 6457,
      "puts": 6458,
      "paying": 6459,
      "##vision": 6460,
      "wealth": 6461,
      "useless": 6462,
      "blocks": 6463,
      "arise": 6464,
      "ole": 6465,
      "##core": 6466,
      "absol": 6467,
      "studio": 6468,
      "queens": 6469,
      "noticed": 6470,
      "couldnt": 6471,
      "saints": 6472,
      "dove": 6473,
      "beware": 6474,
      "##cially": 6475,
      "bubb": 6476,
      "cease": 6477,
      "opt": 6478,
      "toll": 6479,
      "##ighty": 6480,
      "belt": 6481,
      "wishes": 6482,
      "reminis": 6483,
      "losin": 6484,
      "july": 6485,
      "mexico": 6486,
      "movement": 6487,
      "affair": 6488,
      "pic": 6489,
      "45": 6490,
      "hunn": 6491,
      "label": 6492,
      "steppin": 6493,
      "pimpin": 6494,
      "hated": 6495,
      "sooner": 6496,
      "video": 6497,
      "grade": 6498,
      "burnt": 6499,
      "##oline": 6500,
      "##af": 6501,
      "bride": 6502,
      "memphis": 6503,
      "belief": 6504,
      "booth": 6505,
      "hopin": 6506,
      "boring": 6507,
      "rabb": 6508,
      "##flies": 6509,
      "##rect": 6510,
      "flashing": 6511,
      "##ula": 6512,
      "spite": 6513,
      "bustin": 6514,
      "jigg": 6515,
      "##iration": 6516,
      "##ila": 6517,
      "lower": 6518,
      "empire": 6519,
      "sweeth": 6520,
      "slim": 6521,
      "##rain": 6522,
      "regg": 6523,
      "clever": 6524,
      "razor": 6525,
      "stereo": 6526,
      "rappin": 6527,
      "##ini": 6528,
      "##sc": 6529,
      "mast": 6530,
      "almighty": 6531,
      "jaw": 6532,
      "hesitate": 6533,
      "feds": 6534,
      "saf": 6535,
      "pops": 6536,
      "##anny": 6537,
      "bobby": 6538,
      "phant": 6539,
      "sits": 6540,
      "grill": 6541,
      "constantly": 6542,
      "coulda": 6543,
      "strap": 6544,
      "crucif": 6545,
      "cities": 6546,
      "##iac": 6547,
      "buss": 6548,
      "conscious": 6549,
      "earn": 6550,
      "##field": 6551,
      "##ulous": 6552,
      "##ughters": 6553,
      "##stone": 6554,
      "bruise": 6555,
      "trump": 6556,
      "rapping": 6557,
      "mans": 6558,
      "naw": 6559,
      "shootin": 6560,
      "lessons": 6561,
      "patter": 6562,
      "##isin": 6563,
      "culture": 6564,
      "thighs": 6565,
      "##ception": 6566,
      "##uary": 6567,
      "##lines": 6568,
      "forsake": 6569,
      "warrior": 6570,
      "understanding": 6571,
      "fox": 6572,
      "satell": 6573,
      "chuck": 6574,
      "motiv": 6575,
      "psycho": 6576,
      "anth": 6577,
      "relate": 6578,
      "complicated": 6579,
      "castle": 6580,
      "avenue": 6581,
      "chasin": 6582,
      "ai": 6583,
      "ny": 6584,
      "sirens": 6585,
      "pissed": 6586,
      "upset": 6587,
      "tries": 6588,
      "insec": 6589,
      "biz": 6590,
      "warmth": 6591,
      "##sequ": 6592,
      "facing": 6593,
      "confidence": 6594,
      "stealing": 6595,
      "dreamer": 6596,
      "##berry": 6597,
      "cruise": 6598,
      "debt": 6599,
      "rim": 6600,
      "clut": 6601,
      "leaf": 6602,
      "reminds": 6603,
      "shove": 6604,
      "bowl": 6605,
      "##ums": 6606,
      "speaks": 6607,
      "fet": 6608,
      "200": 6609,
      "ups": 6610,
      "##irts": 6611,
      "indust": 6612,
      "tangled": 6613,
      "##mission": 6614,
      "riches": 6615,
      "hundreds": 6616,
      "princess": 6617,
      "##nel": 6618,
      "eagle": 6619,
      "measure": 6620,
      "dealing": 6621,
      "meth": 6622,
      "frust": 6623,
      "jackson": 6624,
      "bw": 6625,
      "tin": 6626,
      "##lest": 6627,
      "##ai": 6628,
      "##hou": 6629,
      "stash": 6630,
      "support": 6631,
      "champion": 6632,
      "ult": 6633,
      "bucks": 6634,
      "troubled": 6635,
      "fab": 6636,
      "excited": 6637,
      "fra": 6638,
      "##hale": 6639,
      "daughters": 6640,
      "decl": 6641,
      "knowin": 6642,
      "##aming": 6643,
      "purs": 6644,
      "shepher": 6645,
      "torture": 6646,
      "usually": 6647,
      "fired": 6648,
      "mothers": 6649,
      "raps": 6650,
      "fights": 6651,
      "ink": 6652,
      "snakes": 6653,
      "pose": 6654,
      "anx": 6655,
      "temptation": 6656,
      "wax": 6657,
      "tomb": 6658,
      "goal": 6659,
      "orange": 6660,
      "houses": 6661,
      "majest": 6662,
      "corners": 6663,
      "flu": 6664,
      "incred": 6665,
      "las": 6666,
      "fulf": 6667,
      "maint": 6668,
      "##lers": 6669,
      "##mers": 6670,
      "haunting": 6671,
      "abuse": 6672,
      "forgiven": 6673,
      "slaughter": 6674,
      "normal": 6675,
      "button": 6676,
      "despite": 6677,
      "##bing": 6678,
      "pullin": 6679,
      "curtain": 6680,
      "##haps": 6681,
      "sickness": 6682,
      "##gram": 6683,
      "wonders": 6684,
      "##shot": 6685,
      "uptown": 6686,
      "loser": 6687,
      "unh": 6688,
      "##gen": 6689,
      "signed": 6690,
      "##mi": 6691,
      "struck": 6692,
      "author": 6693,
      "dancer": 6694,
      "odds": 6695,
      "jar": 6696,
      "##inity": 6697,
      "##vert": 6698,
      "crowded": 6699,
      "feeding": 6700,
      "##pse": 6701,
      "##ker": 6702,
      "fantas": 6703,
      "lawn": 6704,
      "tek": 6705,
      "doubts": 6706,
      "sore": 6707,
      "grateful": 6708,
      "curt": 6709,
      "static": 6710,
      "gentlemen": 6711,
      "average": 6712,
      "rushing": 6713,
      "##sen": 6714,
      "deepest": 6715,
      "shark": 6716,
      "bran": 6717,
      "math": 6718,
      "needing": 6719,
      "glasses": 6720,
      "cracked": 6721,
      "educ": 6722,
      "failure": 6723,
      "target": 6724,
      "##raction": 6725,
      "lawy": 6726,
      "revel": 6727,
      "meets": 6728,
      "counter": 6729,
      "##ulate": 6730,
      "satisfaction": 6731,
      "independ": 6732,
      "total": 6733,
      "scary": 6734,
      "david": 6735,
      "##mble": 6736,
      "##bey": 6737,
      "pant": 6738,
      "knight": 6739,
      "##aire": 6740,
      "##stand": 6741,
      "vegas": 6742,
      "rast": 6743,
      "steam": 6744,
      "straw": 6745,
      "bug": 6746,
      "slay": 6747,
      "##empt": 6748,
      "perfu": 6749,
      "deceive": 6750,
      "sleeps": 6751,
      "pushin": 6752,
      "product": 6753,
      "wears": 6754,
      "chap": 6755,
      "pause": 6756,
      "chicago": 6757,
      "fount": 6758,
      "blunts": 6759,
      "eatin": 6760,
      "astray": 6761,
      "apologize": 6762,
      "sow": 6763,
      "##rical": 6764,
      "platin": 6765,
      "physical": 6766,
      "science": 6767,
      "shiny": 6768,
      "sale": 6769,
      "helped": 6770,
      "bling": 6771,
      "painting": 6772,
      "tales": 6773,
      "##stic": 6774,
      "cave": 6775,
      "silhou": 6776,
      "ounce": 6777,
      "faced": 6778,
      "raging": 6779,
      "jewels": 6780,
      "jap": 6781,
      "##hem": 6782,
      "##rees": 6783,
      "passes": 6784,
      "##gers": 6785,
      "spaces": 6786,
      "grain": 6787,
      "service": 6788,
      "ugh": 6789,
      "##ex": 6790,
      "jan": 6791,
      "##tle": 6792,
      "consequ": 6793,
      "compromise": 6794,
      "practice": 6795,
      "##ki": 6796,
      "fully": 6797,
      "##kind": 6798,
      "twil": 6799,
      "##load": 6800,
      "flavor": 6801,
      "platinum": 6802,
      "destination": 6803,
      "butterfly": 6804,
      "gypsy": 6805,
      "sidewalk": 6806,
      "infinite": 6807,
      "chevy": 6808,
      "##ora": 6809,
      "finest": 6810,
      "oughta": 6811,
      "jen": 6812,
      "##umbled": 6813,
      "dot": 6814,
      "closet": 6815,
      "shallow": 6816,
      "##za": 6817,
      "mater": 6818,
      "##olve": 6819,
      "buying": 6820,
      "giant": 6821,
      "##oved": 6822,
      "twilight": 6823,
      "##gar": 6824,
      "doesnt": 6825,
      "##reg": 6826,
      "loot": 6827,
      "meeting": 6828,
      "ax": 6829,
      "priest": 6830,
      "tiger": 6831,
      "remedy": 6832,
      "dragon": 6833,
      "sweetheart": 6834,
      "bastard": 6835,
      "june": 6836,
      "grabbed": 6837,
      "display": 6838,
      "english": 6839,
      "pip": 6840,
      "denied": 6841,
      "gamb": 6842,
      "hallow": 6843,
      "spoon": 6844,
      "chilling": 6845,
      "cub": 6846,
      "##iant": 6847,
      "hasn": 6848,
      "stitch": 6849,
      "cancer": 6850,
      "seeking": 6851,
      "depart": 6852,
      "equal": 6853,
      "net": 6854,
      "##ulation": 6855,
      "wonderland": 6856,
      "vibes": 6857,
      "vacation": 6858,
      "peter": 6859,
      "dizzy": 6860,
      "##pens": 6861,
      "##aches": 6862,
      "intell": 6863,
      "stayin": 6864,
      "impress": 6865,
      "washing": 6866,
      "blond": 6867,
      "cris": 6868,
      "checks": 6869,
      "##ators": 6870,
      "dripping": 6871,
      "miami": 6872,
      "vin": 6873,
      "##oll": 6874,
      "##eeee": 6875,
      "treated": 6876,
      "speakers": 6877,
      "soar": 6878,
      "##ico": 6879,
      "gangster": 6880,
      "sung": 6881,
      "inform": 6882,
      "glowing": 6883,
      "guarantee": 6884,
      "helps": 6885,
      "local": 6886,
      "spinnin": 6887,
      "dues": 6888,
      "rag": 6889,
      "##ob": 6890,
      "##ompl": 6891,
      "fixed": 6892,
      "##die": 6893,
      "chall": 6894,
      "believer": 6895,
      "gutter": 6896,
      "gots": 6897,
      "superstar": 6898,
      "becoming": 6899,
      "ut": 6900,
      "seein": 6901,
      "popped": 6902,
      "suffoc": 6903,
      "rotten": 6904,
      "paraly": 6905,
      "bruh": 6906,
      "##plex": 6907,
      "rides": 6908,
      "ticking": 6909,
      "route": 6910,
      "atmos": 6911,
      "husband": 6912,
      "vag": 6913,
      "baddest": 6914,
      "grief": 6915,
      "powder": 6916,
      "united": 6917,
      "ninety": 6918,
      "breast": 6919,
      "resur": 6920,
      "ships": 6921,
      "lend": 6922,
      "feast": 6923,
      "barrel": 6924,
      "senti": 6925,
      "22": 6926,
      "tues": 6927,
      "plag": 6928,
      "vicious": 6929,
      "kindness": 6930,
      "comfortable": 6931,
      "tuesday": 6932,
      "devils": 6933,
      "##lled": 6934,
      "sher": 6935,
      "wished": 6936,
      "##oker": 6937,
      "appreciate": 6938,
      "tastes": 6939,
      "gan": 6940,
      "gras": 6941,
      "wishin": 6942,
      "bwoy": 6943,
      "##tally": 6944,
      "jealousy": 6945,
      "perfume": 6946,
      "##ational": 6947,
      "spitting": 6948,
      "fulfill": 6949,
      "shatter": 6950,
      "au": 6951,
      "invest": 6952,
      "grie": 6953,
      "tongues": 6954,
      "##iance": 6955,
      "listened": 6956,
      "sympathy": 6957,
      "misunder": 6958,
      "sew": 6959,
      "excuses": 6960,
      "rearr": 6961,
      "karma": 6962,
      "fragile": 6963,
      "magazine": 6964,
      "chief": 6965,
      "decisions": 6966,
      "coffin": 6967,
      "safety": 6968,
      "cuff": 6969,
      "spanish": 6970,
      "espe": 6971,
      "25": 6972,
      "##utter": 6973,
      "unst": 6974,
      "##cere": 6975,
      "papers": 6976,
      "eleven": 6977,
      "unw": 6978,
      "contain": 6979,
      "traveling": 6980,
      "cough": 6981,
      "crad": 6982,
      "flee": 6983,
      "ache": 6984,
      "mes": 6985,
      "hosp": 6986,
      "teenage": 6987,
      "prefer": 6988,
      "searchin": 6989,
      "##ye": 6990,
      "concer": 6991,
      "##ule": 6992,
      "ditch": 6993,
      "##empl": 6994,
      "matt": 6995,
      "sticky": 6996,
      "devotion": 6997,
      "deed": 6998,
      "##sessed": 6999,
      "echoes": 7000,
      "perhaps": 7001,
      "bah": 7002,
      "phase": 7003,
      "prime": 7004,
      "adm": 7005,
      "tables": 7006,
      "cursed": 7007,
      "depths": 7008,
      "jordan": 7009,
      "stink": 7010,
      "maid": 7011,
      "relief": 7012,
      "involved": 7013,
      "##just": 7014,
      "##icip": 7015,
      "regular": 7016,
      "17": 7017,
      "##anged": 7018,
      "peaceful": 7019,
      "##juana": 7020,
      "footste": 7021,
      "totally": 7022,
      "trop": 7023,
      "halfway": 7024,
      "brew": 7025,
      "fathers": 7026,
      "strikes": 7027,
      "especially": 7028,
      "lur": 7029,
      "##mar": 7030,
      "lace": 7031,
      "mold": 7032,
      "doe": 7033,
      "pavement": 7034,
      "condition": 7035,
      "##boys": 7036,
      "##ito": 7037,
      "slight": 7038,
      "storms": 7039,
      "amount": 7040,
      "##ival": 7041,
      "states": 7042,
      "rug": 7043,
      "necess": 7044,
      "phantom": 7045,
      "youd": 7046,
      "cannon": 7047,
      "floss": 7048,
      "checking": 7049,
      "regard": 7050,
      "industry": 7051,
      "saviour": 7052,
      "trag": 7053,
      "rounds": 7054,
      "choices": 7055,
      "suckers": 7056,
      "artist": 7057,
      "lipstick": 7058,
      "challen": 7059,
      "whispering": 7060,
      "fucker": 7061,
      "crave": 7062,
      "competition": 7063,
      "candles": 7064,
      "atmosphere": 7065,
      "ka": 7066,
      "slug": 7067,
      "##ister": 7068,
      "nicke": 7069,
      "ahhh": 7070,
      "commit": 7071,
      "##zi": 7072,
      "chopper": 7073,
      "##aries": 7074,
      "mont": 7075,
      "favour": 7076,
      "nations": 7077,
      "op": 7078,
      "you1": 7079,
      "vamp": 7080,
      "nightmares": 7081,
      "ages": 7082,
      "prote": 7083,
      "droppin": 7084,
      "drew": 7085,
      "##oma": 7086,
      "jacket": 7087,
      "##pton": 7088,
      "##bon": 7089,
      "weapons": 7090,
      "vow": 7091,
      "shopping": 7092,
      "degree": 7093,
      "##eer": 7094,
      "caused": 7095,
      "pile": 7096,
      "seats": 7097,
      "countin": 7098,
      "solve": 7099,
      "ohhhh": 7100,
      "friendly": 7101,
      "##eth": 7102,
      "collar": 7103,
      "##ently": 7104,
      "va": 7105,
      "grad": 7106,
      "bes": 7107,
      "whos": 7108,
      "africa": 7109,
      "ideas": 7110,
      "reggae": 7111,
      "accident": 7112,
      "gasoline": 7113,
      "describe": 7114,
      "cust": 7115,
      "##ults": 7116,
      "layin": 7117,
      "mankind": 7118,
      "deser": 7119,
      "hears": 7120,
      "bong": 7121,
      "stroke": 7122,
      "##chy": 7123,
      "dew": 7124,
      "obsess": 7125,
      "glance": 7126,
      "darker": 7127,
      "apartment": 7128,
      "define": 7129,
      "absolute": 7130,
      "##imed": 7131,
      "positive": 7132,
      "connection": 7133,
      "civil": 7134,
      "tho": 7135,
      "batter": 7136,
      "allowed": 7137,
      "##orts": 7138,
      "linger": 7139,
      "flaw": 7140,
      "players": 7141,
      "opportun": 7142,
      "prey": 7143,
      "envy": 7144,
      "showin": 7145,
      "wiz": 7146,
      "shakes": 7147,
      "##laim": 7148,
      "incredible": 7149,
      "hott": 7150,
      "beha": 7151,
      "tuck": 7152,
      "budd": 7153,
      "toward": 7154,
      "##ales": 7155,
      "curtains": 7156,
      "sof": 7157,
      "crank": 7158,
      "tremb": 7159,
      "security": 7160,
      "indian": 7161,
      "atlanta": 7162,
      "fid": 7163,
      "neva": 7164,
      "stoppin": 7165,
      "##ology": 7166,
      "shield": 7167,
      "reaction": 7168,
      "progress": 7169,
      "bumpin": 7170,
      "fuel": 7171,
      "gw": 7172,
      "colours": 7173,
      "jugg": 7174,
      "ros": 7175,
      "organ": 7176,
      "wigg": 7177,
      "##book": 7178,
      "mansion": 7179,
      "copy": 7180,
      "##pro": 7181,
      "##whel": 7182,
      "inspiration": 7183,
      "content": 7184,
      "entire": 7185,
      "jag": 7186,
      "exit": 7187,
      "shim": 7188,
      "##iot": 7189,
      "helping": 7190,
      "mississ": 7191,
      "ignorance": 7192,
      "actions": 7193,
      "stained": 7194,
      "hump": 7195,
      "##ament": 7196,
      "rod": 7197,
      "##rid": 7198,
      "##nda": 7199,
      "##ippi": 7200,
      "myster": 7201,
      "suggest": 7202,
      "footsteps": 7203,
      "perfectly": 7204,
      "victor": 7205,
      "fits": 7206,
      "##kk": 7207,
      "whispered": 7208,
      "swallowed": 7209,
      "crushed": 7210,
      "##11": 7211,
      "lighter": 7212,
      "nail": 7213,
      "charlie": 7214,
      "noel": 7215,
      "flock": 7216,
      "leve": 7217,
      "kissin": 7218,
      "##isc": 7219,
      "mrs": 7220,
      "scent": 7221,
      "##emption": 7222,
      "ale": 7223,
      "tim": 7224,
      "sinners": 7225,
      "eventually": 7226,
      "##omy": 7227,
      "fightin": 7228,
      "rooms": 7229,
      "bucket": 7230,
      "perman": 7231,
      "hustler": 7232,
      "soda": 7233,
      "handed": 7234,
      "warn": 7235,
      "##uced": 7236,
      "rabbit": 7237,
      "lun": 7238,
      "driven": 7239,
      "invent": 7240,
      "socks": 7241,
      "##asion": 7242,
      "exam": 7243,
      "stormy": 7244,
      "##ronic": 7245,
      "peak": 7246,
      "banging": 7247,
      "##ura": 7248,
      "potent": 7249,
      "billion": 7250,
      "obey": 7251,
      "powers": 7252,
      "gear": 7253,
      "yeh": 7254,
      "reh": 7255,
      "##nn": 7256,
      "##str": 7257,
      "choking": 7258,
      "descend": 7259,
      "balling": 7260,
      "symph": 7261,
      "maintain": 7262,
      "hound": 7263,
      "##cast": 7264,
      "overwhel": 7265,
      "skirt": 7266,
      "superman": 7267,
      "ing": 7268,
      "##isher": 7269,
      "handsome": 7270,
      "current": 7271,
      "skelet": 7272,
      "soil": 7273,
      "mississippi": 7274,
      "compass": 7275,
      "deter": 7276,
      "assh": 7277,
      "defense": 7278,
      "fas": 7279,
      "##itary": 7280,
      "forgetting": 7281,
      "marijuana": 7282,
      "bigg": 7283,
      "stalk": 7284,
      "ace": 7285,
      "illum": 7286,
      "##mmy": 7287,
      "swept": 7288,
      "stains": 7289,
      "classic": 7290,
      "powerful": 7291,
      "##senger": 7292,
      "##place": 7293,
      "crumble": 7294,
      "sparks": 7295,
      "##ios": 7296,
      "filthy": 7297,
      "##zer": 7298,
      "doc": 7299,
      "gotten": 7300,
      "worthless": 7301,
      "rely": 7302,
      "perform": 7303,
      "vest": 7304,
      "pulse": 7305,
      "tame": 7306,
      "##seat": 7307,
      "sanct": 7308,
      "temple": 7309,
      "george": 7310,
      "##omp": 7311,
      "collap": 7312,
      "study": 7313,
      "##iti": 7314,
      "vine": 7315,
      "redemption": 7316,
      "turnt": 7317,
      "##vo": 7318,
      "woulda": 7319,
      "glist": 7320,
      "blac": 7321,
      "boulev": 7322,
      "ignite": 7323,
      "disappoint": 7324,
      "ken": 7325,
      "##cil": 7326,
      "align": 7327,
      "foul": 7328,
      "ident": 7329,
      "sar": 7330,
      "realest": 7331,
      "##ems": 7332,
      "buff": 7333,
      "waving": 7334,
      "haw": 7335,
      "outer": 7336,
      "rises": 7337,
      "ms": 7338,
      "general": 7339,
      "velvet": 7340,
      "rand": 7341,
      "rang": 7342,
      "cooking": 7343,
      "century": 7344,
      "pupp": 7345,
      "jerk": 7346,
      "anchor": 7347,
      "arch": 7348,
      "yi": 7349,
      "##stairs": 7350,
      "monsters": 7351,
      "carrying": 7352,
      "hospital": 7353,
      "mars": 7354,
      "parties": 7355,
      "jock": 7356,
      "skills": 7357,
      "yelling": 7358,
      "arrived": 7359,
      "slice": 7360,
      "betta": 7361,
      "halls": 7362,
      "television": 7363,
      "sharing": 7364,
      "experience": 7365,
      "hu": 7366,
      "hou": 7367,
      "reply": 7368,
      "machines": 7369,
      "mand": 7370,
      "arrest": 7371,
      "tragic": 7372,
      "##nde": 7373,
      "##itties": 7374,
      "sept": 7375,
      "coward": 7376,
      "##fit": 7377,
      "goose": 7378,
      "##usions": 7379,
      "folk": 7380,
      "dug": 7381,
      "dong": 7382,
      "wonderin": 7383,
      "christian": 7384,
      "bees": 7385,
      "careless": 7386,
      "sentence": 7387,
      "mirrors": 7388,
      "sincere": 7389,
      "bangin": 7390,
      "roo": 7391,
      "grinding": 7392,
      "teen": 7393,
      "coz": 7394,
      "spittin": 7395,
      "wrath": 7396,
      "sniff": 7397,
      "sane": 7398,
      "alt": 7399,
      "dull": 7400,
      "thankful": 7401,
      "##rap": 7402,
      "romantic": 7403,
      "evidence": 7404,
      "source": 7405,
      "backseat": 7406,
      "##entine": 7407,
      "survival": 7408,
      "majesty": 7409,
      "rate": 7410,
      "##10": 7411,
      "carn": 7412,
      "ribb": 7413,
      "perfection": 7414,
      "abandoned": 7415,
      "leap": 7416,
      "acid": 7417,
      "##quest": 7418,
      "dynam": 7419,
      "immort": 7420,
      "contact": 7421,
      "battles": 7422,
      "mami": 7423,
      "chann": 7424,
      "patiently": 7425,
      "farther": 7426,
      "jokes": 7427,
      "diggin": 7428,
      "heights": 7429,
      "material": 7430,
      "horror": 7431,
      "marks": 7432,
      "domin": 7433,
      "throughout": 7434,
      "wouldnt": 7435,
      "amazed": 7436,
      "##olution": 7437,
      "drawing": 7438,
      "liberty": 7439,
      "gifts": 7440,
      "proceed": 7441,
      "busted": 7442,
      "drowned": 7443,
      "direct": 7444,
      "reverse": 7445,
      "thie": 7446,
      "dix": 7447,
      "##tery": 7448,
      "rape": 7449,
      "addiction": 7450,
      "##anity": 7451,
      "prayin": 7452,
      "##iano": 7453,
      "sights": 7454,
      "oxy": 7455,
      "zoom": 7456,
      "##oun": 7457,
      "creatures": 7458,
      "pros": 7459,
      "chim": 7460,
      "unwind": 7461,
      "muscle": 7462,
      "tunnel": 7463,
      "poured": 7464,
      "trill": 7465,
      "office": 7466,
      "##girl": 7467,
      "unb": 7468,
      "nerves": 7469,
      "rats": 7470,
      "jamaica": 7471,
      "gam": 7472,
      "woe": 7473,
      "wasnt": 7474,
      "laughin": 7475,
      "##aka": 7476,
      "##while": 7477,
      "reigns": 7478,
      "##anda": 7479,
      "swift": 7480,
      "##oodoo": 7481,
      "graves": 7482,
      "ame": 7483,
      "skill": 7484,
      "creature": 7485,
      "humanity": 7486,
      "fists": 7487,
      "fiction": 7488,
      "sally": 7489,
      "##bels": 7490,
      "issues": 7491,
      "protection": 7492,
      "nas": 7493,
      "suits": 7494,
      "enc": 7495,
      "subst": 7496,
      "knuck": 7497,
      "caress": 7498,
      "ooooooo": 7499,
      "rocky": 7500,
      "argu": 7501,
      "fooled": 7502,
      "cups": 7503,
      "fiends": 7504,
      "##very": 7505,
      "messing": 7506,
      "fourth": 7507,
      "stroll": 7508,
      "respons": 7509,
      "walt": 7510,
      "##onne": 7511,
      "beggin": 7512,
      "circum": 7513,
      "guaranteed": 7514,
      "emerg": 7515,
      "mead": 7516,
      "peel": 7517,
      "nest": 7518,
      "##ola": 7519,
      "maze": 7520,
      "disappeared": 7521,
      "england": 7522,
      "circus": 7523,
      "wop": 7524,
      "gos": 7525,
      "clay": 7526,
      "instant": 7527,
      "dealer": 7528,
      "##ender": 7529,
      "seren": 7530,
      "zombie": 7531,
      "advent": 7532,
      "##lect": 7533,
      "timing": 7534,
      "frontin": 7535,
      "les": 7536,
      "complex": 7537,
      "goodbyes": 7538,
      "solution": 7539,
      "cherish": 7540,
      "voodoo": 7541,
      "slack": 7542,
      "fucks": 7543,
      "object": 7544,
      "hoped": 7545,
      "banks": 7546,
      "000": 7547,
      "pony": 7548,
      "##ench": 7549,
      "pac": 7550,
      "##cel": 7551,
      "cheeks": 7552,
      "idol": 7553,
      "however": 7554,
      "##ivity": 7555,
      "ki": 7556,
      "bringin": 7557,
      "sucking": 7558,
      "mh": 7559,
      "bluff": 7560,
      "tension": 7561,
      "teardro": 7562,
      "virt": 7563,
      "loop": 7564,
      "boulevard": 7565,
      "exec": 7566,
      "amongst": 7567,
      "yup": 7568,
      "sanity": 7569,
      "beck": 7570,
      "behavi": 7571,
      "kneel": 7572,
      "kitty": 7573,
      "beth": 7574,
      "bentley": 7575,
      "##inkle": 7576,
      "mort": 7577,
      "wounded": 7578,
      "##umps": 7579,
      "unre": 7580,
      "praises": 7581,
      "thump": 7582,
      "melting": 7583,
      "definite": 7584,
      "spider": 7585,
      "hadn": 7586,
      "fanta": 7587,
      "##inct": 7588,
      "tops": 7589,
      "syn": 7590,
      "gaz": 7591,
      "ramb": 7592,
      "twerk": 7593,
      "hardcore": 7594,
      "ave": 7595,
      "ron": 7596,
      "##gon": 7597,
      "##icted": 7598,
      "writ": 7599,
      "cus": 7600,
      "coin": 7601,
      "china": 7602,
      "raising": 7603,
      "sleepless": 7604,
      "percent": 7605,
      "wins": 7606,
      "honky": 7607,
      "imper": 7608,
      "ea": 7609,
      "##view": 7610,
      "lab": 7611,
      "subject": 7612,
      "narrow": 7613,
      "zoo": 7614,
      "fountain": 7615,
      "bruised": 7616,
      "multip": 7617,
      "overflow": 7618,
      "strain": 7619,
      "rollie": 7620,
      "reind": 7621,
      "lyrical": 7622,
      "louie": 7623,
      "subt": 7624,
      "stressed": 7625,
      "##arts": 7626,
      "##chin": 7627,
      "jewelry": 7628,
      "nur": 7629,
      "heh": 7630,
      "backyard": 7631,
      "breakdown": 7632,
      "beaten": 7633,
      "cradle": 7634,
      "##ours": 7635,
      "firm": 7636,
      "program": 7637,
      "##cies": 7638,
      "##arr": 7639,
      "thangs": 7640,
      "hypoc": 7641,
      "alab": 7642,
      "whirl": 7643,
      "##olo": 7644,
      "dism": 7645,
      "politic": 7646,
      "##lend": 7647,
      "cham": 7648,
      "bron": 7649,
      "moms": 7650,
      "achie": 7651,
      "leaning": 7652,
      "creepin": 7653,
      "heed": 7654,
      "##bers": 7655,
      "shooters": 7656,
      "tyr": 7657,
      "nap": 7658,
      "dais": 7659,
      "##phones": 7660,
      "backst": 7661,
      "headlights": 7662,
      "fighter": 7663,
      "hustlin": 7664,
      "pedal": 7665,
      "jazz": 7666,
      "##oles": 7667,
      "oooooh": 7668,
      "90": 7669,
      "lime": 7670,
      "carpet": 7671,
      "marty": 7672,
      "blazing": 7673,
      "reject": 7674,
      "pawn": 7675,
      "honesty": 7676,
      "rif": 7677,
      "alien": 7678,
      "haul": 7679,
      "connected": 7680,
      "degrees": 7681,
      "tires": 7682,
      "diffic": 7683,
      "chris": 7684,
      "placed": 7685,
      "##ples": 7686,
      "sixty": 7687,
      "fuse": 7688,
      "faint": 7689,
      "##uction": 7690,
      "##ded": 7691,
      "france": 7692,
      "##car": 7693,
      "##ams": 7694,
      "section": 7695,
      "##uest": 7696,
      "shoo": 7697,
      "dragging": 7698,
      "spotlight": 7699,
      "anti": 7700,
      "zip": 7701,
      "serving": 7702,
      "rays": 7703,
      "laughs": 7704,
      "##inting": 7705,
      "sucks": 7706,
      "mamma": 7707,
      "##iate": 7708,
      "##reh": 7709,
      "wester": 7710,
      "noon": 7711,
      "risen": 7712,
      "earned": 7713,
      "provide": 7714,
      "duke": 7715,
      "wip": 7716,
      "##oner": 7717,
      "appla": 7718,
      "disgrace": 7719,
      "nan": 7720,
      "##ember": 7721,
      "##isco": 7722,
      "##life": 7723,
      "stunt": 7724,
      "pressed": 7725,
      "points": 7726,
      "hates": 7727,
      "concerned": 7728,
      "september": 7729,
      "ratt": 7730,
      "supply": 7731,
      "concern": 7732,
      "slips": 7733,
      "fooling": 7734,
      "satellite": 7735,
      "hurtin": 7736,
      "designer": 7737,
      "fellow": 7738,
      "herb": 7739,
      "crimes": 7740,
      "poetry": 7741,
      "market": 7742,
      "cocky": 7743,
      "sensation": 7744,
      "titties": 7745,
      "mate": 7746,
      "nowad": 7747,
      "crumb": 7748,
      "trial": 7749,
      "struggling": 7750,
      "discuss": 7751,
      "2x": 7752,
      "banana": 7753,
      "penn": 7754,
      "blinding": 7755,
      "address": 7756,
      "comput": 7757,
      "destroyed": 7758,
      "##otch": 7759,
      "spar": 7760,
      "##bin": 7761,
      "##tered": 7762,
      "wondered": 7763,
      "mouths": 7764,
      "jelly": 7765,
      "web": 7766,
      "wearin": 7767,
      "cloudy": 7768,
      "scor": 7769,
      "legal": 7770,
      "symphony": 7771,
      "reindeer": 7772,
      "porn": 7773,
      "strung": 7774,
      "miracles": 7775,
      "eur": 7776,
      "mistlet": 7777,
      "199": 7778,
      "attempt": 7779,
      "cycle": 7780,
      "##aur": 7781,
      "##ront": 7782,
      "blanket": 7783,
      "scattered": 7784,
      "nowadays": 7785,
      "##ati": 7786,
      "drill": 7787,
      "information": 7788,
      "understands": 7789,
      "##pie": 7790,
      "shouting": 7791,
      "scheme": 7792,
      "faking": 7793,
      "overs": 7794,
      "starving": 7795,
      "gospel": 7796,
      "mistletoe": 7797,
      "gid": 7798,
      "##cip": 7799,
      "glue": 7800,
      "stranded": 7801,
      "##ining": 7802,
      "zion": 7803,
      "sooth": 7804,
      "##rib": 7805,
      "##cible": 7806,
      "pounding": 7807,
      "habits": 7808,
      "##alo": 7809,
      "##stood": 7810,
      "mellow": 7811,
      "flexin": 7812,
      "tock": 7813,
      "glimp": 7814,
      "growin": 7815,
      "harlem": 7816,
      "dynamite": 7817,
      "cd": 7818,
      "seams": 7819,
      "yep": 7820,
      "om": 7821,
      "##ih": 7822,
      "##ᅳᆫ": 7823,
      "panties": 7824,
      "14": 7825,
      "pumping": 7826,
      "tossed": 7827,
      "isnt": 7828,
      "swang": 7829,
      "villain": 7830,
      "rims": 7831,
      "##rael": 7832,
      "raind": 7833,
      "awe": 7834,
      "dedicated": 7835,
      "##proof": 7836,
      "kil": 7837,
      "rh": 7838,
      "meta": 7839,
      "##istry": 7840,
      "follows": 7841,
      "offering": 7842,
      "behave": 7843,
      "slaves": 7844,
      "knives": 7845,
      "denial": 7846,
      "prisoner": 7847,
      "mere": 7848,
      "bene": 7849,
      "serp": 7850,
      "insanity": 7851,
      "flippin": 7852,
      "invin": 7853,
      "whippin": 7854,
      "patch": 7855,
      "whips": 7856,
      "##pple": 7857,
      "womb": 7858,
      "##prints": 7859,
      "rit": 7860,
      "lifestyle": 7861,
      "jean": 7862,
      "butterflies": 7863,
      "wu": 7864,
      "chip": 7865,
      "scale": 7866,
      "appet": 7867,
      "triump": 7868,
      "muthafuckin": 7869,
      "piano": 7870,
      "##12": 7871,
      "supreme": 7872,
      "climbed": 7873,
      "western": 7874,
      "gur": 7875,
      "lettin": 7876,
      "masses": 7877,
      "jun": 7878,
      "yonder": 7879,
      "tec": 7880,
      "##uffle": 7881,
      "froze": 7882,
      "veil": 7883,
      "##umed": 7884,
      "##ji": 7885,
      "willie": 7886,
      "opening": 7887,
      "talent": 7888,
      "lawyer": 7889,
      "pine": 7890,
      "##sal": 7891,
      "dusty": 7892,
      "sleepy": 7893,
      "listenin": 7894,
      "waterfall": 7895,
      "sic": 7896,
      "juke": 7897,
      "rooft": 7898,
      "##ᅡᆫ": 7899,
      "petty": 7900,
      "tub": 7901,
      "whack": 7902,
      "demise": 7903,
      "pearl": 7904,
      "##lock": 7905,
      "kinds": 7906,
      "nickel": 7907,
      "ire": 7908,
      "bled": 7909,
      "disp": 7910,
      "genius": 7911,
      "umb": 7912,
      "stake": 7913,
      "eighteen": 7914,
      "booze": 7915,
      "emotional": 7916,
      "nike": 7917,
      "##eah": 7918,
      "dixie": 7919,
      "paran": 7920,
      "hides": 7921,
      "trains": 7922,
      "beatin": 7923,
      "forces": 7924,
      "bloss": 7925,
      "tumbling": 7926,
      "caps": 7927,
      "alib": 7928,
      "starlight": 7929,
      "##iel": 7930,
      "clo": 7931,
      "prolly": 7932,
      "profit": 7933,
      "kr": 7934,
      "clar": 7935,
      "ruby": 7936,
      "casket": 7937,
      "13": 7938,
      "stag": 7939,
      "lighting": 7940,
      "planes": 7941,
      "clubs": 7942,
      "ladder": 7943,
      "grindin": 7944,
      "cookin": 7945,
      "triumph": 7946,
      "concent": 7947,
      "pud": 7948,
      "knot": 7949,
      "pearls": 7950,
      "##ask": 7951,
      "mmmm": 7952,
      "##semb": 7953,
      "tro": 7954,
      "react": 7955,
      "charac": 7956,
      "##mic": 7957,
      "##wl": 7958,
      "noose": 7959,
      "##nally": 7960,
      "lifting": 7961,
      "jus": 7962,
      "jose": 7963,
      "##uits": 7964,
      "##ores": 7965,
      "curious": 7966,
      "desires": 7967,
      "raindro": 7968,
      "vult": 7969,
      "dol": 7970,
      "curb": 7971,
      "vet": 7972,
      "explod": 7973,
      "anticip": 7974,
      "robbed": 7975,
      "##olation": 7976,
      "thousands": 7977,
      "lux": 7978,
      "blonde": 7979,
      "skate": 7980,
      "quietly": 7981,
      "venom": 7982,
      "maria": 7983,
      "sexual": 7984,
      "vampire": 7985,
      "israel": 7986,
      "league": 7987,
      "mich": 7988,
      "clearer": 7989,
      "hunting": 7990,
      "exch": 7991,
      "baller": 7992,
      "gimm": 7993,
      "influ": 7994,
      "houston": 7995,
      "russ": 7996,
      "argue": 7997,
      "fingert": 7998,
      "impro": 7999,
      "##ugging": 8000,
      "sport": 8001,
      "crook": 8002,
      "garb": 8003,
      "upper": 8004,
      "galax": 8005,
      "odd": 8006,
      "##cise": 8007,
      "victims": 8008,
      "warned": 8009,
      "tempor": 8010,
      "sorrows": 8011,
      "outlaw": 8012,
      "opinion": 8013,
      "##kers": 8014,
      "gentleman": 8015,
      "gathered": 8016,
      "cord": 8017,
      "howling": 8018,
      "agony": 8019,
      "infinity": 8020,
      "remembering": 8021,
      "digital": 8022,
      "infect": 8023,
      "##cher": 8024,
      "rah": 8025,
      "career": 8026,
      "saves": 8027,
      "traveled": 8028,
      "difficult": 8029,
      "invincible": 8030,
      "heartless": 8031,
      "hypnotized": 8032,
      "paralyzed": 8033,
      "ens": 8034,
      "spreading": 8035,
      "lyric": 8036,
      "tryn": 8037,
      "tab": 8038,
      "lanes": 8039,
      "##ipped": 8040,
      "tasted": 8041,
      "disgust": 8042,
      "scenes": 8043,
      "misunderstood": 8044,
      "toil": 8045,
      "crossing": 8046,
      "poll": 8047,
      "appeal": 8048,
      "bapt": 8049,
      "chan": 8050,
      "incre": 8051,
      "dreamt": 8052,
      "phra": 8053,
      "me1": 8054,
      "##ella": 8055,
      "contempl": 8056,
      "##iah": 8057,
      "##bone": 8058,
      "refrain": 8059,
      "latest": 8060,
      "figures": 8061,
      "##rog": 8062,
      "area": 8063,
      "buildings": 8064,
      "doh": 8065,
      "wayne": 8066,
      "potato": 8067,
      "shores": 8068,
      "horny": 8069,
      "wrongs": 8070,
      "childhood": 8071,
      "opportunity": 8072,
      "asshole": 8073,
      "cind": 8074,
      "guest": 8075,
      "greedy": 8076,
      "sealed": 8077,
      "graveyard": 8078,
      "obsc": 8079,
      "##rup": 8080,
      "cope": 8081,
      "sel": 8082,
      "shells": 8083,
      "##reat": 8084,
      "undercover": 8085,
      "limits": 8086,
      "status": 8087,
      "tools": 8088,
      "justify": 8089,
      "thieves": 8090,
      "coco": 8091,
      "railroad": 8092,
      "rattle": 8093,
      "deuce": 8094,
      "homeboy": 8095,
      "ambition": 8096,
      "bethle": 8097,
      "##riage": 8098,
      "doct": 8099,
      "colored": 8100,
      "99": 8101,
      "tommy": 8102,
      "clips": 8103,
      "stuntin": 8104,
      "carolina": 8105,
      "bethlehem": 8106,
      "forbid": 8107,
      "wallet": 8108,
      "miser": 8109,
      "posted": 8110,
      "projects": 8111,
      "declare": 8112,
      "swingin": 8113,
      "circumst": 8114,
      "flaws": 8115,
      "outs": 8116,
      "gorge": 8117,
      "thirt": 8118,
      "rud": 8119,
      "##wr": 8120,
      "compreh": 8121,
      "typ": 8122,
      "permanent": 8123,
      "garbage": 8124,
      "jon": 8125,
      "vip": 8126,
      "##fold": 8127,
      "lions": 8128,
      "explos": 8129,
      "downs": 8130,
      "splash": 8131,
      "jive": 8132,
      "kim": 8133,
      "dimen": 8134,
      "unp": 8135,
      "casual": 8136,
      "dimes": 8137,
      "ridd": 8138,
      "henny": 8139,
      "##li": 8140,
      "venge": 8141,
      "sailor": 8142,
      "martin": 8143,
      "emergency": 8144,
      "kat": 8145,
      "wig": 8146,
      "##icing": 8147,
      "gloria": 8148,
      "##gth": 8149,
      "chills": 8150,
      "bing": 8151,
      "##onic": 8152,
      "muddy": 8153,
      "pigs": 8154,
      "##eys": 8155,
      "oxygen": 8156,
      "tips": 8157,
      "contr": 8158,
      "internet": 8159,
      "##ando": 8160,
      "starin": 8161,
      "chord": 8162,
      "trips": 8163,
      "eyel": 8164,
      "definitely": 8165,
      "steep": 8166,
      "believes": 8167,
      "tides": 8168,
      "yearning": 8169,
      "punish": 8170,
      "gradu": 8171,
      "process": 8172,
      "millionaire": 8173,
      "accord": 8174,
      "lamp": 8175,
      "paranoid": 8176,
      "cheating": 8177,
      "styles": 8178,
      "suitcase": 8179,
      "lic": 8180,
      "chronic": 8181,
      "instinct": 8182,
      "packing": 8183,
      "twisting": 8184,
      "weeping": 8185,
      "packs": 8186,
      "northern": 8187,
      "capture": 8188,
      "requ": 8189,
      "highs": 8190,
      "basic": 8191,
      "##bra": 8192,
      "##ummy": 8193,
      "stripes": 8194,
      "torch": 8195,
      "negative": 8196,
      "weave": 8197,
      "independent": 8198,
      "foes": 8199,
      "shits": 8200,
      "pickin": 8201,
      "##ede": 8202,
      "allelu": 8203,
      "##chu": 8204,
      "saddle": 8205,
      "chant": 8206,
      "tread": 8207,
      "stiff": 8208,
      "rover": 8209,
      "fella": 8210,
      "hmmm": 8211,
      "opposite": 8212,
      "gig": 8213,
      "ot": 8214,
      "hometown": 8215,
      "african": 8216,
      "sideways": 8217,
      "wilder": 8218,
      "celebration": 8219,
      "surrounds": 8220,
      "glimpse": 8221,
      "##urally": 8222,
      "function": 8223,
      "consum": 8224,
      "kh": 8225,
      "wink": 8226,
      "##racted": 8227,
      "judg": 8228,
      "critic": 8229,
      "fingertips": 8230,
      "##rection": 8231,
      "reap": 8232,
      "chased": 8233,
      "film": 8234,
      "abandon": 8235,
      "forsaken": 8236,
      "##ata": 8237,
      "strict": 8238,
      "woh": 8239,
      "stamp": 8240,
      "guessing": 8241,
      "globe": 8242,
      "glitter": 8243,
      "brace": 8244,
      "valentine": 8245,
      "obsession": 8246,
      "sue": 8247,
      "aunt": 8248,
      "stub": 8249,
      "cameras": 8250,
      "aust": 8251,
      "starry": 8252,
      "aqu": 8253,
      "tremble": 8254,
      "ruined": 8255,
      "##lear": 8256,
      "bae": 8257,
      "remembered": 8258,
      "ooooo": 8259,
      "##icle": 8260,
      "landed": 8261,
      "purse": 8262,
      "carries": 8263,
      "disag": 8264,
      "oct": 8265,
      "frequ": 8266,
      "checkin": 8267,
      "feathers": 8268,
      "giddy": 8269,
      "beans": 8270,
      "stove": 8271,
      "singer": 8272,
      "snoop": 8273,
      "wrest": 8274,
      "draws": 8275,
      "embarr": 8276,
      "cath": 8277,
      "peek": 8278,
      "##tage": 8279,
      "redne": 8280,
      "resistance": 8281,
      "horns": 8282,
      "issue": 8283,
      "thorns": 8284,
      "aaa": 8285,
      "pizz": 8286,
      "succeed": 8287,
      "##esse": 8288,
      "liars": 8289,
      "##ainted": 8290,
      "erased": 8291,
      "vent": 8292,
      "##utation": 8293,
      "brill": 8294,
      "forevermore": 8295,
      "served": 8296,
      "eleph": 8297,
      "silhouette": 8298,
      "disconne": 8299,
      "cooler": 8300,
      "##vey": 8301,
      "cyan": 8302,
      "armor": 8303,
      "sweater": 8304,
      "muse": 8305,
      "nu": 8306,
      "ridic": 8307,
      "magazines": 8308,
      "bart": 8309,
      "##itor": 8310,
      "emc": 8311,
      "defeated": 8312,
      "obliv": 8313,
      "wass": 8314,
      "fearless": 8315,
      "judgement": 8316,
      "anthem": 8317,
      "channel": 8318,
      "trappin": 8319,
      "divided": 8320,
      "##pensive": 8321,
      "tint": 8322,
      "##mind": 8323,
      "##bur": 8324,
      "beams": 8325,
      "##ux": 8326,
      "drippin": 8327,
      "besides": 8328,
      "neat": 8329,
      "fried": 8330,
      "aha": 8331,
      "embra": 8332,
      "##iiii": 8333,
      "mourn": 8334,
      "remor": 8335,
      "spiritual": 8336,
      "unkind": 8337,
      "betrayed": 8338,
      "soaked": 8339,
      "sucked": 8340,
      "popular": 8341,
      "##wide": 8342,
      "basket": 8343,
      "repent": 8344,
      "smells": 8345,
      "dozen": 8346,
      "symb": 8347,
      "sticking": 8348,
      "immortal": 8349,
      "trad": 8350,
      "discip": 8351,
      "temperature": 8352,
      "fare": 8353,
      "ward": 8354,
      "##stas": 8355,
      "offe": 8356,
      "makeup": 8357,
      "trembling": 8358,
      "##otted": 8359,
      "correct": 8360,
      "mattress": 8361,
      "dus": 8362,
      "magical": 8363,
      "hunter": 8364,
      "jeep": 8365,
      "broads": 8366,
      "effort": 8367,
      "remorse": 8368,
      "soak": 8369,
      "searched": 8370,
      "endlessly": 8371,
      "tumble": 8372,
      "expensive": 8373,
      "##iety": 8374,
      "occup": 8375,
      "ruth": 8376,
      "shak": 8377,
      "opens": 8378,
      "limbs": 8379,
      "##ᅳᆯ": 8380,
      "lisa": 8381,
      "foundation": 8382,
      "trynna": 8383,
      "gorgeous": 8384,
      "##osing": 8385,
      "sails": 8386,
      "hangs": 8387,
      "##ifest": 8388,
      "##friends": 8389,
      "nana": 8390,
      "##ril": 8391,
      "##usive": 8392,
      "##ansas": 8393,
      "##phor": 8394,
      "plague": 8395,
      "consume": 8396,
      "depression": 8397,
      "##iment": 8398,
      "blades": 8399,
      "##elle": 8400,
      "spect": 8401,
      "conceal": 8402,
      "cud": 8403,
      "pors": 8404,
      "##arent": 8405,
      "mostly": 8406,
      "philos": 8407,
      "tis": 8408,
      "wret": 8409,
      "beds": 8410,
      "##ahah": 8411,
      "humming": 8412,
      "aid": 8413,
      "condem": 8414,
      "##vas": 8415,
      "##cedes": 8416,
      "relationship": 8417,
      "craving": 8418,
      "martyr": 8419,
      "##nace": 8420,
      "manifest": 8421,
      "##ended": 8422,
      "silk": 8423,
      "presents": 8424,
      "favourite": 8425,
      "##cra": 8426,
      "notion": 8427,
      "charms": 8428,
      "unfor": 8429,
      "goals": 8430,
      "##rous": 8431,
      "destined": 8432,
      "borrowed": 8433,
      "crap": 8434,
      "floors": 8435,
      "naturally": 8436,
      "frightened": 8437,
      "##van": 8438,
      "slut": 8439,
      "replaced": 8440,
      "trance": 8441,
      "mock": 8442,
      "mode": 8443,
      "tucked": 8444,
      "adam": 8445,
      "shooter": 8446,
      "disturb": 8447,
      "terrified": 8448,
      "chapter": 8449,
      "##fish": 8450,
      "##acing": 8451,
      "alert": 8452,
      "##andal": 8453,
      "swerve": 8454,
      "fatal": 8455,
      "sentimental": 8456,
      "tits": 8457,
      "challenge": 8458,
      "asks": 8459,
      "jersey": 8460,
      "##ena": 8461,
      "agg": 8462,
      "hym": 8463,
      "prophet": 8464,
      "icy": 8465,
      "messin": 8466,
      "intro": 8467,
      "option": 8468,
      "##aid": 8469,
      "duh": 8470,
      "##face": 8471,
      "cah": 8472,
      "slo": 8473,
      "loco": 8474,
      "failing": 8475,
      "spots": 8476,
      "##gger": 8477,
      "essence": 8478,
      "cookie": 8479,
      "susp": 8480,
      "winding": 8481,
      "mortal": 8482,
      "brit": 8483,
      "settled": 8484,
      "vengeance": 8485,
      "##lor": 8486,
      "##enced": 8487,
      "grant": 8488,
      "mistaken": 8489,
      "clowns": 8490,
      "tunes": 8491,
      "ine": 8492,
      "##the": 8493,
      "realise": 8494,
      "affect": 8495,
      "acqu": 8496,
      "jeff": 8497,
      "mayne": 8498,
      "peoples": 8499,
      "##zes": 8500,
      "captured": 8501,
      "eter": 8502,
      "##atchet": 8503,
      "pays": 8504,
      "##edge": 8505,
      "tire": 8506,
      "##oted": 8507,
      "tramp": 8508,
      "background": 8509,
      "flor": 8510,
      "##orted": 8511,
      "spliff": 8512,
      "nuttin": 8513,
      "freezing": 8514,
      "dealt": 8515,
      "eighty": 8516,
      "routine": 8517,
      "undert": 8518,
      "rice": 8519,
      "allah": 8520,
      "##oken": 8521,
      "views": 8522,
      "signal": 8523,
      "##rd": 8524,
      "##itution": 8525,
      "jobs": 8526,
      "confident": 8527,
      "quicker": 8528,
      "cliff": 8529,
      "steer": 8530,
      "henness": 8531,
      "custom": 8532,
      "locks": 8533,
      "afar": 8534,
      "untr": 8535,
      "raindrops": 8536,
      "##list": 8537,
      "rece": 8538,
      "fails": 8539,
      "pourin": 8540,
      "wednes": 8541,
      "aight": 8542,
      "inhale": 8543,
      "relie": 8544,
      "unsp": 8545,
      "cit": 8546,
      "##ted": 8547,
      "screwed": 8548,
      "heav": 8549,
      "strife": 8550,
      "defin": 8551,
      "insecure": 8552,
      "determin": 8553,
      "appetite": 8554,
      "umbre": 8555,
      "chalk": 8556,
      "hennessy": 8557,
      "nun": 8558,
      "vice": 8559,
      "passin": 8560,
      "corpor": 8561,
      "subl": 8562,
      "hunnid": 8563,
      "collapse": 8564,
      "##roit": 8565,
      "ripping": 8566,
      "##bound": 8567,
      "request": 8568,
      "blinds": 8569,
      "thurs": 8570,
      "trend": 8571,
      "superst": 8572,
      "capital": 8573,
      "alabama": 8574,
      "wednesday": 8575,
      "wooo": 8576,
      "creek": 8577,
      "##ota": 8578,
      "painful": 8579,
      "rac": 8580,
      "dab": 8581,
      "freeway": 8582,
      "thursday": 8583,
      "awk": 8584,
      "earthqu": 8585,
      "vein": 8586,
      "intention": 8587,
      "symbol": 8588,
      "tou": 8589,
      "thirteen": 8590,
      "ack": 8591,
      "##amin": 8592,
      "rumors": 8593,
      "advanta": 8594,
      "dur": 8595,
      "shave": 8596,
      "friendship": 8597,
      "corpse": 8598,
      "dor": 8599,
      "dign": 8600,
      "##lined": 8601,
      "anna": 8602,
      "amor": 8603,
      "crims": 8604,
      "gladly": 8605,
      "##velop": 8606,
      "politics": 8607,
      "stair": 8608,
      "##chan": 8609,
      "plea": 8610,
      "duty": 8611,
      "convinced": 8612,
      "steak": 8613,
      "##ucky": 8614,
      "homeless": 8615,
      "education": 8616,
      "rank": 8617,
      "##omb": 8618,
      "aww": 8619,
      "legacy": 8620,
      "detroit": 8621,
      "swer": 8622,
      "glam": 8623,
      "palace": 8624,
      "replay": 8625,
      "taxi": 8626,
      "length": 8627,
      "##unken": 8628,
      "exce": 8629,
      "phones": 8630,
      "remove": 8631,
      "typical": 8632,
      "hm": 8633,
      "##iqu": 8634,
      "##arded": 8635,
      "tequ": 8636,
      "salute": 8637,
      "bait": 8638,
      "airpl": 8639,
      "mines": 8640,
      "ganja": 8641,
      "eternally": 8642,
      "sounding": 8643,
      "minor": 8644,
      "temporary": 8645,
      "yee": 8646,
      "##aman": 8647,
      "startin": 8648,
      "appears": 8649,
      "##anced": 8650,
      "survived": 8651,
      "bake": 8652,
      "princip": 8653,
      "##egr": 8654,
      "getaway": 8655,
      "roy": 8656,
      "beard": 8657,
      "expected": 8658,
      "confession": 8659,
      "convince": 8660,
      "tidings": 8661,
      "crimson": 8662,
      "brut": 8663,
      "teardrops": 8664,
      "awkward": 8665,
      "causing": 8666,
      "bleeds": 8667,
      "verses": 8668,
      "disagree": 8669,
      "wassup": 8670,
      "hazy": 8671,
      "chemistry": 8672,
      "version": 8673,
      "##cles": 8674,
      "myth": 8675,
      "limb": 8676,
      "blea": 8677,
      "smith": 8678,
      "##pture": 8679,
      "slid": 8680,
      "limp": 8681,
      "gym": 8682,
      "36": 8683,
      "mild": 8684,
      "vu": 8685,
      "trucks": 8686,
      "franc": 8687,
      "alph": 8688,
      "spa": 8689,
      "chained": 8690,
      "pumpin": 8691,
      "scarred": 8692,
      "keeper": 8693,
      "##agram": 8694,
      "passenger": 8695,
      "exposed": 8696,
      "eggs": 8697,
      "crunk": 8698,
      "kidding": 8699,
      "corrupt": 8700,
      "tattoos": 8701,
      "##rat": 8702,
      "diddy": 8703,
      "thrills": 8704,
      "salty": 8705,
      "23": 8706,
      "depe": 8707,
      "strut": 8708,
      "reputation": 8709,
      "pours": 8710,
      "flipping": 8711,
      "nove": 8712,
      "abo": 8713,
      "liquid": 8714,
      "gloves": 8715,
      "tonk": 8716,
      "patron": 8717,
      "cuss": 8718,
      "mouse": 8719,
      "unseen": 8720,
      "##ko": 8721,
      "village": 8722,
      "comprehend": 8723,
      "feeds": 8724,
      "##udge": 8725,
      "##wise": 8726,
      "overtime": 8727,
      "cheated": 8728,
      "concl": 8729,
      "lifes": 8730,
      "regardless": 8731,
      "cane": 8732,
      "bla": 8733,
      "willi": 8734,
      "trusted": 8735,
      "judgment": 8736,
      "spins": 8737,
      "smilin": 8738,
      "ignorant": 8739,
      "halloween": 8740,
      "grasp": 8741,
      "reborn": 8742,
      "##aline": 8743,
      "alleluia": 8744,
      "dried": 8745,
      "cin": 8746,
      "hank": 8747,
      "##icid": 8748,
      "photo": 8749,
      "bouncing": 8750,
      "##piece": 8751,
      "##ali": 8752,
      "##ican": 8753,
      "heres": 8754,
      "mercedes": 8755,
      "invite": 8756,
      "bruk": 8757,
      "introduce": 8758,
      "##state": 8759,
      "wakes": 8760,
      "attached": 8761,
      "advance": 8762,
      "ninet": 8763,
      "##zin": 8764,
      "member": 8765,
      "crushing": 8766,
      "schem": 8767,
      "##bert": 8768,
      "invited": 8769,
      "fury": 8770,
      "meadow": 8771,
      "x4": 8772,
      "pacif": 8773,
      "paths": 8774,
      "authority": 8775,
      "intellig": 8776,
      "chimney": 8777,
      "##now": 8778,
      "##uous": 8779,
      "##ndo": 8780,
      "howl": 8781,
      "##oons": 8782,
      "##ilar": 8783,
      "midst": 8784,
      "harvest": 8785,
      "delay": 8786,
      "pirate": 8787,
      "fantastic": 8788,
      "##vable": 8789,
      "shitty": 8790,
      "luc": 8791,
      "underwater": 8792,
      "##pir": 8793,
      "union": 8794,
      "sailed": 8795,
      "##urd": 8796,
      "sliding": 8797,
      "poke": 8798,
      "fry": 8799,
      "twin": 8800,
      "fantasies": 8801,
      "kite": 8802,
      "sock": 8803,
      "reward": 8804,
      "hal": 8805,
      "penet": 8806,
      "central": 8807,
      "fiddle": 8808,
      "bastards": 8809,
      "altar": 8810,
      "tequila": 8811,
      "fishing": 8812,
      "wooh": 8813,
      "lows": 8814,
      "lemonade": 8815,
      "depends": 8816,
      "steve": 8817,
      "ultimate": 8818,
      "alice": 8819,
      "spy": 8820,
      "ari": 8821,
      "oy": 8822,
      "assass": 8823,
      "guap": 8824,
      "leaders": 8825,
      "football": 8826,
      "extreme": 8827,
      "lex": 8828,
      "busting": 8829,
      "##rol": 8830,
      "sands": 8831,
      "counted": 8832,
      "models": 8833,
      "shapes": 8834,
      "gag": 8835,
      "rene": 8836,
      "brakes": 8837,
      "resting": 8838,
      "cyn": 8839,
      "cruisin": 8840,
      "watches": 8841,
      "happenin": 8842,
      "##lord": 8843,
      "bean": 8844,
      "based": 8845,
      "muh": 8846,
      "april": 8847,
      "##sweet": 8848,
      "cruising": 8849,
      "unco": 8850,
      "melodies": 8851,
      "bears": 8852,
      "geek": 8853,
      "##uted": 8854,
      "stutter": 8855,
      "versace": 8856,
      "closest": 8857,
      "montana": 8858,
      "drunken": 8859,
      "hash": 8860,
      "##iana": 8861,
      "joyful": 8862,
      "crowds": 8863,
      "ignored": 8864,
      "several": 8865,
      "gab": 8866,
      "##ox": 8867,
      "##oning": 8868,
      "broadway": 8869,
      "advantage": 8870,
      "tay": 8871,
      "##llas": 8872,
      "endure": 8873,
      "vod": 8874,
      "getcha": 8875,
      "stares": 8876,
      "dusk": 8877,
      "##odle": 8878,
      "crumbling": 8879,
      "##aaa": 8880,
      "blend": 8881,
      "absolutely": 8882,
      "##met": 8883,
      "##hib": 8884,
      "neckl": 8885,
      "##breaker": 8886,
      "cabin": 8887,
      "##opp": 8888,
      "fling": 8889,
      "philly": 8890,
      "mothafuckin": 8891,
      "stumbling": 8892,
      "relent": 8893,
      "vacant": 8894,
      "romeo": 8895,
      "##ua": 8896,
      "soap": 8897,
      "murdered": 8898,
      "stretched": 8899,
      "character": 8900,
      "##okin": 8901,
      "firework": 8902,
      "crashed": 8903,
      "vanity": 8904,
      "puzzle": 8905,
      "ras": 8906,
      "##zel": 8907,
      "plat": 8908,
      "repeating": 8909,
      "punks": 8910,
      "aboard": 8911,
      "##inger": 8912,
      "##stream": 8913,
      "wey": 8914,
      "undo": 8915,
      "reminisce": 8916,
      "puppet": 8917,
      "fac": 8918,
      "worldwide": 8919,
      "sends": 8920,
      "masquer": 8921,
      "manage": 8922,
      "carved": 8923,
      "checked": 8924,
      "attract": 8925,
      "awaken": 8926,
      "healthy": 8927,
      "impl": 8928,
      "willow": 8929,
      "intoxic": 8930,
      "famil": 8931,
      "returned": 8932,
      "mcs": 8933,
      "necessary": 8934,
      "speakin": 8935,
      "mickey": 8936,
      "termin": 8937,
      "liter": 8938,
      "instrumental": 8939,
      "rainbows": 8940,
      "jenny": 8941,
      "rearrange": 8942,
      "##west": 8943,
      "wires": 8944,
      "##uuuu": 8945,
      "posse": 8946,
      "bittersweet": 8947,
      "axe": 8948,
      "plates": 8949,
      "biting": 8950,
      "conversations": 8951,
      "rifle": 8952,
      "##lead": 8953,
      "##cus": 8954,
      "ohoh": 8955,
      "committed": 8956,
      "wrists": 8957,
      "flav": 8958,
      "shirts": 8959,
      "heath": 8960,
      "##igan": 8961,
      "guiding": 8962,
      "unite": 8963,
      "illeg": 8964,
      "torment": 8965,
      "robot": 8966,
      "branches": 8967,
      "pleased": 8968,
      "stride": 8969,
      "##ploy": 8970,
      "prett": 8971,
      "revealed": 8972,
      "shi": 8973,
      "raven": 8974,
      "moonshine": 8975,
      "reppin": 8976,
      "ched": 8977,
      "title": 8978,
      "ted": 8979,
      "ford": 8980,
      "strictly": 8981,
      "##gie": 8982,
      "bench": 8983,
      "japan": 8984,
      "jaded": 8985,
      "method": 8986,
      "thus": 8987,
      "ruins": 8988,
      "robin": 8989,
      "vodka": 8990,
      "nothings": 8991,
      "rodeo": 8992,
      "##cap": 8993,
      "##ancing": 8994,
      "murderer": 8995,
      "palms": 8996,
      "grams": 8997,
      "stank": 8998,
      "scatter": 8999,
      "farmer": 9000,
      "phony": 9001,
      "westside": 9002,
      "proclaim": 9003,
      "dand": 9004,
      "smashed": 9005,
      "anxious": 9006,
      "rou": 9007,
      "jolly": 9008,
      "haunts": 9009,
      "hoop": 9010,
      "designed": 9011,
      "bits": 9012,
      "emer": 9013,
      "southside": 9014,
      "groovy": 9015,
      "breathless": 9016,
      "hopped": 9017,
      "indiv": 9018,
      "computer": 9019,
      "cupid": 9020,
      "prescri": 9021,
      "uncertain": 9022,
      "rave": 9023,
      "stripped": 9024,
      "suburb": 9025,
      "rico": 9026,
      "daze": 9027,
      "spendin": 9028,
      "harry": 9029,
      "scrub": 9030,
      "claw": 9031,
      "sweetness": 9032,
      "gown": 9033,
      "ts": 9034,
      "wil": 9035,
      "##card": 9036,
      "lords": 9037,
      "brag": 9038,
      "parked": 9039,
      "##kkle": 9040,
      "pizza": 9041,
      "aby": 9042,
      "##roph": 9043,
      "soup": 9044,
      "armed": 9045,
      "marie": 9046,
      "hesitation": 9047,
      "chickens": 9048,
      "garage": 9049,
      "volume": 9050,
      "fue": 9051,
      "mini": 9052,
      "unlock": 9053,
      "burdens": 9054,
      "fagg": 9055,
      "despise": 9056,
      "lining": 9057,
      "mow": 9058,
      "yu": 9059,
      "compton": 9060,
      "quier": 9061,
      "lays": 9062,
      "annie": 9063,
      "female": 9064,
      "##heart": 9065,
      "virginia": 9066,
      "possibly": 9067,
      "longest": 9068,
      "foe": 9069,
      "creator": 9070,
      "trials": 9071,
      "##ettes": 9072,
      "bulletproof": 9073,
      "untrue": 9074,
      "##bly": 9075,
      "released": 9076,
      "secure": 9077,
      "wooden": 9078,
      "cert": 9079,
      "meh": 9080,
      "theyll": 9081,
      "labor": 9082,
      "pepper": 9083,
      "rusty": 9084,
      "mexican": 9085,
      "unstopp": 9086,
      "print": 9087,
      "badly": 9088,
      "stacking": 9089,
      "profession": 9090,
      "achieve": 9091,
      "stared": 9092,
      "doorway": 9093,
      "sund": 9094,
      "speeding": 9095,
      "cowards": 9096,
      "value": 9097,
      "officer": 9098,
      "kelly": 9099,
      "##ffe": 9100,
      "unlike": 9101,
      "unstoppable": 9102,
      "omo": 9103,
      "wagon": 9104,
      "##top": 9105,
      "goss": 9106,
      "planted": 9107,
      "returning": 9108,
      "clutch": 9109,
      "##low": 9110,
      "##dog": 9111,
      "thuggin": 9112,
      "grim": 9113,
      "fortun": 9114,
      "henry": 9115,
      "##vere": 9116,
      "winnin": 9117,
      "motel": 9118,
      "##foot": 9119,
      "revelation": 9120,
      "chamber": 9121,
      "##vail": 9122,
      "chine": 9123,
      "spilling": 9124,
      "impressed": 9125,
      "orders": 9126,
      "dent": 9127,
      "gum": 9128,
      "hats": 9129,
      "bumping": 9130,
      "consequence": 9131,
      "wiggle": 9132,
      "reneg": 9133,
      "##verty": 9134,
      "earl": 9135,
      "lev": 9136,
      "explore": 9137,
      "teachers": 9138,
      "reminded": 9139,
      "depressed": 9140,
      "silently": 9141,
      "porsche": 9142,
      "boston": 9143,
      "dances": 9144,
      "solitude": 9145,
      "bending": 9146,
      "shepherds": 9147,
      "playground": 9148,
      "poverty": 9149,
      "craft": 9150,
      "syrup": 9151,
      "atom": 9152,
      "pete": 9153,
      "goons": 9154,
      "attraction": 9155,
      "flexing": 9156,
      "righteousness": 9157,
      "hottest": 9158,
      "##ization": 9159,
      "rumble": 9160,
      "meek": 9161,
      "##run": 9162,
      "upstairs": 9163,
      "paved": 9164,
      "healed": 9165,
      "goddess": 9166,
      "definition": 9167,
      "laced": 9168,
      "lucy": 9169,
      "##bul": 9170,
      "coach": 9171,
      "greener": 9172,
      "newborn": 9173,
      "freight": 9174,
      "##din": 9175,
      "hipp": 9176,
      "overnight": 9177,
      "towns": 9178,
      "rig": 9179,
      "yellin": 9180,
      "ky": 9181,
      "neath": 9182,
      "discovered": 9183,
      "behavior": 9184,
      "necklace": 9185,
      "chu": 9186,
      "tickets": 9187,
      "reaper": 9188,
      "swish": 9189,
      "seize": 9190,
      "hustling": 9191,
      "likely": 9192,
      "partic": 9193,
      "gloom": 9194,
      "official": 9195,
      "##pting": 9196,
      "suh": 9197,
      "gamble": 9198,
      "##ov": 9199,
      "##eem": 9200,
      "cany": 9201,
      "ropes": 9202,
      "sling": 9203,
      "##kyo": 9204,
      "##yyyy": 9205,
      "sig": 9206,
      "wal": 9207,
      "peas": 9208,
      "jukebox": 9209,
      "kent": 9210,
      "##이": 9211,
      "flown": 9212,
      "obsessed": 9213,
      "motivation": 9214,
      "dimension": 9215,
      "messages": 9216,
      "gangstas": 9217,
      "pam": 9218,
      "slumber": 9219,
      "##haust": 9220,
      "adventure": 9221,
      "oya": 9222,
      "angeles": 9223,
      "curve": 9224,
      "dishes": 9225,
      "pilot": 9226,
      "##rant": 9227,
      "##hold": 9228,
      "##rance": 9229,
      "tokyo": 9230,
      "miserable": 9231,
      "##bell": 9232,
      "pains": 9233,
      "acts": 9234,
      "devour": 9235,
      "screamed": 9236,
      "inches": 9237,
      "swoll": 9238,
      "summers": 9239,
      "##ibility": 9240,
      "hypocr": 9241,
      "umm": 9242,
      "toxic": 9243,
      "unra": 9244,
      "messiah": 9245,
      "wiser": 9246,
      "tenderness": 9247,
      "inspired": 9248,
      "gir": 9249,
      "vast": 9250,
      "vap": 9251,
      "treats": 9252,
      "incl": 9253,
      "elevator": 9254,
      "november": 9255,
      "chime": 9256,
      "darkened": 9257,
      "galaxy": 9258,
      "guitars": 9259,
      "##pack": 9260,
      "wastin": 9261,
      "planets": 9262,
      "ker": 9263,
      "slain": 9264,
      "knocks": 9265,
      "chemicals": 9266,
      "##tra": 9267,
      "##imum": 9268,
      "coldest": 9269,
      "compan": 9270,
      "consumed": 9271,
      "loyalty": 9272,
      "desperation": 9273,
      "phrase": 9274,
      "rocked": 9275,
      "flirt": 9276,
      "##osh": 9277,
      "freaking": 9278,
      "remix": 9279,
      "ruler": 9280,
      "##itz": 9281,
      "adren": 9282,
      "urge": 9283,
      "changin": 9284,
      "media": 9285,
      "sean": 9286,
      "breathin": 9287,
      "##iders": 9288,
      "unique": 9289,
      "factory": 9290,
      "alot": 9291,
      "catchin": 9292,
      "mysterious": 9293,
      "##dar": 9294,
      "backwood": 9295,
      "carefully": 9296,
      "carnival": 9297,
      "dragged": 9298,
      "clich": 9299,
      "german": 9300,
      "os": 9301,
      "ench": 9302,
      "apologies": 9303,
      "overseas": 9304,
      "jas": 9305,
      "##mate": 9306,
      "##ships": 9307,
      "grape": 9308,
      "greatness": 9309,
      "dil": 9310,
      "ell": 9311,
      "##bar": 9312,
      "liver": 9313,
      "wildest": 9314,
      "para": 9315,
      "dealers": 9316,
      "ruff": 9317,
      "ze": 9318,
      "sta": 9319,
      "##iggy": 9320,
      "boats": 9321,
      "##belie": 9322,
      "options": 9323,
      "han": 9324,
      "##mine": 9325,
      "overth": 9326,
      "recover": 9327,
      "wrecking": 9328,
      "spilled": 9329,
      "##nat": 9330,
      "##father": 9331,
      "##eable": 9332,
      "stacked": 9333,
      "splend": 9334,
      "drawers": 9335,
      "applause": 9336,
      "bod": 9337,
      "tighter": 9338,
      "losers": 9339,
      "irish": 9340,
      "compassion": 9341,
      "##othing": 9342,
      "plains": 9343,
      "brief": 9344,
      "rasta": 9345,
      "##olph": 9346,
      "betty": 9347,
      "dreamers": 9348,
      "exhaust": 9349,
      "stripper": 9350,
      "testify": 9351,
      "evolution": 9352,
      "contag": 9353,
      "shepherd": 9354,
      "biggie": 9355,
      "ridiculous": 9356,
      "likkle": 9357,
      "scoop": 9358,
      "hitch": 9359,
      "whipping": 9360,
      "dignity": 9361,
      "##utions": 9362,
      "##uries": 9363,
      "bog": 9364,
      "partners": 9365,
      "absurd": 9366,
      "danny": 9367,
      "individ": 9368,
      "ais": 9369,
      "##assed": 9370,
      "##oster": 9371,
      "bul": 9372,
      "fond": 9373,
      "unch": 9374,
      "offered": 9375,
      "complaining": 9376,
      "logic": 9377,
      "glea": 9378,
      "homicide": 9379,
      "compares": 9380,
      "merc": 9381,
      "##manuel": 9382,
      "##ᅡᆯ": 9383,
      "##rick": 9384,
      "naive": 9385,
      "acce": 9386,
      "daisy": 9387,
      "thor": 9388,
      "adjust": 9389,
      "marvel": 9390,
      "drought": 9391,
      "lined": 9392,
      "anyhow": 9393,
      "magg": 9394,
      "skyline": 9395,
      "digits": 9396,
      "##rrrr": 9397,
      "rans": 9398,
      "sweetly": 9399,
      "trusting": 9400,
      "invitation": 9401,
      "pointing": 9402,
      "sweating": 9403,
      "muthafucka": 9404,
      "aa": 9405,
      "hallway": 9406,
      "conquered": 9407,
      "mechan": 9408,
      "##okie": 9409,
      "##umblin": 9410,
      "apply": 9411,
      "nineteen": 9412,
      "transform": 9413,
      "rotting": 9414,
      "payin": 9415,
      "retire": 9416,
      "murda": 9417,
      "bour": 9418,
      "yank": 9419,
      "potential": 9420,
      "mhm": 9421,
      "##icidal": 9422,
      "rags": 9423,
      "polite": 9424,
      "deceit": 9425,
      "kl": 9426,
      "brightest": 9427,
      "snowman": 9428,
      "tribe": 9429,
      "bothered": 9430,
      "tack": 9431,
      "inher": 9432,
      "buh": 9433,
      "slugs": 9434,
      "umbrella": 9435,
      "servin": 9436,
      "x3": 9437,
      "##ander": 9438,
      "##sin": 9439,
      "##bach": 9440,
      "doctors": 9441,
      "tainted": 9442,
      "orch": 9443,
      "planning": 9444,
      "answered": 9445,
      "flipped": 9446,
      "ape": 9447,
      "escaping": 9448,
      "ves": 9449,
      "inse": 9450,
      "mona": 9451,
      "apoc": 9452,
      "swagger": 9453,
      "random": 9454,
      "##vie": 9455,
      "##iles": 9456,
      "sucka": 9457,
      "dealin": 9458,
      "warriors": 9459,
      "##sense": 9460,
      "##era": 9461,
      "retreat": 9462,
      "boxes": 9463,
      "luci": 9464,
      "kool": 9465,
      "robber": 9466,
      "eager": 9467,
      "gwan": 9468,
      "pint": 9469,
      "beloved": 9470,
      "undress": 9471,
      "redneck": 9472,
      "ruthless": 9473,
      "spice": 9474,
      "balloon": 9475,
      "creeps": 9476,
      "bankroll": 9477,
      "demands": 9478,
      "eu": 9479,
      "heel": 9480,
      "##ilities": 9481,
      "exalt": 9482,
      "deals": 9483,
      "spiral": 9484,
      "legit": 9485,
      "expand": 9486,
      "baseball": 9487,
      "irre": 9488,
      "eats": 9489,
      "therap": 9490,
      "shred": 9491,
      "hos": 9492,
      "alar": 9493,
      "##ros": 9494,
      "codeine": 9495,
      "exchange": 9496,
      "baba": 9497,
      "##rah": 9498,
      "lac": 9499,
      "elvis": 9500,
      "choppa": 9501,
      "packin": 9502,
      "seventh": 9503,
      "deeds": 9504,
      "##lit": 9505,
      "cocked": 9506,
      "props": 9507,
      "moral": 9508,
      "disappears": 9509,
      "incompl": 9510,
      "pennies": 9511,
      "##bi": 9512,
      "bolt": 9513,
      "##appy": 9514,
      "##rive": 9515,
      "##geon": 9516,
      "spoil": 9517,
      "clarity": 9518,
      "hav": 9519,
      "worm": 9520,
      "slowing": 9521,
      "louisiana": 9522,
      "junkie": 9523,
      "vultures": 9524,
      "rugged": 9525,
      "stable": 9526,
      "polar": 9527,
      "bros": 9528,
      "coaster": 9529,
      "wage": 9530,
      "nav": 9531,
      "freakin": 9532,
      "shaken": 9533,
      "horri": 9534,
      "luv": 9535,
      "stressing": 9536,
      "sleeves": 9537,
      "relentless": 9538,
      "cheddar": 9539,
      "gossip": 9540,
      "##kman": 9541,
[...]
