[PAD]
[UNK]
[CLS]
[SEP]
[MASK]
0
1
2
3
4
5
6
7
8
9
\
a
b
c
d
e
f
g
h
i
j
k
l
m
n
o
p
q
r
s
t
u
v
w
x
y
z
ª
ß
æ
ð
ø
þ
ı
ł
œ
ɔ
ɛ
ʀ
ʹ
ʻ
ʼ
ʿ
ͽ
α
γ
δ
ε
η
θ
ι
κ
λ
μ
ν
ξ
ο
π
ρ
ς
σ
τ
υ
φ
χ
ψ
ω
а
б
в
г
д
е
з
и
к
л
м
н
о
п
р
с
т
у
ф
х
ц
ч
ш
щ
ы
ь
ю
я
є
і
ґ
א
ב
ד
ה
ו
י
ך
ל
ס
ע
ר
ש
ת
ء
ا
ب
ة
ت
ث
ج
ح
خ
د
ذ
ر
ز
س
ش
ص
ض
ط
ع
غ
ـ
ف
ق
ك
ل
م
ن
ه
و
ى
ي
ڨ
अ
आ
क
ख
ग
च
छ
ज
झ
त
द
न
प
ब
म
य
र
ल
श
स
ह
আ
ক
দ
ধ
ন
প
ব
ম
য
র
শ
স
ਓ
அ
உ
எ
ஓ
க
ச
ட
ண
த
ந
ன
ப
ம
ய
ர
ல
ள
അ
ഇ
ഈ
ഓ
ക
ച
ഞ
ട
ണ
ത
ന
പ
ബ
മ
യ
ര
റ
ല
ള
ഴ
വ
ശ
අ
ඉ
ඊ
ක
ට
ත
ද
න
ප
ම
ය
ර
ව
ශ
හ
ᄀ
ᄁ
ᄂ
ᄃ
ᄄ
ᄅ
ᄆ
ᄇ
ᄈ
ᄉ
ᄊ
ᄋ
ᄌ
ᄍ
ᄎ
ᄏ
ᄐ
ᄑ
ᄒ
ᅡ
ᅢ
ᅣ
ᅤ
ᅥ
ᅦ
ᅧ
ᅨ
ᅩ
ᅪ
ᅫ
ᅬ
ᅭ
ᅮ
ᅯ
ᅰ
ᅱ
ᅲ
ᅳ
ᅴ
ᅵ
ᆨ
ᆩ
ᆪ
ᆫ
ᆬ
ᆭ
ᆮ
ᆯ
ᆰ
ᆱ
ᆲ
ᆶ
ᆷ
ᆸ
ᆹ
ᆺ
ᆻ
ᆼ
ᆽ
ᆾ
ᇀ
ᇁ
ᇂ
ሆ
ለ
መ
ም
ሽ
ቆ
ባ
ት
ቺ
ነ
ኔ
ን
ኝ
አ
እ
ከ
ወ
ው
የ
ይ
ደ
ዴ
ጆ
ጣ
ᴅ
ᴏ
々
あ
い
う
え
お
か
き
く
け
こ
さ
し
す
せ
そ
た
ち
っ
つ
て
と
な
に
ぬ
ね
の
は
ひ
ふ
へ
ほ
ま
み
む
め
も
ゃ
や
ょ
よ
ら
り
る
れ
ろ
わ
を
ん
ア
ィ
イ
エ
オ
カ
キ
ク
ケ
コ
シ
ス
タ
チ
ッ
テ
ト
ニ
ノ
ハ
ヒ
フ
ホ
マ
ミ
ム
メ
モ
ャ
ヤ
ュ
ユ
ョ
ラ
リ
ル
レ
ロ
ワ
ン
ー
ㅎ
一
七
上
下
不
世
两
中
为
丽
久
么
乗
九
也
乭
乸
了
予
事
于
互
井
些
享
人
什
今
从
他
付
们
仮
休
伸
但
住
何
你
使
來
供
依
信
俺
倒
候
借
偉
偎
偽
働
像
僕
先
光
入
全
内
再
冒
出
分
切
別
到
刹
刺
刻
力
功
加
动
動
勘
勝
化
十
危
卻
去
友
反
受
变
口
另
只
叫
叹
吃
合
同
名
向
君
含
吹
吻
味
呼
命
和
咲
員
哭
唇
唯
啊
喉
喝
單
嘘
嘴
囚
回
国
園
在
地
坏
城
堂
堕
填
塵
境
壊
处
変
多
夜
够
夢
大
天
太
失
头
奇
奈
奏
女
奴
她
好
如
妈
妞
始
子
存
学
宁
安
定
宜
実
家
寂
密
对
対
射
將
導
小
少
就
尽
届
屑
岁
岸
崩
己
已
巴
巻
帰
年
幽
広
底
废
度
廢
延
开
引
張
強
弾
当
影
待
很
律
後
得
御
微
心
必
忆
忘
快
念
怎
怕
怖
思
性
恍
恐
息
悔
悲
情
惑
惚
惰
想
愁
意
感
愿
慌
慢
慰
憊
憧
憶
懸
成
我
战
戻
所
手
才
打
承
把
抖
抗
折
抜
抮
抯
抰
抱
抽
担
拒
拔
招
挑
挺
捨
掉
掌
探
掴
描
握
摧
撃
撼
收
放
救
敗
散
数
敵
敷
新
方
无
日
早
时
昌
明
星
映
春
是
時
暗
曲
書
會
有
朋
望
朝
期
未
本
朽
束
来
极
果
架
染
栗
梦
森
楼
楽
概
構
様
次
歌
止
正
此
歩
死
残
毀
毎
每
毒
气
気
永
求
汗
沒
没
沸
法
波
泣
活
浮
海
消
淚
深
淵
測
渴
溢
满
潮
潰
激
灌
灰
焉
無
然
爱
物
狂
狙
猛
现
球
甜
生
由
甲
电
男
画
界
疑
疲
病
痛
痺
瘾
登
白
的
皆
目
相
看
真
眠
眼
着
睡
瞬
知
砂
碰
磨
神
祢
离
私
种
秘
種
空
突
窒
立
站
童
笑
笛
算
築
紅
紙
累
終
絕
給
絵
絶
緒
線
繰
终
经
绑
给
继
续
美
老
而
聖
聞
聴
職
肉
肚
肩
肯
背
能
脉
脚
脱
腾
自
致
與
良
色
艶
花
苦
英
药
落
葉
蔓
薦
虹
蜃
蜜
融
行
衍
衝
被
裝
西
要
見
視
覚
觉
解
触
言
記
許
証
試
話
認
誓
語
誠
誰
諦
謂
譲
讓
让
话
诱
说
負
贈
赌
赤
走
起
超
越
跑
跡
路
跳
踊
身
輝
转
轻
辛
辣
过
近
返
这
远
迷
追
退
送
逃
逐
逗
這
通
連
進
遊
過
道
達
違
遠
遥
那
都
酒
醒
里
重
釘
鏡
锅
長
长
閃
間
闇
问
间
防
限
险
陪
際
隠
隣
離
難
雲
震
霊
青
面
靴
音
頌
頑
頭
頹
願
颤
風
飛
食
飾
駆
驭
驾
高
鶴
麗
麻
黑
點
鼓
ﬁ
ﬂ
##m
##e
##n
##i
##t
##a
##r
##k
##w
##h
##l
##u
##4
##0
##o
##d
##s
##c
##p
##2
##y
##f
##v
##b
##1
##5
##g
##j
##ᅡ
##ᄌ
##ᅵ
##ᄅ
##ᅧ
##れ
##る
##っ
##て
##z
##ᅥ
##ᆺ
##ᄋ
##ᄀ
##ᅩ
##ᆫ
##ᅴ
##6
##8
##ᅪ
##ᆻ
##ᄃ
##ᄆ
##ᄉ
##7
##x
##q
##ᆯ
##ᆨ
##ᅬ
##ᅢ
##ᅮ
##ᆰ
##ᅳ
##9
##3
##ᄁ
##ا
##ن
##ᄒ
##е
##ᆼ
##ᄇ
##ᆸ
##ᄂ
##ᅦ
##ん
##た
##ᄄ
##ᄐ
##ᆷ
##ᅭ
##ᅱ
##ᄎ
##ᆭ
##ᇁ
##യ
##ᅣ
##ᄊ
##ε
##ᆹ
##の
##こ
##ろ
##ı
##ᇀ
##ي
##ه
##ᆮ
##م
##ع
##リ
##ス
##モ
##テ
##ル
##う
##ち
##ゃ
##よ
##ᄍ
##ل
##ら
##か
##ᅯ
##ł
##ɛ
##ක
##න
##ව
##ョ
##ン
##ð
##ᄏ
##ᄑ
##ᅲ
##ᆶ
##ʼ
##ᇂ
##な
##い
##ᄈ
##ɔ
##ø
##し
##ょ
##п
##у
##т
##н
##и
##к
##も
##き
##ط
##ر
##ف
##ට
##ま
##と
##に
##ᆾ
##ᆽ
##は
##り
##そ
##ᅫ
##ね
##す
##ω
##ᅨ
##み
##ふ
##わ
##さ
##س
##ア
##ᅤ
##о
##ч
##ല
##ᆲ
##ム
##α
##λ
##ι
##け
##а
##ك
##く
##ح
##γ
##κ
##ο
##イ
##ヤ
##ب
##ت
##ث
##π
##ᆱ
##х
##я
##ز
##へ
##メ
##ロ
##ィ
##ー
##р
##з
##в
##д
##с
##क
##æ
##ش
##ь
##و
##ß
##د
##ホ
##ク
##ട
##റ
##र
##ة
##ニ
##せ
##ص
##ト
##ይ
##ത
##ম
##ש
##ר
##י
##র
##ء
##え
##ヒ
##ュ
##ذ
##خ
##ミ
##स
##お
##ノ
##ட
##キ
##þ
##ﬁ
##ज
##ほ
##ρ
##δ
##ς
##л
##ᴏ
##ʀ
##ᴅ
##υ
##ᆩ
##を
##ல
##ق
##ന
##マ
##ッ
##ـ
##є
##ᆬ
##む
##м
##ᅰ
##ワ
##フ
##ക
##ラ
##コ
##ו
##च
##つ
##ኝ
##ሽ
##ണ
##മ
##ª
##ඊ
##η
##あ
##ን
##ጆ
##σ
##ኔ
##ш
##ʹ
##ج
##ض
##シ
##タ
##የ
##ት
##ர
##த
##θ
##ю
##τ
##や
##ख
##め
##œ
##ы
##ண
##ハ
##і
##ц
##ケ
##ද
##ぬ
##प
##न
##প
##ন
##φ
##ν
##ᆪ
##ለ
##ャ
##ת
##б
##غ
##द
##ப
##г
##ቺ
##ى
##ጣ
##ደ
##ም
##ነ
##ள
##ള
##ধ
##म
##ත
##ര
##μ
##ψ
##ल
##ዴ
##ባ
##ڨ
##ґ
##ன
##ප
th
##ou
##in
the
you
##er
##nd
##ing
##on
##ll
##at
to
##re
##an
##ow
and
##ea
##ve
##or
it
##me
##ee
me
##it
##st
wh
##ay
##ke
in
##ot
my
##gh
on
be
##se
##ut
li
##es
##et
we
of
##ver
that
##is
st
so
##en
##ck
##ar
lo
##ld
##ght
sh
your
##ed
##id
##as
go
##le
for
all
##ight
re
is
kn
ba
ha
##ch
don
can
##ith
##om
##ake
##ill
##ce
with
##ust
know
##ear
ca
do
like
##ur
love
but
up
no
##ere
this
##ir
co
got
just
what
wan
##od
oh
he
get
##th
ch
tr
when
##one
ne
##al
ho
##un
ti
##ly
##na
ever
not
fr
##ould
##ad
##own
out
see
now
##ind
##ain
ll
some
an
they
##ore
##ie
##ig
if
she
##am
al
fee
time
##ong
down
##rou
was
wor
sa
let
##use
as
##ion
fa
every
bl
##way
pl
##ro
hear
one
##ic
are
##ra
there
yea
feel
never
want
ve
##ive
come
yeah
##eep
##ide
say
rea
##ter
##by
will
##ok
from
make
##ell
at
##out
##fe
have
##il
back
##pp
la
ro
##nt
take
cause
##her
##uck
way
##eed
baby
##ine
##ink
who
##een
##us
sp
man
wa
cl
##ge
##op
de
her
##um
##ri
how
##thing
##ess
day
gon
need
##ead
ain
hi
mo
##igg
##ct
could
life
here
heart
wanna
tell
ab
##urn
right
look
bo
been
##ody
##ak
##ame
##art
##irl
##ol
##ry
nigg
night
girl
think
where
##alk
##ate
away
##ers
gonna
keep
good
br
our
sl
##round
##itt
thing
by
##ard
or
##ound
su
##and
more
##ue
fl
give
##nder
##pe
ag
di
try
bre
am
##ent
##ose
##ving
##rough
through
too
##ven
##lly
fuck
##other
about
sw
ey
us
##ang
##ta
##ick
then
com
won
run
##ream
##hing
over
only
again
world
bet
##nds
them
would
##lf
se
bit
still
##ss
call
##body
why
##ft
any
said
lea
##ul
le
long
dr
off
did
im
light
em
##oh
##ittle
thou
around
little
well
mind
##ack
fall
##sed
hold
had
con
home
his
##ree
##wn
##ath
##atch
##ade
##to
eyes
##row
turn
sc
##im
##ure
sm
##ways
these
than
were
find
##ance
bel
wait
wo
always
##ies
##ning
##ile
##ast
##iss
##ble
nothing
fo
##ise
dream
##ked
pr
head
tw
##ace
fi
nigga
shit
##side
live
play
en
bitch
##be
##oney
put
sk
##ull
pre
##ty
##ation
##ff
##self
stay
better
##ip
god
ya
into
po
everything
##ist
hey
high
things
wr
real
##ish
gotta
ra
new
mu
hard
leave
even
##ice
boy
##ber
show
him
talk
##our
##red
##ite
##ity
ma
gu
na
sun
sing
da
ex
something
##get
under
may
##ant
should
ooh
gone
walk
##ord
##ting
ton
belie
##ark
really
stop
##fore
str
break
before
start
##ild
pe
##ass
##ough
##day
niggas
much
frie
sou
##eet
end
un
made
gl
money
alone
going
tonight
believe
##ds
its
##ca
ah
old
##el
pro
watch
##ms
##co
left
stand
name
##ous
cra
face
##dy
##ange
pa
bu
peop
af
another
ar
people
car
qu
feeling
##ease
last
same
##orn
##ears
hand
thought
##ment
stre
gre
inside
##ood
bad
##ps
roll
part
place
burn
lost
##all
##est
hea
work
happ
##pt
song
free
bro
fore
##ther
##ah
##per
##ful
##ew
their
soul
fire
has
star
move
two
bring
##ime
##oo
kill
##ag
rock
cry
own
care
##ount
##ng
die
hit
##ock
done
while
without
might
wrong
##vin
pain
please
mean
##ze
big
hope
mine
hands
##ory
gr
##pl
gra
sleep
coming
lord
##mber
far
##are
cr
##aking
change
##ness
##ug
##ater
side
dis
fight
bea
##zy
##ts
beat
enough
myself
##less
##ather
war
dark
hell
ri
##ash
##here
other
##pen
rain
reme
##os
yo
everybody
##ied
close
##ling
black
broke
miss
days
came
dont
beca
##eak
##ac
because
sin
told
##time
dance
##irst
##atter
forever
##oth
hur
maybe
true
cold
##ence
##sh
##em
##ach
looking
remember
wind
mi
##les
##ave
hel
best
jo
fun
unt
open
##ump
sky
set
young
wish
sho
body
##ush
fly
sound
does
##ci
those
ear
##ouch
mother
##ud
##qu
found
sweet
street
##uh
yes
waiting
dead
door
first
des
##ne
##ught
list
breath
el
someone
bout
##eal
##ict
game
deep
pull
ride
##son
words
##rist
didn
##gether
used
getting
mor
together
beg
ad
ass
##ign
pret
uh
touch
##ouse
wonder
kind
sur
help
##end
ph
##ans
must
round
living
##mer
##ub
after
friends
fre
##ction
slow
dro
dem
until
nobody
comes
ta
mar
##right
per
##uth
whole
trying
listen
cont
crazy
knew
flo
##anc
many
##llow
sure
ask
beh
##pped
alright
seen
ste
town
che
blood
dam
##ott
tre
blue
til
##age
##ort
forget
kiss
ready
lose
##xt
drink
once
friend
road
lot
times
dreams
si
running
save
##ady
##cked
till
##oke
took
##mor
late
though
##where
##ses
count
lay
heaven
matter
sn
##ery
morning
##ma
city
blow
hot
fin
goes
christ
house
sea
yourself
mus
beaut
red
line
hate
##ffer
king
pray
sometime
child
low
underst
##ama
##asy
kid
##ally
##ph
fool
##ppin
cut
else
win
lie
##hh
alive
strong
heard
ac
##ove
##pping
behind
stra
makes
lone
ground
pass
##ever
aw
##tin
##ross
anything
sometimes
truth
##ions
damn
understand
lear
music
water
wall
##ny
##ated
mon
white
today
shake
gi
rest
somebody
ap
guess
##ia
next
grow
broken
gold
fine
follow
##ap
##ane
girls
vo
flow
cu
throw
bed
falling
sil
##umb
moon
party
gun
te
air
##ings
##ple
##ost
room
##ves
act
##fuck
smile
knows
wake
##ab
saw
reason
fast
ay
fucking
##come
##ying
##ank
years
feels
##ire
cho
sor
thinking
##vil
prom
wanted
whoa
went
lights
top
fear
cri
##ung
wom
feet
hang
res
lonely
ill
full
happy
##ress
wast
##ls
dri
happen
learn
speak
shot
easy
pay
sit
##ones
past
gave
fill
##iful
since
jes
woman
sum
ke
##ons
ok
##oud
##unk
along
##mm
##ains
moment
dar
soon
arms
death
floor
stars
beautiful
pretty
##iz
jesus
hide
tried
shine
pow
##itch
catch
each
doing
couldn
differ
##led
word
hurt
dou
rem
lies
contro
##ating
chance
min
rel
ange
bar
making
born
danc
cool
chang
pea
drop
straight
cre
##if
##lin
##fect
##int
##uss
rid
mad
tears
wild
check
lau
goodby
bitches
scream
reach
forg
mama
being
##ces
hop
three
##ily
##mas
##cho
##ys
everyone
meet
fam
seems
##gg
mid
lead
dad
talking
##ors
bott
lover
laugh
smoke
ball
sat
bir
trust
##hy
drive
bra
motherfuck
dra
dir
step
brother
bright
par
##ious
skin
goodbye
tryna
control
worth
##orm
fel
boys
tea
earth
mist
##ket
apart
pick
land
christmas
##og
gh
son
summer
##bo
sad
##ared
##ont
##more
##ret
##light
met
peace
great
##ines
eye
rise
mill
sick
mess
jump
##ween
kick
##ize
between
pie
promise
bur
tight
##ren
##ows
youre
col
##der
wear
blind
use
gets
rhy
sign
breathe
app
above
such
power
comp
honey
cha
##uff
mer
dec
most
thank
felt
goin
pop
shoot
begin
taking
tomor
hair
##up
##outh
tomorrow
shad
trou
different
clear
walking
##man
##ues
upon
##raid
both
plan
fell
calling
cur
very
tired
year
ser
##ich
##az
conf
caught
bou
mouth
doesn
sorry
holding
mis
ring
loved
##gn
wouldn
afraid
##men
river
yet
knee
anymore
##eek
##pect
faith
vi
##ute
streets
half
loving
cal
hearts
##aw
burning
##ary
perfect
##ond
cou
standing
dog
loud
okay
gettin
##oked
four
fu
hum
started
yours
spend
##dle
ten
es
bus
says
los
que
push
front
##not
fuckin
voice
seem
sen
##ats
##att
saying
##vy
emp
sec
takes
##hin
tast
phone
pri
mil
##sw
tear
woah
bang
men
##ife
sex
carry
##ward
ins
##io
pict
nothin
wit
##akin
kids
chor
less
cant
cle
pra
babe
mom
chorus
picture
send
eat
swear
##cy
##ssed
##ect
father
luck
oo
nice
thr
turned
hour
##ready
whatever
clos
already
build
near
wasn
cross
ones
##nin
##its
sim
##earch
##ert
moving
int
seco
story
singing
rec
reg
devil
comin
answ
hoes
outside
search
tra
##bb
sy
gang
dest
nah
lookin
green
bull
supp
lady
hall
##ills
which
doll
##ier
stick
mir
fing
wants
whis
##und
holy
##iness
##ical
hat
##anger
called
##bt
sitt
##igh
lips
##ars
lives
dist
rich
nights
mount
inst
become
blame
##med
daddy
ret
known
##ner
leaving
imp
empty
sto
##unt
puss
knock
lift
giving
block
cannot
read
cuz
train
belong
id
dancing
club
ways
##ugg
meant
dear
mag
finally
playing
##ins
##den
fut
higher
watching
dre
##land
ref
scared
hom
rap
##chool
thats
worry
huh
million
somewhere
##aa
diam
##vi
corn
shin
##neath
##able
cover
sell
##sand
##oc
proble
##ition
snow
suck
school
buy
##ult
att
doo
five
pussy
har
dick
squ
compl
keeps
knees
darling
expl
stri
##als
##ian
##umber
##ible
feelin
sight
future
##cket
against
second
taste
##bs
##eel
joy
deal
##ots
ghost
thousand
char
across
brain
pol
spir
##ude
##ised
glory
ty
stuck
super
ind
clean
bleed
rad
oce
children
lil
rep
trouble
bag
ce
shout
##ations
talkin
##iling
darkness
warm
coll
pur
dirty
hund
ooo
tri
yuh
track
bust
sold
quick
hundred
##alked
hor
boom
quest
family
isn
ed
hood
space
flame
vis
##ric
mur
six
##akes
waste
angel
##ned
closer
##my
ver
crack
spin
ele
sty
self
crow
tryin
point
shall
##amp
##iver
##ene
mem
window
ice
##eas
thoughts
fad
safe
smok
den
comm
##vor
rather
pretend
walls
praise
drown
write
mel
bell
hid
loves
##nce
nowhere
weak
shut
sol
livin
everywhere
##ison
##ced
##ster
fade
telling
##ror
pen
everyday
##ates
minute
shame
number
freak
ive
cloth
##br
cons
##key
cir
storm
changed
pack
mot
breaking
aint
looks
##ield
doin
##ming
guy
leg
drug
wide
##icked
##ips
##night
hung
mr
doubt
grace
fact
##erve
songs
##king
alm
memor
circ
losing
wine
dying
##aster
crying
##ote
##osed
working
pour
ocean
clou
paper
answer
cash
stone
eh
within
forgive
small
##yal
middle
##ilt
prob
##of
##ably
pers
san
##cial
##thin
awake
del
turning
tree
pat
shoes
add
gim
##enty
cla
fig
needs
dope
bones
clothes
ru
dreaming
spr
sal
looked
fake
jack
anyone
tor
lovin
fucked
##mes
##air
miles
tee
memories
##unch
##ried
country
mic
##sel
spirit
inf
sense
nat
runnin
heat
##app
swe
hy
##ru
wash
##ork
##une
week
rev
means
few
lad
##ising
single
##ger
heavy
neck
probably
walked
human
##rie
bom
cand
def
couple
##rew
longer
##rought
style
esca
je
spe
chill
##min
queen
press
teach
dust
share
figure
somethin
law
grave
radio
drunk
ob
bless
clouds
tong
sand
funk
tem
glass
strange
##cept
soft
treat
hello
lets
##iv
##mit
clim
twist
dig
piece
bow
glad
sink
##iet
ter
someday
##ete
sitting
##aces
##00
funny
##ony
choose
crowd
sent
##zz
weed
winter
none
ahead
##ils
exc
band
##eric
##pper
west
feelings
yell
nor
##read
kept
murder
state
##rise
ash
shining
gimme
##cks
record
##lo
mma
##how
almost
##ana
sist
##igger
raise
held
ign
magic
##ken
dry
south
freed
corner
##elu
lines
##mb
silence
##ib
gen
imag
brand
ju
blues
##iew
##irt
americ
##ets
ohh
und
book
died
gro
##ards
hole
wel
sme
rolling
angels
##oy
lying
##attle
trip
##ester
##ices
dawn
swing
##ution
enem
foot
fix
poor
##shine
cro
oooh
disapp
fair
memory
##nday
return
theres
trees
paid
##vel
pas
brought
anyway
joh
spot
weight
cour
kinda
missing
climb
evil
chain
smell
women
paint
freedom
bottom
fighting
mountain
##ial
##ks
fat
hust
vict
clock
sleeping
##te
welcome
##ughter
john
feed
##ome
killing
wings
##ual
simple
grand
conc
mmm
sug
secret
trave
pride
needed
##sent
bare
wave
##cha
bound
fail
surv
survive
loose
jud
outta
bill
bey
cor
##ants
wra
slowly
ends
spent
seven
chas
##vent
dress
bye
lean
##old
##roud
learned
ow
having
favor
##jah
test
swim
inv
##amed
path
bri
##ey
yester
##amb
chest
somehow
wis
yesterday
cast
##tern
hallelu
rul
sub
craw
fresh
##cing
tongue
least
given
desire
double
wife
##ging
##cc
remind
##onest
cup
##onds
hanging
escape
div
person
##ron
type
##line
box
thinkin
instead
##ither
##selves
grind
bottle
job
kis
heal
##ha
##cri
short
beyond
honest
supposed
pos
hurts
mercy
fit
diamonds
steal
park
stup
##under
leaves
##frie
streng
strength
rollin
art
##ters
proud
sunshine
hallelujah
med
ago
cree
danger
inc
draw
##ved
scene
##ase
verse
##dom
bought
grab
##ail
motherfucker
##eap
haven
stupid
whisper
nuh
searching
ran
gri
##ized
acc
spit
drum
golden
skies
played
quiet
view
key
##vers
trick
dumb
mach
spl
bird
##ides
mirror
##la
shadows
##cious
turns
rhyth
nine
wont
stuff
special
##atic
##isf
brown
emb
##que
mas
sayin
quit
riding
shadow
anybody
##rets
problem
bee
quite
cat
realize
viol
blo
##ief
starts
chick
later
business
load
filled
##imp
dep
lock
gas
screaming
bank
class
##iday
wee
##ures
dirt
wet
##ges
##iny
eight
surp
rom
case
beauty
brid
beneath
tall
news
crew
satisf
##used
happened
##room
fol
built
asked
silver
knowing
lucky
harder
hoping
makin
dollar
wood
hours
rhythm
taken
question
ayy
places
ext
##act
woo
fur
rose
##ored
fingers
stare
ladies
numb
##ina
ye
##ird
field
gent
battle
driving
pound
sounds
waves
bear
pieces
fle
twenty
price
##aint
buck
homie
respect
##gu
fe
ev
insane
guns
weather
momma
gyal
##athing
comf
##friend
mix
sail
hip
mod
repe
bone
bend
spark
deserve
faces
teeth
suffer
fate
sli
edge
games
hill
spread
switch
lit
tough
##ppers
rush
##ience
beside
pot
##ens
sweat
sister
trap
inn
##kets
midnight
stack
whip
mary
##oon
##ics
sugar
explain
hero
grown
##ator
glow
lovers
speed
##ushing
locked
falls
##esh
mov
##ention
##ches
boss
##leep
ben
team
season
twice
age
chic
flying
sha
asleep
##eels
inna
boot
drinking
stead
birth
wre
##essed
stronger
aye
cars
wasted
##cle
amaz
rules
cow
gal
##ient
##dd
rub
york
ment
exp
##ined
silent
favorite
regret
chains
chase
prove
sorrow
slip
woke
bells
anywhere
keeping
##uel
##ject
race
east
ly
pump
drag
eng
jam
lu
##iting
##aked
drugs
asking
color
moves
truck
hoo
arm
##ashing
surre
cook
wrote
finger
atta
heads
cele
er
##bel
##ike
sett
bum
##etto
pon
oth
ohhh
chasing
seeing
breathing
##town
##odies
##mp
worst
smoking
bomb
early
##ments
flesh
master
##ident
crown
mistake
underneath
drift
beats
pocket
##set
lick
capt
laid
shaw
coast
##ship
others
##wards
whenever
chur
##erg
strugg
##ney
expect
aut
##ctor
crash
exist
##res
lately
cy
##che
##sta
sunday
pill
cos
shots
bass
growing
calif
##ax
thug
rising
vision
pleas
swall
tv
##ode
emot
##fu
parad
##ale
##ited
birds
##uts
californ
mc
##ched
rob
mistakes
problems
lou
cop
##otten
neigh
##sy
below
10
savi
rhyme
creep
dat
bitter
celebr
##va
store
ghetto
disc
playin
##ching
fame
cried
neighb
wi
listening
dj
shawty
bump
inter
staring
aff
youth
pap
thunder
brothers
##bles
dire
thang
cost
scr
sud
bree
hes
bounce
saved
wondering
letting
cru
surrender
california
##usion
pal
eas
spoke
##phone
bite
##kin
stranger
holl
beating
##ler
plans
merry
laughing
lovely
unf
pum
stor
bigger
church
minds
calm
pimp
finish
changing
pulled
gift
surround
pressure
anim
wherever
guys
swallow
rum
steady
##wood
const
##ground
deeper
sudden
santa
hon
##ually
hist
mark
wheel
##ertain
seat
disappear
shore
crime
jah
ship
innoc
##fl
brings
##uce
diamond
hiding
reality
##go
movin
champ
ol
souls
##ray
distance
##oooo
lived
defe
pan
stage
ge
machine
food
smil
destro
reco
complete
police
tick
fed
plus
flip
doors
##any
fears
dey
endless
##mon
flash
blessed
choice
chose
boo
paradise
folks
calls
coff
wonderful
##ten
worse
rough
killed
##iff
cloud
fish
det
syst
stood
ridin
attention
sexy
tele
either
##de
##atin
older
taught
##ities
##ination
voices
##ctions
enter
cig
dum
##race
noise
spell
prin
enemy
flowers
refle
fallen
judge
dev
mighty
month
guit
##ider
hol
addict
##illy
hun
trans
history
legs
##ety
shoulder
beginning
wander
spinning
table
wound
shar
bread
yellow
passed
breaks
tu
takin
sna
hook
evening
##olog
myst
claim
repeat
stom
du
ourselves
pet
shouldn
fant
##ckets
##ceive
wrist
walkin
pure
sle
knife
adv
foc
handle
dare
beer
flames
join
##ision
##boy
closed
deny
highway
remain
bodies
wicked
opp
raised
spring
missed
poison
##sence
etern
bridge
##gin
##iest
##itten
fro
gener
##let
##ided
bec
haters
##aze
clap
cell
waitin
stress
prot
mam
shows
dy
whats
hmm
morn
cond
elect
letter
match
cap
ner
post
hungry
##ley
##jo
grey
slide
shor
fift
acting
revol
bullet
##gr
breeze
liqu
passion
thee
smokin
imagine
kitch
joke
##ift
din
flight
gives
repl
tur
beast
forgot
horse
candy
##ky
faster
north
tune
##aret
##itting
system
fan
beach
burned
prayer
starting
thro
rockin
lung
pres
##ances
sittin
boat
passing
gentle
##ealous
secrets
van
thrill
##ern
final
fort
yah
force
grass
rip
destroy
ahh
form
signs
message
happiness
certain
flex
nose
##ged
booty
##pend
kitchen
bor
cent
lif
nation
harm
scars
desp
excuse
hurry
naked
barely
##ured
tender
weeke
pictures
disco
amazing
movie
jealous
thin
funky
watched
##afuck
##ify
burns
tied
##zen
pu
bay
veins
grew
wol
blast
building
##ii
cops
prison
digg
slave
aim
##par
bud
cock
##ries
butter
bury
runs
crush
satur
punk
glor
blowing
fools
imma
course
meaning
happens
##itty
##pes
doctor
wishing
groove
est
offer
godd
ham
preach
fault
moonlight
##uc
conne
##ained
strike
butt
busy
gather
fist
ending
##ba
era
ven
scre
cares
mountains
colors
##cted
settle
motherfuckin
jail
##ether
attack
fading
guitar
##val
comfort
20
##rr
ent
demons
ble
reasons
cas
##ssible
jew
wasting
zone
fallin
roof
##kest
fil
dough
exact
seek
shirt
ban
##umble
thick
ears
island
ease
gard
stopped
##xic
bother
headed
unk
ant
america
tide
##rent
wreck
jer
whiskey
onto
##ik
savior
tru
jeans
unless
##aine
suit
mirac
hits
tip
cigaret
foreign
wearing
order
##ular
rocks
forgotten
stole
youll
cher
uns
pin
steel
waited
por
saturday
guide
surprise
hoe
bath
stayed
bullsh
motion
##bre
scar
shaking
torn
windows
pulling
kingdom
##ole
##bble
page
echo
keys
row
counting
##wind
thanks
buried
nature
val
forward
dressed
lungs
decide
callin
bon
rule
american
##ball
vall
boog
ang
lane
brave
victim
design
rhymes
##aker
threw
mud
sheet
##attered
bleeding
moved
difference
##hood
dollars
##els
hustle
tat
precious
reign
##aged
holly
##ittin
##hhhh
tex
daughter
##itude
bal
poppin
notice
##cess
faded
##utes
raw
univer
ought
##ealing
gangsta
##ops
mm
girlfriend
homies
darlin
sacri
##ingle
##atest
##ppy
thy
killer
romance
##ural
adore
situ
kissed
promised
bars
base
worship
admit
chicken
##ives
surf
misery
hollow
greatest
##da
##oned
hyp
answers
fever
bands
mood
##quer
bas
questions
##beat
promises
steps
dude
friday
##ption
recogn
mission
bullshit
weekend
##vation
shes
dime
##fully
desper
among
written
desert
plane
changes
likes
smiling
suddenly
youve
soldier
stories
ug
pants
showed
exactly
wise
bru
convers
psy
crawl
##cci
garden
tellin
##sion
rainb
broad
flag
##ners
action
arr
sinking
dangerous
rappers
maj
##ified
ling
##mare
relax
ashes
resist
pist
bringing
##ital
chee
dogs
wat
hen
haunt
##uit
shell
tow
throat
protect
whether
sacrif
names
curse
roses
nightmare
strang
clown
tie
liquor
motherfuckers
fou
waking
cries
embrace
##gest
givin
swee
grows
hills
shed
19
prep
diss
struggle
##joy
quar
tells
cheap
##ique
aren
main
fal
begun
prod
sip
pleasure
mystery
further
##ja
destiny
melody
worried
##ka
##etime
gucci
began
grip
##ili
drowning
prof
energ
reaching
begins
spill
separ
mornin
kisses
weap
nin
deliver
fold
scratch
circle
##oid
##con
pushing
disgu
surely
##ature
coffee
wanting
glo
cruel
##lic
shorty
##airs
rings
workin
bottles
begging
##ffic
praying
present
writing
confess
equ
goddam
weh
##down
pistol
tun
##back
company
divine
cream
kings
shines
holds
##away
duck
lust
succ
wrapped
flood
extra
forth
stro
wire
sees
enjoy
card
seemed
lim
frame
trapped
trippin
fantasy
ray
vir
ast
buzz
lamb
fie
underground
purp
##wh
truly
##aly
troubles
##ero
except
##fer
##ury
sla
dee
covered
emotion
smash
ris
##icide
sins
enemies
release
split
boogie
loc
dip
##thern
##ache
##ste
chair
float
toes
smo
mal
boots
##uu
floating
blows
guard
shy
hab
lightning
ugly
lifetime
often
constant
gar
click
non
led
faithful
rage
travel
wheels
##ix
##vous
dropped
dece
beef
celebrate
mile
satisfied
twisted
sam
dancin
##ga
treas
putting
jour
##cer
punch
serious
swag
cake
presence
sneak
lip
energy
johnny
throne
##bies
limit
stret
drinkin
lack
medic
ignore
cheek
squee
hardly
dom
wer
bags
level
contin
##ression
serve
whose
vac
ir
plain
geor
jingle
##anted
opened
minutes
valley
##idence
crib
##fection
gods
stones
fla
moments
jim
##yy
sheets
shape
pub
monster
revolution
liar
pockets
rent
plenty
metal
phot
##ites
focus
glock
became
unkn
pills
melt
rocking
heartbeat
sus
terri
mac
electric
sang
darkest
cryin
planet
tracks
ur
frozen
unc
hopes
pink
date
##ids
##ancy
gain
rack
motherfucking
situation
blunt
shade
##tain
tang
goddamn
##umbling
horn
##ense
finding
lied
100
wrap
warning
ceiling
sir
gray
owe
vibe
matters
brick
thinks
stud
##bby
camer
shel
lots
mass
tal
singin
##ades
neighbor
smooth
seh
##gs
purple
jung
patient
goodnight
##iers
disguise
nast
ann
leavin
sippin
plug
unknown
animal
unl
drank
coke
married
wow
##iction
vain
weep
throwing
fields
cats
##tes
pig
bedroom
holdin
hollywood
##ala
lesson
staying
laying
direction
ry
##raph
##so
##head
circles
eating
bricks
bent
40
muth
##ope
undone
coc
##inary
ord
innocent
holiday
##iding
note
fash
willing
drama
able
##astic
silly
##pin
dies
kno
shooting
sens
happening
##though
famous
pool
learning
sigh
plays
thre
##thy
sunny
screw
##ume
##sess
confused
##ada
tar
##icated
roam
blowin
thirst
pi
stream
screen
accept
hammer
miracle
priv
##ality
complain
stands
disease
iron
relig
everytime
stops
tha
walks
##lt
dub
gut
nasty
##ility
rainbow
shoulders
deh
yard
trash
puff
vill
touched
although
jet
flat
##irty
tempt
towards
birthday
##ita
repre
50
benz
lar
witness
believing
bills
purpose
greed
##table
##agne
trigger
ima
allow
coat
universe
smart
shop
cad
texas
remains
##iled
winds
common
hangin
weren
##ann
##ians
##itate
candle
lion
30
bop
resc
peep
lones
tech
lonesome
washed
ours
##cent
##eared
burnin
x2
##pers
proof
sacrifice
hopeless
foolish
##liness
kissing
##vern
gy
abs
##ium
##ative
jungle
##ired
##ically
player
mister
cards
dan
victory
champagne
chances
brighter
ballin
lang
##bed
square
strangers
worthy
##ished
violence
army
##iced
bat
av
##ering
louder
##ping
trunk
cure
natural
##rage
desperate
impo
tail
##ered
##call
flows
##uct
neg
represent
station
apolog
daw
watchin
sings
##aaaa
bloody
fashion
##arm
drove
sch
guil
speaking
##lon
colour
sav
juice
downtown
bi
journey
chem
alb
aside
patience
nut
quarter
wah
##ica
blew
reck
addicted
recognize
shelter
fifty
lazy
simp
thirty
roads
months
piss
guilty
##mo
waters
joe
##gue
finna
rot
hotel
rolled
##born
demon
monkey
cocaine
refuse
mart
magn
strip
##oop
actin
gate
lake
ticket
fli
works
saving
trade
moth
code
conquer
selling
crossed
ting
swimming
daylight
insp
third
squad
tour
heavens
picked
dreamed
ringing
sword
##oming
shift
bullets
yall
##ograph
drinks
##sp
holes
hurting
##ston
toe
flower
nervous
laughter
##aced
12
crashing
bunch
simply
loss
leads
smiles
anytime
##col
hah
tatto
dw
idea
impossible
forty
distant
conversation
##ille
prov
##ris
rapper
toast
rope
##vity
##ledge
sunrise
pear
greater
hidden
monday
collect
burden
pouring
##cif
##bes
stun
shock
##acy
polit
pit
recall
madness
telephone
ooooh
##break
una
weary
pair
wid
wipe
vers
gates
easier
worlds
##ressed
choke
marry
cheese
##cin
mask
##asses
##ara
rust
##illa
ashamed
ignor
sway
anger
##ages
##icious
guar
parent
loaded
##izz
roots
ko
##rest
wolf
eyed
##itation
cage
ec
didnt
dinner
score
destru
dread
##board
##aws
president
sunlight
vol
seas
guarant
himself
rear
carried
sour
witch
believed
mention
louis
ni
eag
slam
stab
hearing
killin
ga
import
dun
sac
dive
##sa
ghosts
erase
havin
careful
##ency
text
papa
suicide
##icate
rat
##we
tony
amb
sober
squeeze
##ndon
rever
flick
whi
chop
##inite
##gan
carol
##erest
tax
tape
deg
##nch
survi
holla
tiny
sunset
trail
false
##ns
showing
autom
##etic
seal
##ped
##tal
##athy
numbers
seed
##cend
uncle
angry
rude
eternity
mexic
##ism
appro
feather
slipping
waan
##alt
comb
apple
arrive
od
##star
flies
worked
leather
govern
bord
gay
##ened
fright
london
##sty
belly
selfish
heels
named
clip
southern
regrets
court
ped
discover
##ari
string
tom
whist
salvation
##unts
imm
healing
stays
lin
mek
##ames
grou
##walk
proc
shades
honor
receive
mack
##bbed
lege
serv
tearing
muthafuck
march
bun
port
bubble
soldiers
##wa
colle
whore
##ract
wisdom
##ints
cen
rebel
slee
easily
jac
fans
breakin
##iliar
rout
##rom
painted
##zed
##fall
uhh
afford
scra
micro
babies
##nes
blink
restless
heavenly
pun
separate
solid
frank
proper
##ino
##yard
##stal
cigarette
bold
##eous
also
board
hella
boyfriend
lotta
##cient
sleigh
records
dogg
reveal
album
ee
occ
letters
balls
hug
plastic
hating
resp
blown
size
spray
hips
atl
tricks
##vid
following
orig
map
sets
drifting
standin
crit
weigh
wedd
closing
##ware
crawling
kar
##vious
command
whine
virgin
suffering
dut
brains
becomes
hush
plate
heartache
knocking
captain
liber
whatcha
##inal
proph
dea
forest
righteous
pillow
waist
role
cred
tort
fought
lame
##form
strings
stat
##gging
##chie
rewind
highest
aftern
bored
pity
compare
##ho
advice
ding
lee
parts
choo
horiz
surpri
##aded
dawg
trace
intent
##rod
ree
ancient
appear
gram
setting
books
##pa
woods
center
grin
kicks
lifted
##por
weapon
hail
scri
sadness
ded
nic
hurric
##gged
softly
reflection
religion
shook
salt
##udes
fortune
rescue
parents
##eral
agree
##rete
figured
rolls
knowledge
mane
shoulda
kicking
##ette
saint
##eased
##itive
chicks
summertime
hunger
daily
wounds
gravity
ber
mend
fades
couch
spoken
raining
##urs
##ences
satan
milk
cult
##box
##ato
weeks
spending
attitude
afric
snap
public
bast
um
freeze
generation
dice
stopping
demand
palm
##sters
##gun
##hhh
##anta
loneliness
rode
bein
doub
##ona
##sec
winning
fancy
rejo
damned
soci
##work
nuts
obs
eternal
buddy
sharp
exper
lyin
##iving
cab
pract
##ring
claus
yay
pale
##zzy
mall
##rel
violent
clue
packed
##house
emotions
nar
##oking
frag
completely
##rate
hatin
wea
pad
snake
upside
##lla
seasons
tool
ram
##gl
charge
burst
tripping
##ists
chosen
##play
##ti
betray
lands
hardest
magaz
pretending
colder
borrow
##gia
cheer
##ooo
warri
langu
jumping
meas
host
mat
meat
private
sons
##cul
behold
##vest
afternoon
important
longing
##antic
talked
sack
pushed
sake
innocence
blade
lull
facts
prince
##ya
##eam
racks
whoo
mob
jumped
tag
treasure
pace
phys
oper
inde
wedding
themselves
##bie
theyre
thrown
sipping
##mental
sides
disg
##using
terror
concrete
##ued
james
liked
picking
cann
##mme
drip
dreamin
familiar
##eart
reached
sever
##zing
success
##ening
ski
camera
##do
weird
sheep
##oms
hypnot
creation
iss
nails
chillin
cuts
blessing
##lights
zero
stomach
sevent
solo
depend
junk
ruin
group
##illac
freaky
chew
##gas
fruit
tit
siren
blaze
dash
glorious
##pless
##miss
major
##psy
medicine
##urb
hurricane
twel
younger
amen
seeds
eve
knocked
finished
consider
cute
crimin
cadillac
aband
spine
heading
##lev
planned
rivers
shiver
overcome
automatic
oooo
toss
kicked
worn
mike
camp
rubber
spo
quickly
alc
habit
##anna
slap
ep
neighborhood
risk
prayers
##itted
create
commun
itself
##eeting
justice
twelve
screams
##pr
##asting
sucker
surprised
shakin
drops
##ific
horses
pul
event
cous
tan
laughed
sort
bam
comfor
ske
sweeter
reckless
turnin
drivin
tone
blur
##nie
ordinary
blaz
stock
digging
using
mental
bible
due
##ham
ali
drums
##rupt
scare
##ral
engine
surface
##ton
interest
##ami
visions
molly
project
pipe
##over
neon
##fast
followed
motor
porch
toy
ef
kickin
worries
bliss
damage
touching
tale
thru
sisters
traffic
##ays
position
elev
sweep
##ggin
##istic
tank
fav
babylon
modern
wore
intern
created
##band
roar
cared
clearly
slept
stretch
empt
wond
bail
leading
norm
hunt
fills
##ohol
government
##ents
honestly
##hile
cowboy
crooked
coun
##pher
##ville
holler
##fly
ou
sweetest
deck
aven
##uring
##dest
flowing
reb
popping
vide
##oe
dwell
##otion
weve
billy
fiend
weal
##rome
ended
backwards
belongs
biggest
##po
stepped
riot
##ipp
reven
language
##ffi
image
racing
jones
mothafuck
drawn
temper
mut
crystal
alcohol
society
beep
descri
danced
##elly
dim
sacred
15
thigh
##olen
confusion
convin
raz
gor
smack
ego
defeat
jane
offic
##azz
missin
24
##esome
##hip
collide
len
brook
keepin
courage
suppose
destruction
mail
shower
georgia
unto
aud
##ram
stairs
nearly
chin
obvious
##stick
height
cherry
et
sending
aware
wed
##ding
overd
deb
legend
##ano
fron
arrow
poet
weakness
##acked
18
##ppa
stoned
college
awhile
sticks
surrounded
##lyn
blinded
slick
paris
flew
illusion
##ees
rare
horizon
cracks
gall
haze
awa
shattered
cali
brush
messed
haffi
playa
threat
panic
seconds
mum
chi
slang
helpless
jewel
fence
##reme
##road
thugs
##sing
decided
spare
##rated
stere
##mos
##ju
11
##ae
##eech
swinging
replace
stolen
##action
breed
prop
model
##no
tattoo
forgiveness
##imate
snitch
thumb
sixt
skip
pages
range
##lling
conta
heroes
egg
##bor
tap
mixed
border
bush
shotgun
##alal
cart
traged
defend
ren
##oured
appre
county
paul
depth
jimmy
##lish
##fire
ecst
plant
##cl
wing
drain
shared
lap
##lem
wack
micha
inch
heartbreak
effect
sting
realized
failed
health
##pet
##aby
frown
instru
rains
##uge
drives
hay
##nam
shoe
personal
hype
dish
bridges
explode
##itions
plead
gat
sellin
nick
puttin
kills
michael
connect
suff
poss
bloom
##olved
teacher
oun
stacks
void
##pel
dah
##umn
##gy
awful
##atures
##nessee
bark
scen
max
rejoice
##itter
hearted
rights
waits
approach
##ior
pis
tennessee
groo
everl
mour
hee
cam
neither
fif
microphone
boun
redee
fir
kush
imagination
fires
##bl
##ishing
ja
tooth
##oph
fairy
choir
awesome
needle
screamin
haunted
ak
tore
satisfy
auth
##dro
##ading
shelf
##ida
halo
shown
pole
ayo
batt
rome
moan
blessings
##nded
visit
savage
roller
phil
loyal
breakfast
bore
preacher
tend
glove
covers
shack
pounds
chat
script
##iter
delight
granted
sinner
pil
unfold
hittin
beam
prepare
sixteen
guts
inner
millions
consci
climbing
hotter
stomp
dudes
despair
pitch
ate
##gress
der
stall
clique
stray
lemme
psych
core
compet
symp
##zzle
marching
oceans
##isible
herself
jama
stu
bike
oil
basement
credit
dump
killa
penny
divide
cigarettes
##roll
naught
obl
guilt
gin
conscience
teena
farm
knockin
jul
talks
##igo
kin
shap
movies
##otton
stepping
pave
troub
swore
sed
prepared
##for
wha
blank
thread
triple
dod
sup
jumpin
dang
jay
##fo
##kened
##urity
runaway
backs
##ago
understood
gaze
sleeve
original
tid
##bird
##he
span
orle
##style
skull
chocol
fer
stir
fem
lam
coupe
disaster
entertain
pard
##bal
##sey
lemon
bombs
homes
##anes
intentions
sche
##oint
##ateful
bid
gee
rail
dial
link
ox
swell
photograph
plot
##ortun
orleans
##otic
shr
##ration
##ado
##hal
og
laws
everlasting
cum
toys
animals
whispers
whistle
tragedy
nerve
thorn
##sses
##inate
greet
humble
##aints
invisible
jord
maker
##icy
fifth
aching
catching
chemical
##cal
cling
goodness
##unting
sailing
chrome
##inis
mari
whom
december
royal
prize
##ww
shinin
hater
coo
cong
##vis
throwin
revenge
ties
##aah
winner
fors
decision
hus
smiled
wandering
ger
hooked
py
stain
spirits
criminal
pee
comprom
log
finds
strapped
##vet
zo
notes
affection
dropping
underw
charm
actually
stumble
infl
reflect
fifteen
zom
sleepin
leader
parking
pulls
cutting
##rewell
mult
flyin
emptiness
21
16
nuff
wolves
fred
grandma
joint
skinny
appreci
pier
##flow
##erk
##ugged
##fied
tower
ripped
introd
social
hatred
autumn
##seng
speech
##uggin
mash
haha
parade
avoid
partner
frost
mommy
##ggy
##ald
aver
fuss
80
doom
express
dyin
chaos
terrible
bob
outl
##case
possess
##aha
##bbin
indeed
sauce
killers
snatch
shady
fellas
harmony
farewell
##dream
large
rick
whoop
freaks
seventeen
lunch
prayed
bathroom
existence
dome
sym
account
vel
gently
rocket
slippin
thirsty
eff
focused
blan
##port
root
neighbors
##isions
conv
slipped
balance
ecstasy
##ication
relation
vibr
fog
##izing
meal
##ius
lasts
filling
french
cheat
aah
hitting
alley
rider
senses
chocolate
wars
techn
pred
askin
##bid
memph
reading
##ec
brooklyn
thief
##uk
oak
daydream
##respect
cousin
##bbing
deadly
possible
cotton
##east
forced
pardon
bond
lullaby
##rors
smoked
possib
pir
##ession
driver
##eg
##je
rainy
##cover
disrespect
ci
anch
charl
opin
tease
funeral
oppos
alarm
creeping
coal
deaf
##phere
whoever
chips
naughty
continue
decay
bind
blah
puts
paying
##vision
wealth
useless
blocks
arise
ole
##core
absol
studio
queens
noticed
couldnt
saints
dove
beware
##cially
bubb
cease
opt
toll
##ighty
belt
wishes
reminis
losin
july
mexico
movement
affair
pic
45
hunn
label
steppin
pimpin
hated
sooner
video
grade
burnt
##oline
##af
bride
memphis
belief
booth
hopin
boring
rabb
##flies
##rect
flashing
##ula
spite
bustin
jigg
##iration
##ila
lower
empire
sweeth
slim
##rain
regg
clever
razor
stereo
rappin
##ini
##sc
mast
almighty
jaw
hesitate
feds
saf
pops
##anny
bobby
phant
sits
grill
constantly
coulda
strap
crucif
cities
##iac
buss
conscious
earn
##field
##ulous
##ughters
##stone
bruise
trump
rapping
mans
naw
shootin
lessons
patter
##isin
culture
thighs
##ception
##uary
##lines
forsake
warrior
understanding
fox
satell
chuck
motiv
psycho
anth
relate
complicated
castle
avenue
chasin
ai
ny
sirens
pissed
upset
tries
insec
biz
warmth
##sequ
facing
confidence
stealing
dreamer
##berry
cruise
debt
rim
clut
leaf
reminds
shove
bowl
##ums
speaks
fet
200
ups
##irts
indust
tangled
##mission
riches
hundreds
princess
##nel
eagle
measure
dealing
meth
frust
jackson
bw
tin
##lest
##ai
##hou
stash
support
champion
ult
bucks
troubled
fab
excited
fra
##hale
daughters
decl
knowin
##aming
purs
shepher
torture
usually
fired
mothers
raps
fights
ink
snakes
pose
anx
temptation
wax
tomb
goal
orange
houses
majest
corners
flu
incred
las
fulf
maint
##lers
##mers
haunting
abuse
forgiven
slaughter
normal
button
despite
##bing
pullin
curtain
##haps
sickness
##gram
wonders
##shot
uptown
loser
unh
##gen
signed
##mi
struck
author
dancer
odds
jar
##inity
##vert
crowded
feeding
##pse
##ker
fantas
lawn
tek
doubts
sore
grateful
curt
static
gentlemen
average
rushing
##sen
deepest
shark
bran
math
needing
glasses
cracked
educ
failure
target
##raction
lawy
revel
meets
counter
##ulate
satisfaction
independ
total
scary
david
##mble
##bey
pant
knight
##aire
##stand
vegas
rast
steam
straw
bug
slay
##empt
perfu
deceive
sleeps
pushin
product
wears
chap
pause
chicago
fount
blunts
eatin
astray
apologize
sow
##rical
platin
physical
science
shiny
sale
helped
bling
painting
tales
##stic
cave
silhou
ounce
faced
raging
jewels
jap
##hem
##rees
passes
##gers
spaces
grain
service
ugh
##ex
jan
##tle
consequ
compromise
practice
##ki
fully
##kind
twil
##load
flavor
platinum
destination
butterfly
gypsy
sidewalk
infinite
chevy
##ora
finest
oughta
jen
##umbled
dot
closet
shallow
##za
mater
##olve
buying
giant
##oved
twilight
##gar
doesnt
##reg
loot
meeting
ax
priest
tiger
remedy
dragon
sweetheart
bastard
june
grabbed
display
english
pip
denied
gamb
hallow
spoon
chilling
cub
##iant
hasn
stitch
cancer
seeking
depart
equal
net
##ulation
wonderland
vibes
vacation
peter
dizzy
##pens
##aches
intell
stayin
impress
washing
blond
cris
checks
##ators
dripping
miami
vin
##oll
##eeee
treated
speakers
soar
##ico
gangster
sung
inform
glowing
guarantee
helps
local
spinnin
dues
rag
##ob
##ompl
fixed
##die
chall
believer
gutter
gots
superstar
becoming
ut
seein
popped
suffoc
rotten
paraly
bruh
##plex
rides
ticking
route
atmos
husband
vag
baddest
grief
powder
united
ninety
breast
resur
ships
lend
feast
barrel
senti
22
tues
plag
vicious
kindness
comfortable
tuesday
devils
##lled
sher
wished
##oker
appreciate
tastes
gan
gras
wishin
bwoy
##tally
jealousy
perfume
##ational
spitting
fulfill
shatter
au
invest
grie
tongues
##iance
listened
sympathy
misunder
sew
excuses
rearr
karma
fragile
magazine
chief
decisions
coffin
safety
cuff
spanish
espe
25
##utter
unst
##cere
papers
eleven
unw
contain
traveling
cough
crad
flee
ache
mes
hosp
teenage
prefer
searchin
##ye
concer
##ule
ditch
##empl
matt
sticky
devotion
deed
##sessed
echoes
perhaps
bah
phase
prime
adm
tables
cursed
depths
jordan
stink
maid
relief
involved
##just
##icip
regular
17
##anged
peaceful
##juana
footste
totally
trop
halfway
brew
fathers
strikes
especially
lur
##mar
lace
mold
doe
pavement
condition
##boys
##ito
slight
storms
amount
##ival
states
rug
necess
phantom
youd
cannon
floss
checking
regard
industry
saviour
trag
rounds
choices
suckers
artist
lipstick
challen
whispering
fucker
crave
competition
candles
atmosphere
ka
slug
##ister
nicke
ahhh
commit
##zi
chopper
##aries
mont
favour
nations
op
you1
vamp
nightmares
ages
prote
droppin
drew
##oma
jacket
##pton
##bon
weapons
vow
shopping
degree
##eer
caused
pile
seats
countin
solve
ohhhh
friendly
##eth
collar
##ently
va
grad
bes
whos
africa
ideas
reggae
accident
gasoline
describe
cust
##ults
layin
mankind
deser
hears
bong
stroke
##chy
dew
obsess
glance
darker
apartment
define
absolute
##imed
positive
connection
civil
tho
batter
allowed
##orts
linger
flaw
players
opportun
prey
envy
showin
wiz
shakes
##laim
incredible
hott
beha
tuck
budd
toward
##ales
curtains
sof
crank
tremb
security
indian
atlanta
fid
neva
stoppin
##ology
shield
reaction
progress
bumpin
fuel
gw
colours
jugg
ros
organ
wigg
##book
mansion
copy
##pro
##whel
inspiration
content
entire
jag
exit
shim
##iot
helping
mississ
ignorance
actions
stained
hump
##ament
rod
##rid
##nda
##ippi
myster
suggest
footsteps
perfectly
victor
fits
##kk
whispered
swallowed
crushed
##11
lighter
nail
charlie
noel
flock
leve
kissin
##isc
mrs
scent
##emption
ale
tim
sinners
eventually
##omy
fightin
rooms
bucket
perman
hustler
soda
handed
warn
##uced
rabbit
lun
driven
invent
socks
##asion
exam
stormy
##ronic
peak
banging
##ura
potent
billion
obey
powers
gear
yeh
reh
##nn
##str
choking
descend
balling
symph
maintain
hound
##cast
overwhel
skirt
superman
ing
##isher
handsome
current
skelet
soil
mississippi
compass
deter
assh
defense
fas
##itary
forgetting
marijuana
bigg
stalk
ace
illum
##mmy
swept
stains
classic
powerful
##senger
##place
crumble
sparks
##ios
filthy
##zer
doc
gotten
worthless
rely
perform
vest
pulse
tame
##seat
sanct
temple
george
##omp
collap
study
##iti
vine
redemption
turnt
##vo
woulda
glist
blac
boulev
ignite
disappoint
ken
##cil
align
foul
ident
sar
realest
##ems
buff
waving
haw
outer
rises
ms
general
velvet
rand
rang
cooking
century
pupp
jerk
anchor
arch
yi
##stairs
monsters
carrying
hospital
mars
parties
jock
skills
yelling
arrived
slice
betta
halls
television
sharing
experience
hu
hou
reply
machines
mand
arrest
tragic
##nde
##itties
sept
coward
##fit
goose
##usions
folk
dug
dong
wonderin
christian
bees
careless
sentence
mirrors
sincere
bangin
roo
grinding
teen
coz
spittin
wrath
sniff
sane
alt
dull
thankful
##rap
romantic
evidence
source
backseat
##entine
survival
majesty
rate
##10
carn
ribb
perfection
abandoned
leap
acid
##quest
dynam
immort
contact
battles
mami
chann
patiently
farther
jokes
diggin
heights
material
horror
marks
domin
throughout
wouldnt
amazed
##olution
drawing
liberty
gifts
proceed
busted
drowned
direct
reverse
thie
dix
##tery
rape
addiction
##anity
prayin
##iano
sights
oxy
zoom
##oun
creatures
pros
chim
unwind
muscle
tunnel
poured
trill
office
##girl
unb
nerves
rats
jamaica
gam
woe
wasnt
laughin
##aka
##while
reigns
##anda
swift
##oodoo
graves
ame
skill
creature
humanity
fists
fiction
sally
##bels
issues
protection
nas
suits
enc
subst
knuck
caress
ooooooo
rocky
argu
fooled
cups
fiends
##very
messing
fourth
stroll
respons
walt
##onne
beggin
circum
guaranteed
emerg
mead
peel
nest
##ola
maze
disappeared
england
circus
wop
gos
clay
instant
dealer
##ender
seren
zombie
advent
##lect
timing
frontin
les
complex
goodbyes
solution
cherish
voodoo
slack
fucks
object
hoped
banks
000
pony
##ench
pac
##cel
cheeks
idol
however
##ivity
ki
bringin
sucking
mh
bluff
tension
teardro
virt
loop
boulevard
exec
amongst
yup
sanity
beck
behavi
kneel
kitty
beth
bentley
##inkle
mort
wounded
##umps
unre
praises
thump
melting
definite
spider
hadn
fanta
##inct
tops
syn
gaz
ramb
twerk
hardcore
ave
ron
##gon
##icted
writ
cus
coin
china
raising
sleepless
percent
wins
honky
imper
ea
##view
lab
subject
narrow
zoo
fountain
bruised
multip
overflow
strain
rollie
reind
lyrical
louie
subt
stressed
##arts
##chin
jewelry
nur
heh
backyard
breakdown
beaten
cradle
##ours
firm
program
##cies
##arr
thangs
hypoc
alab
whirl
##olo
dism
politic
##lend
cham
bron
moms
achie
leaning
creepin
heed
##bers
shooters
tyr
nap
dais
##phones
backst
headlights
fighter
hustlin
pedal
jazz
##oles
oooooh
90
lime
carpet
marty
blazing
reject
pawn
honesty
rif
alien
haul
connected
degrees
tires
diffic
chris
placed
##ples
sixty
fuse
faint
##uction
##ded
france
##car
##ams
section
##uest
shoo
dragging
spotlight
anti
zip
serving
rays
laughs
##inting
sucks
mamma
##iate
##reh
wester
noon
risen
earned
provide
duke
wip
##oner
appla
disgrace
nan
##ember
##isco
##life
stunt
pressed
points
hates
concerned
september
ratt
supply
concern
slips
fooling
satellite
hurtin
designer
fellow
herb
crimes
poetry
market
cocky
sensation
titties
mate
nowad
crumb
trial
struggling
discuss
2x
banana
penn
blinding
address
comput
destroyed
##otch
spar
##bin
##tered
wondered
mouths
jelly
web
wearin
cloudy
scor
legal
symphony
reindeer
porn
strung
miracles
eur
mistlet
199
attempt
cycle
##aur
##ront
blanket
scattered
nowadays
##ati
drill
information
understands
##pie
shouting
scheme
faking
overs
starving
gospel
mistletoe
gid
##cip
glue
stranded
##ining
zion
sooth
##rib
##cible
pounding
habits
##alo
##stood
mellow
flexin
tock
glimp
growin
harlem
dynamite
cd
seams
yep
om
##ih
##ᅳᆫ
panties
14
pumping
tossed
isnt
swang
villain
rims
##rael
raind
awe
dedicated
##proof
kil
rh
meta
##istry
follows
offering
behave
slaves
knives
denial
prisoner
mere
bene
serp
insanity
flippin
invin
whippin
patch
whips
##pple
womb
##prints
rit
lifestyle
jean
butterflies
wu
chip
scale
appet
triump
muthafuckin
piano
##12
supreme
climbed
western
gur
lettin
masses
jun
yonder
tec
##uffle
froze
veil
##umed
##ji
willie
opening
talent
lawyer
pine
##sal
dusty
sleepy
listenin
waterfall
sic
juke
rooft
##ᅡᆫ
petty
tub
whack
demise
pearl
##lock
kinds
nickel
ire
bled
disp
genius
umb
stake
eighteen
booze
emotional
nike
##eah
dixie
paran
hides
trains
beatin
forces
bloss
tumbling
caps
alib
starlight
##iel
clo
prolly
profit
kr
clar
ruby
casket
13
stag
lighting
planes
clubs
ladder
grindin
cookin
triumph
concent
pud
knot
pearls
##ask
mmmm
##semb
tro
react
charac
##mic
##wl
noose
##nally
lifting
jus
jose
##uits
##ores
curious
desires
raindro
vult
dol
curb
vet
explod
anticip
robbed
##olation
thousands
lux
blonde
skate
quietly
venom
maria
sexual
vampire
israel
league
mich
clearer
hunting
exch
baller
gimm
influ
houston
russ
argue
fingert
impro
##ugging
sport
crook
garb
upper
galax
odd
##cise
victims
warned
tempor
sorrows
outlaw
opinion
##kers
gentleman
gathered
cord
howling
agony
infinity
remembering
digital
infect
##cher
rah
career
saves
traveled
difficult
invincible
heartless
hypnotized
paralyzed
ens
spreading
lyric
tryn
tab
lanes
##ipped
tasted
disgust
scenes
misunderstood
toil
crossing
poll
appeal
bapt
chan
incre
dreamt
phra
me1
##ella
contempl
##iah
##bone
refrain
latest
figures
##rog
area
buildings
doh
wayne
potato
shores
horny
wrongs
childhood
opportunity
asshole
cind
guest
greedy
sealed
graveyard
obsc
##rup
cope
sel
shells
##reat
undercover
limits
status
tools
justify
thieves
coco
railroad
rattle
deuce
homeboy
ambition
bethle
##riage
doct
colored
99
tommy
clips
stuntin
carolina
bethlehem
forbid
wallet
miser
posted
projects
declare
swingin
circumst
flaws
outs
gorge
thirt
rud
##wr
compreh
typ
permanent
garbage
jon
vip
##fold
lions
explos
downs
splash
jive
kim
dimen
unp
casual
dimes
ridd
henny
##li
venge
sailor
martin
emergency
kat
wig
##icing
gloria
##gth
chills
bing
##onic
muddy
pigs
##eys
oxygen
tips
contr
internet
##ando
starin
chord
trips
eyel
definitely
steep
believes
tides
yearning
punish
gradu
process
millionaire
accord
lamp
paranoid
cheating
styles
suitcase
lic
chronic
instinct
packing
twisting
weeping
packs
northern
capture
requ
highs
basic
##bra
##ummy
stripes
torch
negative
weave
independent
foes
shits
pickin
##ede
allelu
##chu
saddle
chant
tread
stiff
rover
fella
hmmm
opposite
gig
ot
hometown
african
sideways
wilder
celebration
surrounds
glimpse
##urally
function
consum
kh
wink
##racted
judg
critic
fingertips
##rection
reap
chased
film
abandon
forsaken
##ata
strict
woh
stamp
guessing
globe
glitter
brace
valentine
obsession
sue
aunt
stub
cameras
aust
starry
aqu
tremble
ruined
##lear
bae
remembered
ooooo
##icle
landed
purse
carries
disag
oct
frequ
checkin
feathers
giddy
beans
stove
singer
snoop
wrest
draws
embarr
cath
peek
##tage
redne
resistance
horns
issue
thorns
aaa
pizz
succeed
##esse
liars
##ainted
erased
vent
##utation
brill
forevermore
served
eleph
silhouette
disconne
cooler
##vey
cyan
armor
sweater
muse
nu
ridic
magazines
bart
##itor
emc
defeated
obliv
wass
fearless
judgement
anthem
channel
trappin
divided
##pensive
tint
##mind
##bur
beams
##ux
drippin
besides
neat
fried
aha
embra
##iiii
mourn
remor
spiritual
unkind
betrayed
soaked
sucked
popular
##wide
basket
repent
smells
dozen
symb
sticking
immortal
trad
discip
temperature
fare
ward
##stas
offe
makeup
trembling
##otted
correct
mattress
dus
magical
hunter
jeep
broads
effort
remorse
soak
searched
endlessly
tumble
expensive
##iety
occup
ruth
shak
opens
limbs
##ᅳᆯ
lisa
foundation
trynna
gorgeous
##osing
sails
hangs
##ifest
##friends
nana
##ril
##usive
##ansas
##phor
plague
consume
depression
##iment
blades
##elle
spect
conceal
cud
pors
##arent
mostly
philos
tis
wret
beds
##ahah
humming
aid
condem
##vas
##cedes
relationship
craving
martyr
##nace
manifest
##ended
silk
presents
favourite
##cra
notion
charms
unfor
goals
##rous
destined
borrowed
crap
floors
naturally
frightened
##van
slut
replaced
trance
mock
mode
tucked
adam
shooter
disturb
terrified
chapter
##fish
##acing
alert
##andal
swerve
fatal
sentimental
tits
challenge
asks
jersey
##ena
agg
hym
prophet
icy
messin
intro
option
##aid
duh
##face
cah
slo
loco
failing
spots
##gger
essence
cookie
susp
winding
mortal
brit
settled
vengeance
##lor
##enced
grant
mistaken
clowns
tunes
ine
##the
realise
affect
acqu
jeff
mayne
peoples
##zes
captured
eter
##atchet
pays
##edge
tire
##oted
tramp
background
flor
##orted
spliff
nuttin
freezing
dealt
eighty
routine
undert
rice
allah
##oken
views
signal
##rd
##itution
jobs
confident
quicker
cliff
steer
henness
custom
locks
afar
untr
raindrops
##list
rece
fails
pourin
wednes
aight
inhale
relie
unsp
cit
##ted
screwed
heav
strife
defin
insecure
determin
appetite
umbre
chalk
hennessy
nun
vice
passin
corpor
subl
hunnid
collapse
##roit
ripping
##bound
request
blinds
thurs
trend
superst
capital
alabama
wednesday
wooo
creek
##ota
painful
rac
dab
freeway
thursday
awk
earthqu
vein
intention
symbol
tou
thirteen
ack
##amin
rumors
advanta
dur
shave
friendship
corpse
dor
dign
##lined
anna
amor
crims
gladly
##velop
politics
stair
##chan
plea
duty
convinced
steak
##ucky
homeless
education
rank
##omb
aww
legacy
detroit
swer
glam
palace
replay
taxi
length
##unken
exce
phones
remove
typical
hm
##iqu
##arded
tequ
salute
bait
airpl
mines
ganja
eternally
sounding
minor
temporary
yee
##aman
startin
appears
##anced
survived
bake
princip
##egr
getaway
roy
beard
expected
confession
convince
tidings
crimson
brut
teardrops
awkward
causing
bleeds
verses
disagree
wassup
hazy
chemistry
version
##cles
myth
limb
blea
smith
##pture
slid
limp
gym
36
mild
vu
trucks
franc
alph
spa
chained
pumpin
scarred
keeper
##agram
passenger
exposed
eggs
crunk
kidding
corrupt
tattoos
##rat
diddy
thrills
salty
23
depe
strut
reputation
pours
flipping
nove
abo
liquid
gloves
tonk
patron
cuss
mouse
unseen
##ko
village
comprehend
feeds
##udge
##wise
overtime
cheated
concl
lifes
regardless
cane
bla
willi
trusted
judgment
spins
smilin
ignorant
halloween
grasp
reborn
##aline
alleluia
dried
cin
hank
##icid
photo
bouncing
##piece
##ali
##ican
heres
mercedes
invite
bruk
introduce
##state
wakes
attached
advance
ninet
##zin
member
crushing
schem
##bert
invited
fury
meadow
x4
pacif
paths
authority
intellig
chimney
##now
##uous
##ndo
howl
##oons
##ilar
midst
harvest
delay
pirate
fantastic
##vable
shitty
luc
underwater
##pir
union
sailed
##urd
sliding
poke
fry
twin
fantasies
kite
sock
reward
hal
penet
central
fiddle
bastards
altar
tequila
fishing
wooh
lows
lemonade
depends
steve
ultimate
alice
spy
ari
oy
assass
guap
leaders
football
extreme
lex
busting
##rol
sands
counted
models
shapes
gag
rene
brakes
resting
cyn
cruisin
watches
happenin
##lord
bean
based
muh
april
##sweet
cruising
unco
melodies
bears
geek
##uted
stutter
versace
closest
montana
drunken
hash
##iana
joyful
crowds
ignored
several
gab
##ox
##oning
broadway
advantage
tay
##llas
endure
vod
getcha
stares
dusk
##odle
crumbling
##aaa
blend
absolutely
##met
##hib
neckl
##breaker
cabin
##opp
fling
philly
mothafuckin
stumbling
relent
vacant
romeo
##ua
soap
murdered
stretched
character
##okin
firework
crashed
vanity
puzzle
ras
##zel
plat
repeating
punks
aboard
##inger
##stream
wey
undo
reminisce
puppet
fac
worldwide
sends
masquer
manage
carved
checked
attract
awaken
healthy
impl
willow
intoxic
famil
returned
mcs
necessary
speakin
mickey
termin
liter
instrumental
rainbows
jenny
rearrange
##west
wires
##uuuu
posse
bittersweet
axe
plates
biting
conversations
rifle
##lead
##cus
ohoh
committed
wrists
flav
shirts
heath
##igan
guiding
unite
illeg
torment
robot
branches
pleased
stride
##ploy
prett
revealed
shi
raven
moonshine
reppin
ched
title
ted
ford
strictly
##gie
bench
japan
jaded
method
thus
ruins
robin
vodka
nothings
rodeo
##cap
##ancing
murderer
palms
grams
stank
scatter
farmer
phony
westside
proclaim
dand
smashed
anxious
rou
jolly
haunts
hoop
designed
bits
emer
southside
groovy
breathless
hopped
indiv
computer
cupid
prescri
uncertain
rave
stripped
suburb
rico
daze
spendin
harry
scrub
claw
sweetness
gown
ts
wil
##card
lords
brag
parked
##kkle
pizza
aby
##roph
soup
armed
marie
hesitation
chickens
garage
volume
fue
mini
unlock
burdens
fagg
despise
lining
mow
yu
compton
quier
lays
annie
female
##heart
virginia
possibly
longest
foe
creator
trials
##ettes
bulletproof
untrue
##bly
released
secure
wooden
cert
meh
theyll
labor
pepper
rusty
mexican
unstopp
print
badly
stacking
profession
achieve
stared
doorway
sund
speeding
cowards
value
officer
kelly
##ffe
unlike
unstoppable
omo
wagon
##top
goss
planted
returning
clutch
##low
##dog
thuggin
grim
fortun
henry
##vere
winnin
motel
##foot
revelation
chamber
##vail
chine
spilling
impressed
orders
dent
gum
hats
bumping
consequence
wiggle
reneg
##verty
earl
lev
explore
teachers
reminded
depressed
silently
porsche
boston
dances
solitude
bending
shepherds
playground
poverty
craft
syrup
atom
pete
goons
attraction
flexing
righteousness
hottest
##ization
rumble
meek
##run
upstairs
paved
healed
goddess
definition
laced
lucy
##bul
coach
greener
newborn
freight
##din
hipp
overnight
towns
rig
yellin
ky
neath
discovered
behavior
necklace
chu
tickets
reaper
swish
seize
hustling
likely
partic
gloom
official
##pting
suh
gamble
##ov
##eem
cany
ropes
sling
##kyo
##yyyy
sig
wal
peas
jukebox
kent
##이
flown
obsessed
motivation
dimension
messages
gangstas
pam
slumber
##haust
adventure
oya
angeles
curve
dishes
pilot
##rant
##hold
##rance
tokyo
miserable
##bell
pains
acts
devour
screamed
inches
swoll
summers
##ibility
hypocr
umm
toxic
unra
messiah
wiser
tenderness
inspired
gir
vast
vap
treats
incl
elevator
november
chime
darkened
galaxy
guitars
##pack
wastin
planets
ker
slain
knocks
chemicals
##tra
##imum
coldest
compan
consumed
loyalty
desperation
phrase
rocked
flirt
##osh
freaking
remix
ruler
##itz
adren
urge
changin
media
sean
breathin
##iders
unique
factory
alot
catchin
mysterious
##dar
backwood
carefully
carnival
dragged
clich
german
os
ench
apologies
overseas
jas
##mate
##ships
grape
greatness
dil
ell
##bar
liver
wildest
para
dealers
ruff
ze
sta
##iggy
boats
##belie
options
han
##mine
overth
recover
wrecking
spilled
##nat
##father
##eable
stacked
splend
drawers
applause
bod
tighter
losers
irish
compassion
##othing
plains
brief
rasta
##olph
betty
dreamers
exhaust
stripper
testify
evolution
contag
shepherd
biggie
ridiculous
likkle
scoop
hitch
whipping
dignity
##utions
##uries
bog
partners
absurd
danny
individ
ais
##assed
##oster
bul
fond
unch
offered
complaining
logic
glea
homicide
compares
merc
##manuel
##ᅡᆯ
##rick
naive
acce
daisy
thor
adjust
marvel
drought
lined
anyhow
magg
skyline
digits
##rrrr
rans
sweetly
trusting
invitation
pointing
sweating
muthafucka
aa
hallway
conquered
mechan
##okie
##umblin
apply
nineteen
transform
rotting
payin
retire
murda
bour
yank
potential
mhm
##icidal
rags
polite
deceit
kl
brightest
snowman
tribe
bothered
tack
inher
buh
slugs
umbrella
servin
x3
##ander
##sin
##bach
doctors
tainted
orch
planning
answered
flipped
ape
escaping
ves
inse
mona
apoc
swagger
random
##vie
##iles
sucka
dealin
warriors
##sense
##era
retreat
boxes
luci
kool
robber
eager
gwan
pint
beloved
undress
redneck
ruthless
spice
balloon
creeps
bankroll
demands
eu
heel
##ilities
exalt
deals
spiral
legit
expand
baseball
irre
eats
therap
shred
hos
alar
##ros
codeine
exchange
baba
##rah
lac
elvis
choppa
packin
seventh
deeds
##lit
cocked
props
moral
disappears
incompl
pennies
##bi
bolt
##appy
##rive
##geon
spoil
clarity
hav
worm
slowing
louisiana
junkie
vultures
rugged
stable
polar
bros
coaster
wage
nav
freakin
shaken
horri
luv
stressing
sleeves
relentless
cheddar
gossip
##kman
tic
elevate
abyss
aaah
dame
##ndition
nighttime
unity
##ortion
battlefield
fences
##ban
streams
meanwhile
speaker
decor
pige
awaits
##jection
florida
chinese
beers
redeemed
example
vote
nod
##rop
slit
smother
paras
europe
yer
lifeless
usa
potion
vic
##igator
##lands
fabric
incomplete
jaws
pim
calcul
turkey
occasion
spun
##assie
ket
##aya
diving
pointed
bitty
##ders
glide
illusions
brilliant
##idge
juicy
dutch
shaped
stubborn
during
gap
semi
##ctic
pathetic
buckle
hahaha
critical
masquerade
ana
nina
whe
scorn
pistols
ank
##olic
flop
soaking
finer
##iable
venkman
##nis
expression
##rin
scandal
trapping
aval
iv
jug
licks
directions
mush
usual
stressin
easter
unex
surrounding
##wich
compos
bonnie
##weight
bruises
fraud
pines
rein
employ
prevail
bully
transl
rowdy
##ails
brow
arri
sales
serpent
sole
heartbreaker
yawn
whores
scott
marriage
insides
wired
rebu
dodge
knots
##pective
swirl
perpet
##cope
dose
reaches
bin
task
##ashed
indo
grandpa
certainly
denying
198
##rum
traded
nonsense
rudolph
aug
eee
mak
conceive
masters
apocaly
iced
massive
blush
orph
suckin
##ruption
subtle
soothe
luxury
philosop
bald
boast
carve
compete
##orting
bagg
supper
tempo
cents
delivered
destruct
families
ching
moses
contract
doomed
forbidden
happily
confront
citiz
adrenaline
kansas
appeared
aches
towers
unlea
influence
assume
joseph
hog
reci
strive
musical
drummer
flags
suspect
anxiety
##off
untouch
wastel
confuse
ringin
melan
smaller
ninja
amends
gained
mornings
heroin
nash
##vir
labels
leash
cube
castles
##fits
##eno
caution
elephant
ova
fork
pregn
illegal
wasteland
vert
##dra
timeless
clover
eld
jol
vom
ahhhhh
simpl
recipe
econ
##itute
frog
emmanuel
paw
national
##onna
bred
pressing
frustration
girlfriends
somethings
##ruct
sparkle
unleash
manh
needles
shovel
property
##eness
goat
wandered
dock
##anese
cracking
tidal
choppers
images
cells
shorts
international
headphones
delicate
fashioned
bartender
unspoken
cheers
contagious
tut
##keys
diddle
riddle
similar
idle
##tight
damaged
cuttin
misty
sharpen
##지
##ani
formed
hers
##anging
refer
oi
itch
sprung
universal
narc
earthquake
latin
whatchu
frail
claws
develop
swisher
scratching
freddy
license
##rix
pattern
fasc
theme
meow
arc
lordy
ara
##liest
arrog
reel
var
quote
granny
riders
greens
inspire
copper
clack
restaur
driveway
buyin
islands
il
vie
##13
canvas
therefore
maniac
floatin
glisten
according
pla
suns
blossom
wher
##etti
lobby
copped
throws
caroline
alex
##otine
mentally
exists
oblivion
dank
##ounce
fuckers
desperately
shifting
teaching
mourning
##bit
whale
boyz
ceme
##asing
roc
limous
domino
ricky
unhappy
wilderness
cans
scient
aiming
choosing
multiply
hind
kong
sie
##irm
##ially
##can
##cut
##imo
smar
begged
bumper
crucified
##atory
##anas
lav
package
necks
uncondition
60
sid
cases
deeply
##fic
hack
expectations
blackened
cape
benj
expecting
towel
overdose
##pac
persu
deceiving
levels
eden
session
stam
apathy
mics
weeds
gats
minded
##arks
grandm
cosmic
closely
gathering
swords
smarter
##xx
##outs
grena
freely
counts
##attan
believers
stackin
haste
deer
barn
report
huge
##cat
##irds
##alala
maf
giants
##lip
##flo
insist
deserves
bisc
##urance
fleeting
polo
nurse
joker
chea
pean
oakland
male
delicious
obst
hustlers
arrows
pipes
300
cripp
wifey
lames
finesse
glocks
bleach
posed
##nches
trigg
flowin
confl
instagram
dawning
elb
devast
fortress
photographs
##uine
owned
situations
entertainment
patterns
fireworks
thong
##anne
hidin
unfair
blurry
##iffer
hover
barri
sofa
##otha
clocks
claiming
portra
skipping
sust
qual
laund
##des
stumbled
##eng
##roken
dm
exhale
viet
johnson
ascend
brink
quack
brim
bunny
prow
##otes
##iring
heals
##levant
44
cunt
uzi
##ending
accompl
suffered
buffalo
unreal
kentucky
hearin
humans
impat
filth
seriously
file
marsh
cannib
loll
overt
twinkle
audience
tradition
##hi
gravy
explan
lingers
kur
##ties
heartaches
prosper
##don
rapture
shocked
subway
nuc
bruce
weekends
wizard
##16
honeys
pleasant
ii
dippin
curl
suffocate
sparrow
##ictions
perspective
venus
valleys
scrape
poker
revi
##cht
ideal
matches
alter
abused
boil
unho
unaware
identity
gears
##aring
plow
spain
pho
travelling
alibi
2pac
lan
##cision
##kening
goo
hearse
caring
whipped
cine
##reet
bugs
touchin
##ables
sports
sandwich
papi
##step
sighs
##dad
lob
alleg
willy
sounded
desk
infant
widow
virtue
##natural
lalal
##어
stew
soph
##aves
reminder
slavery
gimmie
##coming
military
recon
cowboys
##onies
absence
bites
mug
operator
eyelids
concept
burner
curves
shuffle
##ension
ribbon
gigg
tent
##dam
homey
struct
bund
intr
oven
loan
analy
cheatin
shouts
vanish
bathe
unif
reflections
quiero
cul
knuckles
##reen
tapes
renew
tram
tightly
taller
flicker
bash
##teen
##feit
headin
tails
defy
nuclear
switched
expose
tempted
swollen
hosanna
##tah
rockstar
brightly
costs
holidays
schemes
pregnant
95
bows
##gate
bamb
hoppin
aloud
ark
suckas
corp
risin
spaceship
renegade
##ager
reser
switching
handc
excite
sneakers
groupie
shrink
opinions
sharks
thot
flaming
skrr
relo
##ogie
jerry
fitted
vul
##lot
stea
##aro
divor
exciting
mothafucka
groovin
##stein
reefer
determined
forms
abide
perc
solar
##rit
##sets
personality
youths
##oooooooo
assemb
whoah
spike
peri
nearer
mmmmm
waltz
splin
mos
##boat
motions
rooftop
certified
ath
##com
runner
dummy
shimmy
jing
landing
milli
decline
excl
hawk
##ndez
##mun
stim
tipsy
illumin
unholy
shh
ohio
sworn
milky
charming
chairs
guid
maybach
summon
##onscious
crackin
lethal
faults
overrated
cola
political
manger
skeet
mattered
tube
consequences
oops
ratchet
##yl
bacon
enlight
testing
stealin
buttons
underwear
##enix
shab
magnet
francisco
amber
leak
believin
grease
restr
stores
dine
lala
tam
lightly
fourteen
mystic
particular
hub
marley
leanin
##grown
fran
dallas
danceflo
reachin
confusing
hesit
fishin
cemetery
brake
ribs
richer
eddie
airplane
gunna
tortured
august
jury
hoor
rio
assist
crows
chev
distraction
footprints
licking
overdue
lucifer
##ories
starve
blacks
reeling
community
gem
hopefully
otherwise
strawberry
phoenix
toot
manip
foolin
awoke
skeleton
politicians
git
alike
minus
fund
mig
##vah
##ictable
element
err
sample
##gues
trenches
harbor
legends
sheriff
vida
yow
healer
preaching
japanese
##wined
uptight
poem
trained
handcuff
pane
travelin
stuffed
shackles
mt
##icken
scot
tenderly
dale
screens
await
##cup
whee
suicidal
treating
bottoms
candlelight
survivor
respond
너
anew
deception
highly
eclip
##dies
rolex
sanctuary
ramp
##wor
##hill
rendez
##usin
slash
crut
retarded
stagger
##uing
##angle
skr
prettiest
ic
##oring
ross
joined
detect
gauge
ritual
octo
38
##blo
##14
overload
slower
blooded
impression
safely
frames
ariz
yum
bawl
##icles
waitress
voy
stickin
##vention
sneaking
toilet
##ien
cable
pledge
poppa
prophe
stakes
dram
dave
crunch
illest
parach
idiot
##mal
ragged
unbelie
permission
cattle
fakin
wantin
##enti
glows
tense
chariot
terms
protest
therapy
hamm
notch
commer
reminding
critics
concentrate
sosa
warmer
jackie
crosses
wretched
aisle
october
##bag
online
##rim
dipped
controlled
persist
limbo
##lide
blas
worrying
loosen
gifted
pursue
writin
contrad
tweet
poster
barefoot
##birds
nae
standard
dearly
artists
##laze
dedicate
arizona
evenin
##coat
streak
radical
ledge
slightly
prophecy
lump
vous
##pit
backpack
straighten
dow
pron
phat
airport
embers
jammin
peeps
oblig
skeletons
rari
noble
chir
brass
twitter
snowfl
indiffer
wrecked
banner
uber
##umes
##zo
hawa
rainin
thicker
flawless
overwhelmed
fier
lifts
##mbers
electricity
vessel
##ilation
picks
praised
features
poisoned
suspend
borders
optim
intellect
resurrection
junior
ruck
##lah
trim
touches
democ
rapid
pimping
titan
ablaze
oohh
marble
cookies
mamas
servant
period
sly
rippin
radar
casting
pleading
##cr
gs
##hand
##storm
beings
sele
mixta
broom
buzzin
frankie
tweak
choked
ignoring
dutty
substance
thom
toler
slapped
##una
flush
bets
versus
received
ferr
havent
mia
priceless
astron
lunatic
cer
creating
hyper
fronting
35
500
gwa
sunk
youngin
earthly
prophets
impatient
alas
races
steph
activ
defined
##iger
abra
claimed
juliet
possession
##made
supers
runway
decent
crews
ohhhhh
effects
joking
##uda
grieve
mafia
coca
sprite
jab
nay
lily
como
skank
truths
feature
blazin
philosophy
##chel
manny
lighthouse
aflo
loo
bap
##angs
exer
mistress
buzzing
infected
circumstance
ransom
bould
##well
mah
edges
unde
dolph
showers
vocal
sloppy
afloat
fend
clan
##ante
ceil
genoc
crawled
centuries
treasures
eah
uk
twins
killas
gracious
grounds
pleasures
favors
realm
##boards
mislead
photos
troops
eth
##lle
topic
##vit
##는
##itious
traces
vex
slime
freestyle
closes
marvelous
aer
dana
dolla
unsaid
collecting
unaf
responsible
refuge
grove
exception
ensl
kany
sax
##oli
purcha
lacking
nashville
menace
caut
##erella
##icop
twirl
contra
##ottin
petals
consciousness
stitches
russian
tinted
canyon
rebuild
ginger
legg
busta
circling
slangin
##ras
swan
tact
jesse
trails
repair
masterpiece
religious
corporate
##15
##osition
restore
imagined
weighing
borderline
crisis
parted
voc
##atted
weaker
obama
grime
scum
twer
columb
prick
flights
veter
lat
lifeline
parano
puffin
statue
vows
revive
smelling
engines
obstac
##hole
##zie
everythings
sought
##gent
ital
helicop
hillb
tote
##mend
timber
##icks
##berg
exotic
radi
oooooo
constell
details
pyram
maiden
stoner
forehead
jacked
restaurant
hed
tiss
이
butcher
monu
apparent
auto
combination
tags
manhattan
veget
reads
dada
global
frustrated
##erate
##cest
happier
feared
##eard
daytime
strongest
##onym
clinging
pimps
dots
wy
##ipe
##jack
donkey
asses
##ulations
simmer
angle
mutha
oz
pout
##ault
##pire
##giving
ina
former
muff
eleg
dressing
interstate
honour
lurking
lind
gotti
heck
contest
sorta
compared
puppy
virus
ambul
speechless
stant
boiling
carouse
##phy
controlling
gwaan
##ldom
gosh
hem
clash
marked
charles
bearing
turf
##roads
emcees
acknow
dancefloor
kit
satin
belle
unsure
stabbed
bol
winters
bends
woop
navy
flyer
meantime
covering
mega
causes
swam
##tale
writer
##cape
soulja
rhyming
arrange
##zard
seldom
twitch
nailed
harsh
neighbour
sensitive
origin
deceived
consuming
vomit
nom
##kill
##fare
goof
backed
##uses
possessed
washington
dung
rows
##maker
grat
##lessly
breathes
escal
penit
weezy
joints
redeemer
trumpet
chords
##try
countdown
trailer
punishment
taylor
sundown
##och
launch
subs
##bec
cutie
attic
native
shone
prada
hopeful
gorilla
az
scarlet
revival
##vs
inj
pablo
delusion
dissolve
fled
strangest
esteem
ireland
sovere
mayor
winners
struggles
##glass
gust
craz
branch
fascin
vietnam
mink
zi
members
roman
privile
bursting
thugg
##oul
pencil
swimmin
turtle
prodig
rendezvous
bount
blu
squir
delir
beliefs
mesmer
laure
goods
##ptic
sonny
eastside
approaching
sarah
faggot
enslave
huggin
##enn
ripe
trophy
softer
cinderella
##uition
wool
strum
types
entered
tattooed
illuminate
limousine
paranoia
##ooh
trading
diggy
##ika
rarely
bronx
backwoods
cere
cue
tel
wives
##like
##yo
##iser
wail
##eless
proved
visual
systems
estab
pinch
laser
sublime
navig
##hound
commas
misses
occur
##annah
hut
nada
##iar
cob
##usher
untold
yayo
hooray
ivy
plum
heap
distress
##erved
unable
laundry
explanation
ck
pins
caving
chunk
wreckage
##irs
mojo
swings
removed
fours
passionate
bouncin
##craft
alligator
weightless
kanye
swamp
funds
buildin
boomer
meaningless
swaying
slur
ponder
everybodys
fret
royalty
reflecting
apocalypse
ral
##oot
##rey
bleak
##hero
amaze
rained
wildin
gravel
victorious
ribbons
egy
yipp
##uther
##fections
flare
##phem
saddest
sweatin
squares
departed
eg
resent
guards
greasy
dicks
cement
oah
wuk
goody
outcast
actor
jeho
coochie
fest
wobble
springtime
shimmer
battered
lash
##lam
stale
downfall
moss
estate
hugs
shivers
nigh
##ully
afterlife
frosty
embarrass
racist
kay
##thouse
sab
surg
oklah
##pected
medication
mummy
theory
rewr
##amo
schol
admire
selassie
brutal
genocide
egypt
hark
vital
##cker
prem
unus
chef
##ensive
interrupt
obviously
bot
##long
##atu
chand
flir
##isha
carter
blackout
interview
you2
dirk
messy
captive
protected
dedication
##onald
scheming
thorough
oklahoma
28
obser
buddha
portrait
##pow
##bee
##atives
blist
bitterness
larry
frightening
crisp
inherit
guidance
swarm
uno
owns
snip
throwed
conviction
pots
thine
nope
coats
tray
slums
##osa
wiped
gree
##verse
outrun
mobbin
sca
pond
moons
peach
landlord
schools
obscene
tot
##semble
manners
boost
bloods
cleaning
intert
ordered
teddy
##rison
itll
##alog
ahhhh
##ques
population
pitiful
require
parachute
num
osc
yield
##rep
##pest
##quis
##aaaaaaaa
utter
stan
quality
##osis
vincent
rump
moi
barg
barren
bleedin
returns
bicy
##crow
underdog
superhero
deserved
kindly
crip
smokes
vivid
natty
term
uncom
pinky
lor
dagger
affl
cigar
glorify
balc
magnific
baggage
nuth
##izer
corruption
folded
legendary
scenery
criticize
reload
stantz
bathing
prost
destroying
severed
cuban
suburban
individual
horrible
balcony
khal
##tha
##immer
mule
##hhhhhhhh
cannibal
mim
oho
chatter
listens
kidna
hangover
wildfire
intense
integr
lambo
undertow
##hall
whit
##archy
scope
##igned
berlin
mysteries
increase
jets
lens
##eted
##uman
elim
##heads
ome
pree
##가
##orgh
##elled
owner
cray
pastor
rubble
##ucer
hath
charts
smashing
stoop
rescued
dren
whites
stard
##chi
blaming
robbin
misbe
jams
das
mul
coop
hire
##cts
##tail
differently
cleanse
hooks
extraord
student
respon
tob
donald
fray
backing
badman
melts
ambulance
kang
breaker
cara
sonic
cinna
yourselves
grabbing
sells
epis
snitches
allegiance
dunk
ku
##oty
##ador
caddy
neglect
nuthin
##eaway
reun
slab
tons
unit
richard
captiv
spells
communication
fluid
chanel
wade
shan
lag
amid
indigo
annih
pierce
bubbles
hillbilly
##mons
##erto
robbing
clone
mole
qui
windy
##gga
colorado
drifted
fairytale
eb
##uals
floats
##atti
gangsters
basically
pursuit
blindfold
catast
wetter
apology
lincol
excell
evermore
unlo
signals
curls
drawer
extend
doggy
battery
coinc
dates
tings
vit
##omed
hopping
##shots
forgiving
parall
motto
threats
##hearted
jolene
fierce
forming
conform
jee
##tu
twent
##alem
absor
satellites
cynical
bourbon
unconditional
##burn
conj
##quet
prior
consist
crawlin
##glasses
reminiscing
carousel
kink
##ford
##bbie
capable
lantern
##anche
##usalem
guessed
handful
solitary
delete
infern
ruled
tricky
##belief
landslide
technology
fortunate
hue
##atra
##eau
spree
ability
fireflies
tearin
plotting
responsibility
professional
peanut
aids
token
stee
agent
suppl
slidin
dna
fug
cocon
fract
drained
glare
mmh
catastroph
tum
pend
bead
##aan
som
##leg
riff
prescription
cel
cooked
##rified
lickin
depending
##ribution
unexpected
ferrari
jub
oath
##press
withdra
overhead
countless
luke
budget
profess
witches
improve
##zar
heated
robert
select
peers
denim
##backs
kobe
zombies
shaky
##17
savin
highways
remembers
celebrity
accepted
relationships
##mean
sunglasses
braz
genes
boundaries
judas
cannonball
pleasing
quarters
synth
pies
tamb
##rift
mosh
apples
pumpkin
interesting
conflict
ie
ji
toke
justified
fiery
##pled
pickup
impact
refused
raped
imaginary
collection
jehovah
butch
outrage
anyways
##uding
dresser
claims
condo
condemned
rated
##ateg
sewn
coolin
suffocating
ramblin
uniform
oa
yak
##ativity
lah
wakin
pacing
joey
revealing
mixing
seventy
knuckle
bough
##antly
faceless
traps
genuine
##what
wondrous
conclusion
gn
cafe
pluck
rooster
mang
coma
rival
supernatural
##ivers
##grade
soaring
ori
##cery
unbreak
diesel
christma
belonged
fabulous
chart
deja
moe
raisin
fren
catches
skinned
disappearing
batman
spook
rebell
##rating
##arily
souven
crop
error
merely
hint
##child
donna
didd
losses
intuition
blasting
roaring
overwhelming
arrested
penetrate
pup
bever
##enses
hast
poems
rocker
##uded
straps
dresses
statement
pumped
jerusalem
jiggy
unafraid
bunk
##tt
##dles
meg
cain
yesterdays
daniel
cater
pork
##urities
##nage
yearn
owl
steals
bonfire
eazy
jig
fries
##ader
gleam
adored
verbal
hydro
lamborgh
ig
##yah
rails
pew
assum
wraith
surviving
crucify
resurrect
##enomen
unbelievable
dc
yeah1
sadly
infatu
depress
shorter
avail
eagles
##print
orphan
shag
troop
betcha
assured
harmon
escaped
serenade
exercise
unusual
##20
scan
buggin
learnt
sandy
croc
awaiting
jake
heater
slum
sweaty
autograph
larger
bikin
relieve
site
##net
##dled
outcome
suite
remote
miller
scares
disconnected
##oura
##oration
solem
phenomen
assassin
literally
##reed
##arre
clues
skins
blindly
closure
ducking
inevit
cly
ese
dos
##ively
leaking
foggy
twas
yacht
raid
lasting
beaches
attend
pointless
gripping
dodging
lola
##irk
##ulu
##osie
perception
swallowing
melted
pedest
wheat
cautious
cinnamon
bm
##mies
##aps
outfit
wavy
chopped
payback
barb
pumps
rye
hounds
##track
cmon
wad
##mouth
##aign
doop
dolly
##racy
headache
##pense
minimum
riverside
sparkling
mentality
flaunt
gambling
crippled
christmases
bib
plants
carr
striking
added
bayou
franklin
thumbs
mercury
penitenti
mop
sis
##cky
nameless
##aging
snort
controls
repet
undead
stompin
roaming
presidents
archite
dismay
lavish
dans
yon
##lan
welf
cran
switchin
suspic
crutch
solemn
26
##ᅡᄅ
##ipher
trends
distracted
welfare
vices
##math
isle
plottin
evident
cousins
jaco
invented
sovereign
boomerang
##iments
fruits
rockets
##aba
charged
conspir
dye
operation
camou
ultra
##verted
hymns
lollip
ight
coy
lava
senseless
equals
argument
backstage
rattles
hymn
unrave
jason
##게
sciss
chapel
judging
skrrt
lincoln
ere
hugging
##through
##olk
overlo
badge
prisoners
spoiled
execution
4th
irr
##pples
manic
lotto
hourglass
puerto
blurred
disappointed
reed
##aki
##beats
hyster
transcend
mobile
possibility
bb
cot
furn
tah
xan
##wo
##rels
wept
stench
haired
wither
prepar
eaten
pussies
separation
chewing
camoufl
hatch
comeback
aftermath
suga
armaged
vibrations
kam
chess
##fest
carbon
childish
##cycle
rushed
whistling
interested
intelligent
brighten
sacrificed
##ification
exploding
##ckey
une
badder
dancers
worthwhile
banger
william
jumps
##tim
##etta
worms
wand
diet
traum
tripped
silhouettes
jess
##roc
realer
crept
cleans
courts
failures
vanilla
taxes
tatted
playboy
endures
finess
madonna
distr
reckon
stunting
crumbs
crooks
learnin
eighth
questioning
treason
808
dict
rut
sched
##moon
##ᅥᆫ
inta
##oman
angu
dean
abst
##iley
endea
bloodshot
acres
access
floods
weighs
congrat
avalanche
response
tummy
chump
willin
clout
drake
rally
##ously
peaches
halluc
bananas
falter
pearly
doves
manner
shouted
fixing
thriller
debate
propag
rooftops
robbery
cinema
##ourage
##irth
secretly
rubbing
hopelessly
blankets
sync
mice
pes
whil
caine
pope
genie
dearest
glistening
corpses
blasphem
clyde
armageddon
vs
##uf
stance
lightnin
poly
gritty
actors
washes
sympath
pyre
2000
lawyers
##ases
cole
##ilee
woogie
phara
quicksand
modest
suspicious
arab
fates
pent
feat
faithfulness
aligned
wheres
structure
chandel
kw
backbone
lai
##cture
ammun
dubs
3rd
##encies
golf
baking
feeble
stevie
solace
##active
32
sank
onward
darn
##ogne
tighten
tango
berry
jamaican
ooooooh
alpha
walker
growth
##mmmm
sendin
seam
simon
incar
rusted
picket
companion
tobac
iphone
##nic
##gans
uncover
settin
creed
tuned
continent
barking
rehear
guru
snowflakes
rebels
##amine
dismiss
twistin
##rooms
beasts
epic
jiggle
baptized
british
mixtape
##mond
##iner
ster
disreg
generations
spectac
ammunition
70
fangs
##anan
scales
actual
drips
barric
mason
rejected
euphor
pharaoh
fakes
hobby
marvin
crest
gloss
combat
idols
spawn
ion
##atos
related
hoodie
penis
delta
stretching
serenity
exalted
lakes
ove
##oni
doot
asian
quench
##agon
midwest
unfa
considered
fridge
##olin
sweetie
crowns
reverend
grieving
unbroken
bounty
ira
safer
orbit
monkeys
firing
julie
내
##bread
lid
coup
congreg
metaphor
suspended
gbe
underest
glorified
massac
grammy
wealthy
##scra
discipline
hare
##iro
trod
poets
guh
shoppin
passage
acted
ridge
hypnotize
disconnect
munch
vile
##illas
wells
marath
##ilyn
curren
awakening
bushes
embarrassed
reconc
##itas
inject
##idas
boards
enth
rumor
irres
lamborghini
altern
gunshot
relations
slipp
fishes
demonst
##nesses
frequency
unbreakable
nother
headlines
cryst
warfare
lowkey
banjo
crucifix
eclipse
sket
tug
##eee
graff
skyscra
lottery
tomorrows
recom
grippin
muthafuckas
##ortunate
riddim
robe
doorstep
honeymoon
brainw
hammers
##ucing
mol
skunk
precise
esk
eeh
viny
canada
##adel
marilyn
awfully
scratched
opera
swervin
stages
cric
fearing
sinks
diva
groupies
instrument
rehab
teens
mocking
dit
forcing
beggar
cracker
celebrating
constitution
tickle
preachers
austin
offended
kal
downstairs
blackbird
mons
##ibly
spreads
sneakin
thomas
##ele
##vary
##adad
flour
breakthrough
grudge
muscles
##mediate
sinkin
debts
buddies
vig
##ohoh
ada
kevin
numbered
flashes
flooded
discussion
assembly
astrona
##vine
whim
##ige
herd
kingston
stool
lovesick
groan
inclined
batty
sympt
orchest
ether
##bang
homeboys
workers
fres
bluebird
resolve
fumes
creepy
atlantic
tropical
kon
deo
sequ
gully
draft
sicker
compliment
recording
campaign
stirring
mtv
xans
##you
noah
blam
stillness
unuh
furious
gazing
cuddle
chevro
anguish
tran
oldest
##umbles
unfortunate
benefit
austral
untouchable
##ui
##bour
inhib
cozy
tennis
events
explosion
lexus
supersonic
parallel
luther
someplace
roger
joys
confide
lesser
infam
blooming
meals
##isons
extin
pest
blessin
##izzle
intact
alight
theirs
bounds
febr
bended
noises
texting
profound
continues
rollerco
masturb
##에
##ayin
disint
cologne
complac
##ased
spank
swine
##athan
##shell
metro
smelled
armies
sidewalks
auld
extraordinary
penitentiary
chevrolet
gaw
##erie
suede
skirts
poo
wrink
reside
barbie
deliverance
grooving
disappointment
splendor
goofy
lass
##odel
##eller
beacon
##shield
thrott
elements
##quel
scrap
blinking
boredom
fantasize
sincerely
wrestle
lucid
acknowledge
esta
##asis
##char
hops
arent
hillside
federal
duckin
jigga
dandy
irrelevant
cass
keen
##ller
roast
guer
proven
beamer
springs
classy
susie
williams
bicycle
ella
kane
me2
lighters
eliz
morals
snoo
calvary
cleve
settling
tomato
physically
january
piper
offend
sustain
commercial
magnificent
isolation
caged
gotcha
ancest
##ications
diary
immediate
mae
blastin
circumstances
basketball
royce
##stones
anonym
woes
torna
mambo
insecurities
cloak
lollipop
vinyl
wen
stations
ish
brotha
shoots
thrive
training
inviting
dyna
throats
possibilities
##non
##corn
shroud
cleared
debr
aggress
prevent
##oscope
marg
attracted
juven
corrid
196
cakes
##matic
nodd
chal
hier
longs
carib
grounded
indul
salad
separated
kilo
vam
fleet
madly
##ibu
matching
glories
dissin
landscape
levitate
dramatic
february
bern
inh
bew
wallow
dipping
##ima
gran
passport
crossroads
distorted
concert
meditation
unconscious
doggone
ivory
fick
fath
rips
zag
##sions
##18
novel
nostal
timb
conce
crust
result
##weh
horizons
rastaf
prowl
ich
nik
divin
dipl
##osene
patri
division
data
baked
comet
playas
##lings
giver
adding
nerd
equipped
bikes
anticipating
aggra
ena
##mad
herbs
lew
##shed
windshield
deceased
##glow
coconut
cleveland
fisher
piggy
##cano
##pot
##ello
overboard
scal
enjo
guides
lowly
oppression
dungeon
independence
##ridge
alibis
kerosene
scandalous
exclusive
hud
tones
christine
refug
punches
pilg
##formed
pacific
composure
jacob
kale
nines
oom
##kins
##win
hoot
##rope
bosses
##order
lasted
##ahaha
paints
cleaned
grips
crowned
dreadlock
matrix
glamour
intoxicated
exhausted
kra
##inge
choppin
##choly
intend
strippers
trib
properly
unforget
surgery
##vors
dap
ballers
violet
switches
##paper
vibration
atomic
fascination
bh
zig
render
needy
bonds
##olf
blackness
resound
intim
artific
flashin
tourist
rin
waved
##ooooo
##balls
gallows
deranged
introduced
disgusting
whilst
tak
##kes
##illo
nov
##igning
##amas
herald
seg
woof
treach
papar
aston
hunted
moaning
veteran
tambour
5th
eric
##bu
##ractions
##opia
boi
waiter
racin
glued
sailors
arrives
criminals
wess
##dling
stil
##olate
##ulated
perceive
lowest
remy
magnetic
volcano
cathed
emcee
melancholy
kod
nig
tamed
everg
sag
faire
niggers
##bean
kneeling
climbin
communicate
episode
nich
loaf
christians
##abet
blamed
purity
tempting
excess
bandit
accent
disguised
##고
blacked
aglow
freezer
grits
morph
##ifying
mirage
superior
surfing
trumpets
pigeon
tobacco
slippery
aura
##water
##di
junkies
##azzi
muhfuck
##nas
ants
scam
payche
recre
halle
species
##resses
villains
skipped
hypnotic
vintage
staff
00
##fter
crus
##iva
antid
folding
ounces
brazil
dere
goon
everythin
standards
carl
sleepwalk
dammit
insurance
praising
shined
bowed
transp
dawgs
bien
currency
ip
ps
##rising
soy
##ppas
clothing
hick
agreed
##ulet
sinister
repeated
engage
##ological
vanished
messenger
nikes
graduated
doodle
##olest
tossing
contemplate
##nge
##oci
withered
absent
advert
tapping
motherfucka
submit
##pool
links
lyrically
citizens
debris
sown
yoo
##erson
prices
tonite
##acity
shoutout
pissing
aiyy
##timore
throttle
huff
mcc
stings
seated
maps
blocked
avoiding
vocals
ple
zen
guided
treading
smokey
##ogy
popcorn
curry
judy
malcol
##uuu
bizarre
marathon
tornado
66
alle
savor
nevermind
verb
grocery
baltimore
produce
hostage
stockings
gleaming
uncomfor
malcolm
##nation
toc
cau
amster
envir
prair
idi
patrol
brian
peeling
potatoes
##itated
licked
abound
emily
conven
bada
parting
camel
repub
tougher
heathen
amsterdam
27
wider
quake
draggin
rhymin
##vised
clouded
videos
embracing
swerving
bish
tether
##amins
roaches
heartbeats
foam
##placed
sinning
##umbo
cooling
penthouse
norma
urban
knights
coolest
alto
abund
nappy
disbelief
sift
resolution
witcha
rollercoaster
##ef
##아
##owed
baker
##idel
rox
fireplace
burger
commotion
meditate
operate
delirious
withdraw
33
gong
tul
##sive
cabb
client
##umin
needin
amp
mayday
tasty
review
clears
quiver
braids
tightrope
hallways
polish
travelled
submission
entrance
linen
observe
##door
femin
paparazzi
cows
erupt
nurs
tattered
##nal
##donald
##fight
initi
##rows
##ffle
unpl
motive
gassed
constru
rearview
politician
intelligence
grenade
##icts
classes
##opl
mindless
steering
moonlit
sermon
watts
rebirth
gest
kry
vroom
gob
##uckle
unic
walla
restored
smallest
tailgate
twenties
disregard
hitt
vans
wick
##rected
grabs
damnation
balloons
##oyed
malibu
motivated
##standing
vague
commitment
yankee
disintegr
reek
libr
rib
tapped
##awk
ohhhhhhh
juvenile
69
jaz
nou
##fort
framed
distract
eva
churches
snaps
succumb
irony
mentioned
##ophies
contemplating
antidote
ampl
offers
essent
boomin
undressed
grandfather
surreal
attacks
balm
production
dublin
shivering
michigan
##lift
##rose
diana
actress
shotty
holmes
portion
mathem
grandmother
aiyyo
pom
##most
lol
anne
sau
active
viva
tickin
pinned
whirlwind
drenched
graffiti
environ
85
##earest
cages
slump
fillin
colt
insight
dolls
proudly
violin
claimin
ducks
fraid
vapor
parasite
rewrite
pand
##uum
writes
gulf
endings
grapes
disse
rhythms
porcel
sprayed
gambler
sill
sant
wilt
##opath
bottled
rushes
daisies
unforgettable
artificial
amy
worker
doubted
greyhound
overflowing
museum
bundle
vulner
porcelain
veh
brandy
grande
ng
##wre
##onia
pecul
drool
##aaah
rental
manager
afro
chau
furnace
steadily
drags
conditions
weighed
unfolds
aimed
rejection
barbed
geeked
aaaah
enchanted
leggo
camouflage
jup
##han
##hips
prome
slows
reson
betrayal
instincts
lobster
stardust
meter
##chief
ammo
singers
handsh
##abies
hideaway
delivery
jordans
outrageous
peculiar
88
lug
##arch
shee
##ilate
wages
##olis
##olia
sluts
smacked
powerless
merch
tasting
charges
defenses
escapes
fingerna
echoing
breasts
arrival
cia
hort
yang
ther
rosy
lighten
fores
perish
policy
limited
scarecrow
unpred
##cardi
purchase
massacre
tranqu
unicorn
##tie
##fy
##rob
vend
wannabe
scoot
adidas
hummin
blocking
repeats
snare
##lette
location
audi
aggression
acceler
iz
jill
##tray
##ᅡᆼ
##inations
##arian
caes
coins
comment
craze
##izzy
beyon
stomping
nicotine
levee
descending
randy
cheaper
ib
##mat
honda
usher
lef
layers
relive
decides
builds
charity
clapping
incense
cardboard
hallowed
irene
arrogant
crocod
bitten
mun
pics
infection
##aroo
##adium
clin
amate
margar
prays
##bron
cycl
197
cliche
alarms
italian
titty
##will
##orous
##orita
##lected
commen
##ocks
riv
bando
bathed
predict
opposition
metaph
explodes
tant
##ission
snee
keith
curly
ashtray
basics
grinning
demanding
rastafari
cabbage
cun
taker
##loo
babys
spades
telly
bitchin
heave
beautif
##ifer
confined
billie
leaned
##amba
ohhhhhh
devoted
presidential
threads
emerald
tissue
uuh
amnes
assault
##ability
##ggers
guardian
overdrive
hypocris
93
911
rash
anuh
spiders
shouldnt
unden
tested
weathered
lounge
detail
##fficient
sweeping
ankles
stem
sod
##ido
caves
flutter
encore
##ptions
marcus
draped
cursing
##bba
depos
respected
limo
eastern
gene
##ulating
longed
yap
##ela
pall
movements
infor
valid
ramble
dwelling
vagina
excels
beverly
bats
crist
##icit
intended
karate
excitement
mute
yung
slither
amour
rav
damp
specif
thresh
hypocrite
helicopter
schedule
propaganda
gina
##orate
bacardi
##aloo
tigers
levi
happiest
rih
payment
serene
tux
divorce
47
pusher
##urbs
robb
perse
elevated
behaviour
fendi
scholar
mw
##nies
theyve
##okers
##assy
##esth
chopping
imprison
superno
sixth
ironic
redeem
nite
obt
##oir
sweets
monop
impul
harp
invade
extended
skulls
substitute
tambourine
kung
##해
facebook
complicate
locking
device
rambling
##리
buys
dancehall
tilt
blowed
circuit
chaser
maser
dragons
oppon
mothafuckas
gabrie
hippie
mou
itching
disorder
chilly
smellin
travels
filter
48
##iture
##ario
gore
hectic
churn
spills
twink
##oooh
##aga
sinful
verge
violate
pools
receiving
uncertainty
integrity
adapt
kan
##rine
shri
##chet
friction
loneliest
creative
sera
awakened
owed
gardens
loner
##bust
touchdown
locom
immig
paddy
##burg
sublim
suspicion
hypocrisy
29
sara
sos
codes
frantic
disar
taco
##ogram
empathy
positions
representin
psychic
bussin
republic
vines
inhal
love1
somewhat
shoop
afterglow
redef
parole
loudest
indians
##easing
territ
postcard
technique
olden
##show
territory
cork
andy
shittin
hai
cancel
##ira
##nac
laa
thrust
squeak
squeal
tyson
sundays
vibrate
casualty
catholic
democracy
boulder
fickle
nancy
##도
coated
fris
##opard
##olving
prone
arth
draco
clearing
milit
cyaa
##iki
volunt
dashboard
indiana
mandem
skrt
obstacles
anonymous
1st
##free
##resh
sah
spew
snuck
recite
evolve
##sette
champions
alcoholic
unheard
##mary
##ni
drone
serves
recognized
experi
daydreams
brig
sunsets
promot
merci
explo
radiant
warming
huntin
condom
continued
rybody
platform
ralph
bargain
congratulations
96
##iy
calend
tricked
neut
flips
dared
##mented
##neys
primit
fetch
cuffs
havoc
pry
loft
##onel
adios
treet
feliz
stalking
dating
maine
##rus
liking
##around
swoop
scroll
loads
##iii
nicki
shrine
pudding
inevitable
jupiter
ov
ranger
homeward
scop
trench
remained
destroyer
hosts
crumbles
benefits
steeple
signing
accomplish
dorm
ein
todd
##ucks
polly
punching
jr
whining
wend
caval
##opy
treble
hairs
intimate
clappin
fatty
poisonous
carols
pierced
vagab
##ficial
privilege
flirting
kaleid
unpredictable
nam
tout
##nessed
nova
realizing
guill
gunning
mistre
reflected
gloomy
objects
euphoria
amnesia
threshold
gary
##fa
slea
poles
bums
jailhouse
pione
negativity
alphabet
65
어
##waves
##lie
flatter
breathed
reclaim
recorded
centre
deafening
economy
stephen
yippie
uncomfortable
shrimp
sham
nos
hov
associ
snuff
tractor
consolation
##atics
panty
strangle
astound
fiesta
bih
fiendin
oscar
hous
mound
piled
##ials
repping
getter
clen
swap
adoles
demol
burial
curled
faithless
moods
strolling
representing
albums
lullabies
fert
yards
##itors
outro
amar
naa
##elt
soundtrack
apes
##ifies
madman
teasing
snack
bonita
basis
motorcycle
snatched
victoria
maggie
##mill
werew
sunken
quits
countries
merri
whisky
corny
slamming
immune
polaroid
jubilee
aggressive
enjoying
rihanna
pod
ric
tink
stadium
trin
##raved
handy
morbid
barbec
syc
vacuum
mutual
##flower
bugatti
rouge
gad
##wine
##19
##erous
cobra
blizz
##ria
##olves
##ittens
emper
snapping
flickering
hostile
principle
caravan
icon
lon
##uate
##llll
chokin
davis
lotion
humor
cept
neighbours
combine
hawaii
dart
##uces
##cends
spons
diab
scotch
lawd
affairs
unfur
slammed
fragrance
educated
primitive
icky
##lust
##fters
##sell
##imony
envision
snows
symme
submar
servants
counterfeit
concealed
flavors
55
ore
infest
chug
neph
goodies
##gets
breaths
agenda
swallows
punched
enslaved
district
yulet
shuff
hose
backward
roles
slate
forgets
medio
accused
values
puffing
neglected
hollerin
wilson
triggers
professor
conspiracy
scissors
yuletide
dess
plank
##angled
muham
##osaur
##ogly
pigeons
elbows
constellations
spear
precision
glee
marrow
deaths
curios
jews
internal
docu
waterfalls
fitting
ist
latch
tina
faithfully
##mingham
unfam
recognise
hunnids
instantly
destructive
##gum
##은
tiff
guin
##imeter
##lina
bella
kingdoms
stabbing
bung
##llin
stur
reset
boosie
caller
elite
morgue
recru
judged
splitting
crashes
angles
cone
hic
n9
##folk
##oric
yeahhh
scat
diego
spec
murderous
strugglin
psyched
scraping
pirates
bikini
##raine
##uity
##front
andre
sodom
coppin
clam
nightly
pagan
juan
buckin
flashy
dunno
possessions
fundament
tactics
elegant
amidst
kinky
fresher
normally
ach
aka
hart
##nuts
##ghetti
crab
crawls
breezy
scarface
gator
vvs
##uds
##oly
##oss
##을
##ᅮᆯ
aspir
##icity
legged
birmingham
driftin
magnum
flossin
kettle
econom
supernova
##onin
noo
sacks
##ardi
homework
ungr
starter
sizz
queer
jacks
rushin
bumble
confessions
sighing
dreads
cartoon
investig
humpty
wretch
chandelier
nude
bos
leon
emo
##aste
exter
prog
grid
warp
loses
monte
rests
gunnin
embed
jamming
texts
rebound
furniture
ming
omen
##mark
##weed
##via
youn
homemade
pretender
rudy
sandman
appearance
translation
pedestal
iraq
aaaaa
ls
oj
panc
loosing
knack
neur
blat
naz
cres
compar
deprive
fingerprints
mcg
shackled
unfamiliar
64
fatter
##nacle
howlin
conn
exor
grit
resign
results
madame
shameless
yelled
##tube
catastrophe
repetition
vulnerable
cuck
igh
##lim
##itating
##ires
relap
crackers
imagining
clutching
shabba
mates
yummy
##cake
##ᅮᆫ
##issy
carc
streetlights
pushes
collision
##minate
galore
rented
temptations
entirely
aeropl
prairie
tying
##ias
nooo
##unction
spits
lease
rollers
ooohhh
granddad
reveals
biscuit
maserati
94
gross
kee
lalala
가
##lude
youtube
##chat
harley
bowling
existed
overthink
kurt
caesar
shank
reins
bab
heather
yeahh
moist
brad
showdown
glances
advers
appoint
menu
traitor
futures
trippy
sweats
medal
replied
performance
encoun
sophist
caribbean
paycheck
dup
vou
##lished
nec
##rial
hired
woy
exile
choppas
doobie
amazin
baton
doubting
fragments
engineer
rearranged
arguments
pollution
auntie
occupation
spaghetti
ae
anat
spaz
usin
##bbles
digest
explaining
foxy
flawed
embraced
grapevine
snooze
mj
italy
hobo
convert
appealing
blasted
univers
stallion
piercing
unravel
undefe
##edo
baw
caf
llama
sequel
unempl
carefree
wraps
protecting
savages
slightest
swiftly
##ouraged
nie
그
##bea
trough
homegirl
glimmer
##ushi
rosie
ranks
environment
curiosity
##real
##thest
laces
scoo
relative
barber
##guard
tailor
magnolia
weirdo
dismant
terminal
gratitude
beautifully
mull
psal
tcha
##cet
##bull
goth
spat
dibby
betting
mustard
suburbs
prints
conduct
surfin
slanging
fulfilled
intertwined
excellent
humb
##tub
asyl
##icking
writh
##acious
blindness
cornbread
preserve
puzz
snitchin
females
vampires
underestimate
krypton
tac
##icho
##bet
##stop
shud
cavi
roach
##imal
dissed
sinned
fullest
tipto
schiz
liberation
directly
limelight
linda
crocodile
een
##jud
soothing
loca
sage
plaster
nause
##otte
distractions
answering
parkin
casino
tyrant
elder
voyage
##ups
##aken
hooo
whooo
seattle
grands
elo
restart
striving
visa
infilt
gladness
rambo
description
analyze
nosed
comedy
laura
lebron
##aneous
partying
repay
coraz
masc
collected
scriptures
blackest
citizen
mingle
pits
##eration
##ingly
##llies
tracing
anarchy
flam
##othy
perry
differences
fuzzy
mamac
ambitions
priests
hypocrites
nd
coals
##ucker
brat
proving
bloodline
##maid
appar
conspire
colorful
scramb
jericho
ville
80s
european
twerkin
youngest
hass
nit
##jan
shun
##pson
bloodshed
gunshots
chainsaw
blunted
tossin
kenned
anticipation
congregation
astronaut
australia
guillotine
##ential
disney
misled
##easy
pens
cypress
josh
##ool
##yd
##bug
##name
begg
burr
burg
curses
americans
medical
stunna
dukes
blaow
cereal
##lay
##rock
leis
ember
brawl
rubbin
lingo
producer
vault
heavily
roulette
calendar
ew
##gal
##30
injust
stung
##rofo
unash
carving
##quin
recently
hooker
unclear
##ography
187
scripture
sentiment
mechanical
handcuffs
apparently
##apsing
unashamed
diction
jed
lud
wavin
evenings
mario
millenn
ignition
thinner
successful
network
attempts
principles
##vd
##itations
goog
chit
troll
ticks
managed
##tably
perco
followers
saturn
studied
measured
oui
choirs
##sengers
deserts
puddle
katie
disciples
paws
gill
tes
##mates
tod
lest
phill
lotus
wanderer
bubba
swirling
infamous
fathom
asylum
kitten
lous
income
spazz
findin
gliding
perm
hateful
styrofo
specul
hatchet
##lied
##idad
bachel
aged
elsewhere
barry
syll
console
louise
negro
##force
ruckus
mesmerized
phenomenon
fingernails
##oglyph
kend
##aser
##lez
##omo
enuh
murders
survives
testament
cigars
banned
surprises
stocking
aliens
tanks
maximum
coughing
bongo
chauffe
ungrateful
rer
shaker
golly
frisco
facin
##usa
nothingness
enorm
thanksgiving
sammy
limitless
gallon
unforg
gaga
teles
cleansing
4x
pont
##ugh
##orld
clint
breach
poin
##phet
hangman
bouquet
syne
murk
crucial
cheetah
combined
##ophone
bim
cuh
itchin
shang
rept
causin
creates
radioactive
crops
bassline
purest
expert
freddie
outlaws
arrogance
arou
dh
fart
nate
wren
theat
uphill
wang
rookie
swung
miner
minister
##ogue
misfit
compliments
pillows
gaining
##cules
##wwww
anthony
enlighten
abraham
muhammad
mea
nee
rake
##uzz
##fying
noct
spade
hike
sem
##ulum
elastic
uhhh
mete
synd
wintertime
undis
students
seals
##ificant
technic
elbow
beads
blasphemy
mamacita
stark
##onge
imitation
skips
proves
badmind
##aculate
mustang
polka
hoods
dominate
##yyy
privacy
psychopath
unlocked
immediately
kryptonite
hord
mein
blouse
nicest
verd
drownin
mastered
fanny
deserted
sniffing
biscuits
rebellion
rattlesn
hieroglyph
##beams
batch
oly
pitt
나
##ride
soles
babes
yeah2
monica
fastest
bathtub
obsol
##strong
lugg
##rina
hool
craig
illust
polished
solved
violins
malach
maneu
geese
bubbly
triumphant
franken
neighbourhood
cuckoo
relapse
98
##ieu
##roe
moo
unload
##she
contained
passive
momentum
forgave
series
mcdonald
dweet
sickening
##iques
sophisticated
irie
sess
ween
##issed
someway
speng
bitin
engu
nazi
grabbin
pharm
hairy
bulls
superficial
invasion
drumming
dreadful
bubblegum
invested
nickels
vulture
chimes
scotty
eliminate
bip
plight
##ancer
confirm
shorties
parks
potter
survivors
homesick
promising
frontier
##bbling
accust
splits
masks
profile
urg
streaming
available
abstract
embedded
obsolete
engulf
hannah
pix
wham
##oks
##ilo
sper
organs
amuse
swoon
adrift
##umba
decomp
##cede
juug
rehears
navigate
crickets
halt
dood
defect
goner
impala
purify
infer
peepin
reflects
hottie
teardrop
perpetual
pyramid
evergreen
robbers
tad
tumblin
via
##itton
award
esc
flashback
casa
squeezing
choosin
relieved
styrofoam
ness
forfeit
fraction
clones
##tails
comr
twee
demo
throwback
drivers
mills
haircut
cleaner
accur
shedding
sheltered
conqueror
brushed
authent
imperfect
bamboo
spooky
leisure
krist
nug
##hor
##itivity
trif
blitz
plut
manne
##amel
dimin
glen
arts
missile
joan
pero
confetti
misplaced
drowns
shutting
revolver
malice
hahahah
provided
##blade
##struck
graduate
superstition
kodak
92
hunch
kris
##ouri
##eter
hardy
disill
truest
##quito
sawed
beginnin
courtes
enjoyed
michelle
cocoa
gemini
indifferent
emperor
nephew
bs
wield
it1
fees
fah
fluff
scul
shouldve
trey
apost
witnessed
consumes
ooohh
bumps
struggled
valet
rotation
rangers
shimmering
treetops
spengler
buds
interp
diner
##rrr
unstable
writers
benjamin
coincidence
ancestors
chalice
bik
lance
upgrade
##ilah
##tag
sey
skee
navid
##assing
##endo
sadder
murm
##brush
info
grimy
hahahaha
statues
geron
ideals
khaled
navidad
ced
cush
ehh
rus
##cca
sob
soakin
knick
wayward
girlies
guw
untie
phon
guessin
hummer
trickin
pints
dissing
##boro
becky
superstars
enchant
400
75
dotted
jere
ses
you3
lizard
comma
sumn
decade
sprinkle
cellar
lingering
produced
profits
stereoty
predator
hunnit
dispos
maggots
excelsis
아
##ower
trophies
asph
##oko
fearful
smoker
torches
cellular
defending
binds
porno
airplanes
stamps
hula
sut
##lene
thatll
holiness
degr
drying
screws
acceptance
recommend
achin
mitch
##mast
##onto
##thang
comme
adop
payed
milly
fixin
weights
explained
engaged
cyaan
anno
experiment
threaten
tombstone
##ounced
devastation
accustomed
geronimo
rar
##iat
##ᅳᆷ
##owl
trous
teller
motives
surprising
speedin
recognition
fiending
fetish
scorp
symbols
ankle
ceilings
inferno
vehicle
injustice
dats
jur
rite
##mie
##uting
isol
hend
hehe
reass
labe
lament
brittle
headline
adult
passions
trapper
comfy
surrendered
dinosaur
formula
equality
bolder
##vette
oblivious
cliffs
zipper
prodigal
blizzard
nint
wim
chamb
mango
##rier
pact
beaming
bloodst
bedside
squat
hustla
sharper
entwined
peeping
reverie
indecision
piles
peeled
yawning
enormous
gull
lent
sushi
거
todo
##itudes
skating
mayhem
carpen
sleeper
desolate
forged
intens
branded
locker
crashin
bumped
slammin
indifference
jazzy
dated
kab
mong
yore
spotted
boop
booked
macho
peer
contempt
serge
misfort
bustas
lads
treatment
intervention
waistline
draining
insecurity
contradiction
omega
intimid
goblin
monopoly
pou
pans
##rants
##ads
paj
carriage
colon
syl
synch
gangbang
factor
lynch
vacancy
snapchat
efforts
timid
imperfections
vuitton
ricochet
alexander
kamik
symmetry
misfortune
dak
nearest
##wall
##inges
unborn
cashed
bandana
shifts
flicks
underworld
rastaman
complexion
tyranny
faggots
gga
##odles
holo
##roo
brr
diver
poppy
starring
yoga
freck
crips
purge
infra
##mpre
jacuzz
department
backstab
affected
germany
##adelph
kaleidoscope
3d
vick
##lies
##illed
chore
plunder
mayn
beatles
##uba
##izes
ide
deli
hyde
laden
spends
bottomless
shaft
shoreline
mystical
mackin
majestic
attractive
preparing
symptoms
nostalgia
dreadlocks
undefeated
luggage
exes
##ouche
resort
famine
hungover
persons
slippers
cassette
irresist
undeniable
##rings
##lier
##oto
lore
tippin
moans
colonel
purr
ashore
truckin
celest
picnic
alaska
ceilin
##nate
loveless
babygirl
aging
offense
envel
mais
dazed
##caust
taunt
##xture
aces
calam
closin
collapsing
judges
drifts
revolve
jackets
breeding
jeezy
frankenstein
ebb
hive
##idi
##opher
abd
brokenhearted
solutions
notebook
janet
jenn
russia
cunning
psychedel
carcass
##zilla
##chem
nob
##irv
##odes
mund
grades
untied
descent
desired
sized
sorts
denver
delilah
billboard
detach
beginnings
redeeming
shrug
luna
identify
scientist
dynasty
altogether
olymp
##vations
someones
##ises
unve
jackpot
multi
resurrected
martyrs
complacent
library
kennedy
disillusion
gel
hunk
oasis
##urbed
hockey
nighting
peggy
##cia
voca
misgu
evap
dinah
paddle
stinking
gaza
krs
facade
##kick
##las
stump
fauc
again1
disper
eli
resident
serial
institution
treatin
settles
oppress
domain
bodied
shaggy
rak
tus
tuh
##au
shhh
unending
##osure
resid
braggin
robots
uncont
1000
weeps
instruments
barbecue
86
##enance
alleys
diff
##istan
starvin
wishful
##mmm
ballroom
insult
boxing
shaq
101
opps
pining
jeweler
mashed
explosive
stairway
stamina
orient
nocturn
##ran
##keep
##cad
yous
##eare
##urt
cog
hex
troy
waffle
fallout
hardened
flyest
blueprint
charging
tryina
sprink
parker
blooms
relaxed
severe
dumped
seduction
bubbling
trigga
demonstrate
caviar
jin
tamp
allerg
clum
slob
flap
comic
##ahh
shakesp
drastic
recip
dooby
armour
dining
scarce
shocking
immaculate
elephants
staircase
monument
##gi
##eros
whass
coven
##athe
skid
silenced
insom
remaining
cruelty
credits
emerge
holocaust
##lorn
##cla
##bop
altered
bugging
arse
fighters
barbar
instance
buster
salary
##seline
grocer
feedback
cypher
joining
pissin
chewed
dangers
jockin
serpents
blossoms
wrestling
##quisite
kidnap
extinction
asphalt
celestial
kore
##nia
##inem
sprou
mant
##rich
exhib
cribs
regal
microw
##laimed
existing
mammy
guarded
sneaky
##vania
conceived
intrig
stiletto
beggars
duffle
##oro
dop
justin
##odus
mobb
dreamy
christopher
murdering
chica
hoochie
sewer
deserving
invention
condemn
schemin
beyonce
guwop
clumsy
whassup
nough
##eh
shay
timin
fag
faker
swears
enh
foreplay
fireside
meanest
nobodys
apoll
##abeth
paste
darken
brotherhood
teams
mixin
stalling
strayed
empires
jagged
categ
hippy
abroad
slope
sull
turner
##asso
untamed
surgeon
sandals
##hhhhh
mainstream
skippin
##anova
lambs
heathens
reunion
aeroplane
##로
##rem
##itters
drones
earning
begs
##ancin
steven
convincing
including
dessert
jars
piling
tuff
shops
chub
scree
monroe
airwaves
remark
harbour
complet
cocktail
weaving
battling
ferris
rabbits
unwor
pyramids
whitney
gabriel
lousy
malachy
zones
##rot
##py
butts
plugged
reapp
daybreak
rung
woii
mint
collab
clapped
testimony
bumpy
policeman
measures
predictable
programmed
bracelet
occurred
handshake
google
hann
yam
resemb
ska
missouri
coloured
sentences
exceed
breezes
transparent
disarray
kamikaze
izz
##word
isa
##omon
wailing
devi
brun
daff
carrie
pleases
roadside
fadin
catalog
construct
porter
communion
entertaining
chucks
dandel
hovering
liza
##idy
##cell
notor
nightfall
dia
disast
minnes
fellows
transmission
venice
scratches
motha
grammar
fortunes
genesis
jokers
ora
shards
faze
##ppe
spared
ware
sul
flin
##ulty
bitching
realised
muslim
kiddin
resour
eyeb
bangers
salv
jackin
gasp
##oooooo
folds
werent
ruger
execute
vapors
nintendo
jennifer
bia
dashing
wif
##ends
##itals
amused
poop
endor
unin
twos
hitler
heavyweight
rumours
puke
virg
boardwalk
ferry
lamps
corrupted
benjamins
festival
dill
dud
latter
nile
##have
thaw
saga
previous
rages
soulf
motherf
research
brah
thanking
charade
speck
##actic
expire
spillin
flooding
pitbull
caroling
forests
applaud
explosions
smothered
affliction
progression
42
ike
##ser
##vol
stout
chops
##amus
##ssss
buckets
afl
adieu
monk
millimeter
useful
senior
regime
radiate
posing
sailin
flashed
reelin
breeds
bondage
meadows
untouched
sniper
kangaroo
saucy
arthur
courtesy
bere
mould
ody
ping
##upt
liz
loops
upright
##few
depl
##urned
slot
fucka
smugg
grains
tres
remn
funkin
innov
erotic
cartier
jules
chanting
tsun
wesson
idiots
shakespeare
fay
##uch
##jac
##utt
##tho
hola
download
clark
##pez
showtime
exodus
silic
hollows
reef
diplom
pilgrim
rivals
merciful
rational
##cre
##fi
hazard
trinity
wholly
girlie
scout
##ontent
complications
litter
panther
petrified
valu
medicate
threatened
nym
arguing
rattling
venomous
selection
deposit
carpenter
##ext
cact
truce
compens
raving
strate
##ptop
disd
watered
followin
miscon
erasing
discreet
casc
discovery
nicer
clueless
congress
concentration
accepting
nauseous
chels
outd
clit
heartb
swiss
cramp
farmers
sedated
trampoline
shaved
souvenirs
infatuation
inhibitions
conceited
submarine
envelope
gord
tats
##aways
##ku
##cons
##zan
##utin
sheer
plush
##rag
diane
scuff
soull
crabs
handing
missy
desolation
curfew
couples
memba
candid
chilled
personally
gasping
shipwre
scaring
terribly
urgent
frowns
oprah
imperial
galaxies
confrontation
titanic
sturdy
urgency
irresistible
2nd
fbi
mardi
shitting
##earing
dooms
chaka
outdo
alf
##ilize
daz
unm
quin
particip
hitters
riots
pictured
shoutin
evange
psychotic
kilos
occupy
extremely
stanky
rattlesnake
31
pm
rigg
baggy
##odo
##amore
platter
abom
cutl
daring
ceo
penal
graceful
gracefully
tempest
recovery
coffins
valent
quarterback
atlas
audio
##nox
unfolding
rooted
assholes
fueled
earlier
cathedral
shudder
uses
##function
##gull
logo
##unge
pappy
badass
sinatra
##izin
##undy
##bras
cornered
groom
snappin
connections
entit
gorillas
##world
lure
모
##master
coppers
##odie
nel
seeks
suzy
imitate
prejud
warms
slowed
angelina
recline
homo
homage
ranch
thrilling
marchin
introduction
phrases
casualties
receip
swishers
hinds
merrily
tiffany
jacuzzi
##illion
sheila
slides
comments
drifter
weakest
vertigo
elementary
pendulum
finessin
deprived
aph
ul
ys
마
##하
tiki
worsh
##rice
homegrown
glac
quot
blacker
muss
awards
ghostly
pretended
patrick
magician
boobs
tangle
trunks
touring
selfishness
commands
blazed
peaks
shreds
steaming
establish
sabot
soulless
dic
uu
##hol
##pan
##leys
woody
persec
felony
ghostbust
legions
scram
massage
slaughtered
civilization
rifles
splinter
illuminati
columbus
clenched
eater
fumble
lark
nitty
##dale
shir
cod
chow
leo
aroma
qua
##osity
helmet
flowed
##anky
smoky
dopest
clockwork
snapped
yahweh
delightful
dominoes
unworthy
strategy
시
##inery
caan
##urry
##oda
##icia
neverth
laps
comat
enters
bangs
richie
billions
duct
fifties
scraps
##club
revelations
channels
heavier
minnesota
pess
##cence
totin
me3
##aron
breth
pooh
adds
bedtime
felon
joyous
regretting
hunters
aimin
journal
wiping
gurl
required
unleashed
tolerate
monsie
essential
psychedelic
chelsea
##ᅧᆫ
##imos
vogue
tens
banged
mountainside
catfish
banker
oliver
arranged
sanctified
waltzing
disposition
##meanor
n9ne
nevertheless
cured
nim
##hen
haa
tippy
analog
lave
fleek
acade
awww
composed
terrorist
congo
opportunities
greek
dys
forwards
hep
everyones
##ppity
lazar
poetic
##antis
reduced
##ocate
triangle
murderers
ruling
biatch
swelling
gamblin
timbs
frenzy
fundamental
ih
mula
##나
soo
forlorn
caj
youngins
powered
misfits
carryin
busters
memorize
medusa
tallest
stomped
reckoning
amounts
trauma
elizabeth
labeled
cds
##kirts
##pace
##의
##llie
hait
nostr
backup
##eady
scab
underrated
brocc
##agger
taped
reds
cripple
##retta
##bbled
gangs
twists
clocking
casts
subside
cyber
director
hollering
defender
turt
slappin
paintings
cuba
lurkin
currents
dolce
determination
fuego
oooooooh
cactus
cens
vas
##bis
theater
##atisf
shalt
suz
swar
newest
##ilda
##agn
snot
seagull
retribution
futile
judah
cowgirl
##ergy
flashlight
condu
pairs
motivate
lalalala
continental
maneuver
sperm
darts
##21
webs
spra
wag
goodie
convey
floated
snugg
##oves
##itches
dracul
pickney
##ilton
testin
jammed
foreigns
cheeba
gutta
portray
sewed
nurt
girly
various
giggle
misbehave
annihilation
trousers
apollo
broccoli
oop
##기
##alf
alchem
manuf
clea
scold
woken
fizz
ripple
##ashes
feedin
daydreaming
performing
collapsed
clawing
hawai
misbeha
amateur
manufact
now1
fleas
homecoming
quant
##oso
##shift
finan
acrob
strand
humility
snowing
murphy
patty
terra
spokes
fussin
tyrants
guests
mushroom
vamos
isolated
nightingale
brethren
aj
##lee
##lia
##jour
whiff
lopez
outst
roars
mosc
coloss
richest
horrors
dupl
sensual
picasso
shattering
gigantic
lalalalal
arkansas
pessim
84
##kah
##war
##orms
reagan
waka
dares
##pso
##aren
winston
truthfully
midas
loudly
accus
jamie
interior
certainty
broadcast
##arius
comforts
voulez
authentic
lazarus
ik
oye
rites
sided
##rell
##elling
daa
exquisite
##cock
cuando
keg
pussycat
clothed
temples
attacked
capone
warnings
cannons
##point
dangling
defenseless
acquaint
hashtag
##repared
misguided
59
bide
rect
relevant
pep
quitting
missus
assure
monst
##onsider
barley
bragging
devoured
scratchin
scores
##inois
liberate
cadillacs
##blind
barrio
hesitating
blisters
sympathize
bers
digger
##pri
##isa
stumblin
forge
caffe
debbie
swole
##ourse
layer
wits
solomon
spreadin
cycles
preser
grooves
magnify
sacra
mansions
displayed
rhine
superstitious
renewed
crystall
sequence
wendy
chauffeur
hindsight
gums
##cers
##earts
sponge
abortion
slop
sleet
sufficient
warren
##shake
futur
snowy
commission
incon
ninth
provoke
stirred
bishop
meteor
74
tas
##uten
cocks
callous
firelight
hitter
missiles
resume
mischief
refr
squirt
election
##version
newspaper
toughest
##cerity
unbear
1999
dentist
dolphin
comatose
dilly
gb
sips
tch
xana
thots
##ingu
##illing
down1
atone
nightlife
flea
flint
offa
perd
behalf
##boot
bombay
costume
miley
thai
ritz
chanson
fascinated
commence
nocturnal
doth
iko
kate
##inated
##utti
##chair
##illes
blog
plated
##oka
tally
elevation
hologram
mondays
frighten
##orescent
krazy
verdict
pajamas
groceries
monsieur
54
lush
tuss
##hu
##22
timer
placing
spur
peck
faraway
sidelines
shoved
uhm
ballad
nearby
regards
##ruly
deton
borough
annivers
beeper
##ophren
disturbing
insect
architect
imprisoned
sleazy
werewolf
millennium
telescope
disdain
cashing
lp
##peed
allen
donuts
atop
suis
cram
crane
##azine
temp
transport
harmless
groups
pursuing
misunderstand
multiple
makers
tutti
mistreated
sergeant
a1
fum
yen
##love
##cop
tracy
frying
lightin
racket
unrel
edition
storming
traveler
romancing
robes
casually
majority
philadelph
greetings
mhmm
legalize
360
pronounce
assuming
pesos
subliminal
vot
vato
witty
##rh
##ois
neo
clarks
bras
broth
##ickin
minding
prisons
expense
quik
graph
bluebirds
rested
ghou
selfless
evils
djs
generous
systematic
crushin
frankly
propose
mortg
grenades
endeavor
spectacular
cristal
anatomy
tiptoe
annoying
nad
tanger
##yer
##sens
##owned
fakers
rosa
##iggity
supa
flops
overgrown
##tos
pel
soundin
queue
readin
reform
climbs
shawn
cosmos
debut
snitching
stashed
hummingbird
saxophone
bluer
schizophren
mick
##inating
belf
arena
seater
stricken
pager
##asha
retired
sufferin
wreckin
ryan
campfire
courageous
accounts
batteries
omn
rhet
unprepared
glamorous
alarmed
barriers
vexed
radiation
eskimo
nursery
interpret
chambers
berserk
aur
airl
eres
yess
thic
loom
shaka
##ople
##ogen
budge
cherok
pinea
smashin
teenager
predic
kenny
sniffin
90s
bingo
walter
peasant
sharpened
rehearsed
##gle
##aration
canna
oh1
tipping
##fel
belts
ungl
diso
adorn
cheque
hotels
illinois
relay
tenth
retro
##ricate
legion
defying
defines
entering
revolving
spraying
violently
tucker
outskirts
splendid
unfaith
lewis
adolescent
bachelor
faucet
97
##yards
onion
socc
canal
heir
##alm
##robe
abusing
highness
streetlight
doorbell
cheering
restrain
shotta
payday
insin
devilish
trae
fairly
fatig
corvette
fitness
benny
debating
kinfolk
organized
occupied
bulb
reservation
mosquito
embarrassing
morphine
microwave
lavender
hawaiian
soccer
poking
##rums
##ointing
thes
lod
##eden
cance
downward
##iph
##berries
exagger
grub
fullness
metrop
vix
countryside
defiance
climate
loading
plugs
approve
ditches
##vira
assistance
hysteria
valuable
xanax
##oused
toad
##mel
camin
##ainable
emph
crumbled
foundations
strait
picky
dreary
subc
steadfast
jewish
lackin
cheerlead
undertaker
tackle
siempre
vagabond
university
burgundy
clinton
eul
##mart
##rust
##arse
##aland
lair
clipped
homeland
foo
folly
elusive
elvira
silky
##rieve
gems
bothers
strobe
threes
tours
weakened
appreh
connecting
dodgin
utopia
dominion
trillion
mortals
dismissed
graduation
millionaires
strumming
resentment
refugee
shangri
dracula
meck
soho
nois
sauna
dips
exits
unruly
##cos
##agen
cheater
tresp
christmast
lowered
##abra
fives
toronto
wrapping
incor
incident
digga
automob
counsel
reference
jokin
lumber
yodel
##stru
##ived
cli
provin
##udd
##mail
monot
pastures
nicely
stylin
tests
persona
machete
glowin
telegram
oppose
postc
risky
julia
stalkin
sarc
arcade
trampled
cottage
barricade
brainwashed
document
remnants
cavern
##urai
uplift
saus
##istics
ripples
disturbed
dopeman
sista
southwest
replacing
stunning
razors
##eeeeeeee
plaques
specific
doomsday
arose
douche
tingle
canon
withstand
##igga
strains
unsh
madison
##vial
obed
attach
mastermind
files
conquering
buns
emptied
dwells
charlotte
taboo
##iiiiiiii
decorate
elders
synthetic
diddly
alternative
construction
notorious
aflame
600
ess
iii
mumble
nip
ost
pc
toi
##ori
hazel
cada
hoops
##adian
##ppo
spies
looky
away1
skates
godless
earrings
mercies
fuzz
senorita
inspect
retre
satisfies
interse
scarf
samurai
##spring
spoonful
stitched
execut
redefine
ghostbusters
philadelphia
rican
##wire
##23
##다
stella
##asher
seep
laud
swipe
convention
mare
arsen
quo
##udo
##retion
visible
climax
discontent
casanova
##hhhhhh
governor
fussing
disgusted
##writer
dimensions
overthrow
insects
avalon
marshall
rampage
established
technicol
ft
##beam
##atile
caly
noses
noodles
tik
##igree
sap
asc
flats
seaside
keisha
##mming
witnesses
regain
##bridge
paradox
advanced
instructions
bounced
sowing
computers
increasing
canyons
misleading
bolts
vigil
aggrav
rinse
pluto
anniversary
christmastime
beet
mue
mace
nirv
rumbling
yip
##mans
##mont
##nels
##rs
##lets
##oom
outline
asunder
backin
##itta
worldly
conquest
carnage
musta
##ussion
eyeballs
##awa
angela
tricking
splur
buzzed
sneaks
macar
##blood
cindy
splinters
visualize
orchestra
corridor
tethered
sneeze
kolo
panda
##mony
##wu
ont
hoh
##ardo
suave
##oha
hiss
woooo
compose
humili
jeky
terry
attacking
flavour
bleachers
brigade
allergic
avi
##rane
itchy
meds
cappin
heating
trife
tipped
##igans
deuces
orgas
dizz
parag
mommas
mira
passengers
ticky
preachin
beefin
hurricanes
nanana
skateboard
gimmick
riddles
customer
squirrel
fractured
souvenir
skyscraper
pestil
metaphors
ery
##inder
dej
dex
abc
calloused
breakout
##plan
hurrah
floyd
residence
decad
calico
insert
ciroc
locust
##aaaaaa
officially
etched
teenagers
ronnie
calculate
spikes
49
fatt
jude
knelt
##ados
##aina
nevermore
desec
byg
mustache
tappin
contrib
##uffin
probation
southbound
turbul
antone
hennes
uncut
##space
gaye
possum
scorned
egos
housing
unfaithful
nirvana
hinges
kara
wease
toots
bale
nightclub
overh
tweed
##ista
maple
promote
tyler
jeze
##ceptions
##dda
discouraged
slew
postman
squeezed
atlantis
doubled
practicing
cartoons
encourage
unforgiving
include
daffod
nymph
jekyll
cess
gna
rita
##chea
trot
wale
##umper
moody
overall
woa
strateg
##shore
motherland
##apers
controller
borne
madden
burgl
visits
smokers
addition
submer
cataly
chico
holster
surfer
talib
comfortably
railway
##ciless
bogus
constellation
locomot
mascara
##claat
rue
vatos
##av
nect
mantle
##akis
highlight
tonic
carp
##aho
helpin
beginner
##azi
luckiest
nerds
nino
provider
##tales
bosom
inferior
cherokee
zeal
##ghan
baa
##oding
hoist
amig
unu
cargo
greg
firefly
pasta
peacefully
boxed
browns
dylan
posters
domination
##ports
matilda
150
mailbox
reno
anchored
nyc
gleams
narciss
persuasion
egyptian
inhab
9th
wading
##inin
##kety
befo
copping
##thro
howard
amore
uneasy
warnin
##ignon
gib
vogues
hideous
##rence
merciless
viv
impal
indest
undes
birdie
electrical
rudeboy
bailar
council
qualified
brimstone
tomatoes
sycamore
kart
##nut
andale
stern
lovey
theyd
##teries
boils
keepers
##anges
prosec
ripper
blueberry
decre
bomp
questioned
princes
risks
centerfold
threatening
convictions
reggie
civilized
rednecks
enlightened
hassle
cajun
outstret
caffeine
rant
beater
##isms
stif
##idin
##iry
anal
wholes
clench
woven
maids
##alled
fireman
sideline
raincoat
stems
subd
grizz
machinery
furs
rubbers
pillars
interven
##mob
comforting
seduce
mariah
hippies
ketch
cobwe
##power
militant
fero
다
##nu
##25
downhill
fable
lookout
boppin
bobo
eminem
forgettin
melod
##mesis
surroundings
electri
cultiv
dependent
interests
dividends
receiver
##killer
incarcer
accurate
indestruct
fm
nba
##len
##but
##zone
##esses
sheen
rex
bally
##lys
outa
neverland
semen
rafters
arrr
starved
marches
creak
bravery
decades
recent
classics
strangled
unlim
spoons
etc
swells
flossing
accidents
studying
khan
venture
intellectual
scape
crescent
heartbroken
calypso
dp
ferg
sans
##pass
##atta
##eage
bezel
##ett
##iven
swa
angelic
shuts
pressures
##eye
dividing
hipster
deceiver
rubberband
winged
husbands
billionaire
cocoon
rapidly
boulders
convenient
entitled
sabotage
aaron
cking
piff
whacked
##omi
suited
flask
##angles
prose
meanin
sidekick
sincerity
marian
brokenness
learns
distingu
india
statements
splatter
destroys
jimi
##onai
skel
inflicted
characters
unlikely
obstacle
abundance
synchron
outdoors
57
bry
meen
pj
pets
##urg
##ango
ragga
boyfriends
yoke
reserved
payments
thrones
tribal
violets
extre
rubbed
hookers
dyke
21st
strokes
lesb
polluted
oyster
absorb
fugitive
unraveling
reconcile
treacherous
clientele
mannequin
canopy
##alin
blud
handled
yoy
##xton
iller
dripped
tengo
lye
diggity
windowsill
boogaloo
dissip
nonstop
negot
grinnin
chewin
gators
scenario
puppets
ooooooooh
individuals
divinity
obtain
tsunami
indestructible
unlimited
87
geah
humbled
ia
jody
samba
##mith
##lash
nemesis
frutti
asap
dayt
runaround
leakin
rae
quotes
adonai
peril
midget
dads
clockin
engraved
affili
advise
couches
connects
accidentally
amend
cabinet
thugger
luda
piv
zim
난
##wered
atoms
abort
slog
agents
amigo
nave
dazz
friendships
pasture
sadie
esco
owes
catac
evac
transition
venue
pedigree
caressing
beckon
pawns
contrary
dissect
scooby
subconscious
8th
mp
nt
nour
omin
ss
whiter
reper
dolo
backdoor
deity
decap
flute
warrant
minnie
reluct
bomber
welcomed
devices
aimless
gallery
stainless
prospect
frequently
cyanide
terminator
methods
consistent
jessie
rehearse
vader
##aj
timeline
sphere
swans
lecture
blacktop
colomb
compound
mermaid
chestnuts
expectation
addictive
condes
logical
shatters
lingerie
wiggy
simplicity
developed
honeysuckle
ceremony
89
luh
##otics
on1
##arin
bakin
hagg
hamb
upd
chumps
##icial
spouse
headstrong
##coon
caramel
reasoning
minimal
decree
patr
boundless
classroom
cellphone
entity
equally
garvey
announce
danie
unclean
tomah
boldly
lennon
tendency
adventures
brutality
manipulate
ebony
gawain
sleepwalking
dismantle
infrared
disperse
uncontroll
unbearable
cannabis
unglued
hens
##wave
##came
thun
whales
doja
##amuffin
sapp
abb
cutest
barrels
refined
##occ
cower
designs
tarn
stunned
rejoices
sickest
arriving
ipod
mwen
soulful
nectar
ditty
lum
lama
mesh
##isse
loathing
baham
noticing
roasting
emanc
nag
painter
painless
bloodstream
sumthin
greatly
primal
strips
pathway
tunnels
clicks
mended
approached
dumpin
organic
thumping
swangin
unspeak
prettier
hendrix
emancip
ek
zeros
##만
bac
time1
laptop
moet
nach
##anti
unne
pah
sadistic
retain
oww
extension
ruining
audem
planting
barkin
woohoo
escalade
ghouls
aus
ds
gush
rame
##pired
##atus
##anz
##arf
##edes
bak
anten
plots
spurs
##essa
couldve
##olas
overfl
leagues
leh
morality
dries
delusions
shares
wetin
licky
##flix
hmmmm
turbo
sensations
##aaaaa
importance
flickers
targets
unwanted
strollin
bronze
havana
prodigy
steez
feminine
covenant
outstretched
kali
migo
ration
go1
alliance
haiti
##illery
chili
##adas
##icating
amo
newly
wilding
parson
snowball
squash
committ
specially
olive
condoms
schoo
mending
sherry
gazed
reinvent
conjure
cyclone
rakim
jakes
##god
##들
nept
##adi
##icin
raft
daggers
glitters
cuer
releasing
crossfire
sentenced
films
cherries
separates
tuning
stinging
fountains
netflix
immortality
jasmine
cobain
unfailing
39
gals
hul
kirk
ola
coil
wayside
spart
conan
premon
godly
unrest
glaz
watcha
descends
marl
burying
distortion
boxer
unsung
revolutionary
stunts
whistles
portland
doggie
lurks
unbound
lauren
synthes
sketch
huddle
recreate
crusade
comrades
46
dilla
ggas
lb
##ivin
you4
##atical
##eto
shm
islam
geto
anotha
cluck
##tingu
crude
diseased
warmed
##quent
tavern
awon
##about
bracel
creeper
ernie
elected
medicated
burdened
wolfman
milkshake
##iterate
impressive
tecs
halos
lashes
margaret
fisherman
segreg
fairest
postcards
ferocious
crou
gou
jell
pong
zay
##mys
##ingo
##enne
locket
hasta
##thew
nem
outchea
hells
household
reserve
remo
controvers
brightness
intricate
regist
addicts
heaters
dusted
digs
westward
squeezin
annoyed
rything
boarded
tendencies
meetings
rearranging
jagu
printed
infatuated
nelson
bracelets
iy
muck
nub
omar
sissy
yute
##bones
reception
chh
anoint
needless
lever
##imated
endin
crease
charle
superm
trivial
masked
romans
northside
format
samson
complaints
moanin
educate
pennsy
katy
britney
restraint
pronto
gusta
scaven
captivated
scooter
jezebel
unnecess
fumbling
kell
lula
steed
timmy
atroc
leaks
immer
##pling
mara
awakes
secretary
booties
interlude
fanatic
motionless
balanced
hyped
baila
fronts
fetti
brewing
beckoning
facetime
ohohoh
suburbia
mechanic
ascending
santana
catalyst
locomotive
unspeakable
mature
##lvania
##jay
##xual
##kel
nelly
plac
spears
##anga
offspring
smog
tween
daba
adoration
floorboards
##iza
mistreat
apartments
dollas
supermar
digi
accomp
quitter
savannah
tombs
plagued
stinks
mathematics
amarillo
##atisfied
pineapple
##nold
##cotch
thugging
##addy
eman
concede
realist
forecast
##emon
slowin
margie
complaint
pressin
yells
equip
hopelessness
scraped
appearing
berries
malls
revenue
officers
binding
impressions
##strings
baptist
bewild
weasel
zu
##mall
##isk
##alay
ife
##rast
##ellar
orna
godzilla
grav
grail
helen
adder
sient
harness
strangely
dawns
heroine
capit
equation
villa
mexicans
satanic
phantoms
hugh
achieved
rasp
crispy
encounter
dakota
houd
pores
##gates
noone
chro
amphet
drugged
foss
mai
extingu
uncon
handling
marched
lieuten
##oga
recess
committing
wrapper
silvery
ageless
affi
revolves
fistful
seeker
toothp
subtract
accomplished
roxanne
hieroglyphics
russell
penalty
mit
##tan
##leness
ony
loos
seeping
lett
sunburn
bucked
mire
admin
##ortex
ballet
verbs
entert
dinero
##ucers
asth
astral
susan
talents
providence
convicted
carelessly
napole
sparked
baptize
customers
skyscrapers
indulge
humbly
eyebrows
refriger
arist
eif
zod
##cken
##24
##bike
##zay
##llect
##sels
##iri
##ppen
rook
mundo
singular
surge
pricks
weekday
obnox
paso
furry
hoover
cyah
wickedness
candyman
willingly
gyps
dunes
anchors
slayed
suggestion
klan
vitamin
ler
##aired
##watch
##lar
toaster
##leon
chame
##inda
fags
##roof
delights
singles
##sha
##neck
admission
pickle
booming
defiant
corona
artillery
slender
garments
publ
religions
muther
rosary
thumpin
titanium
tolerance
guinness
chubby
cutlass
mortgage
vixen
bil
fitt
##hire
##bro
##llo
caved
docks
traced
##amela
discri
tae
moonwalk
daddies
applic
confine
suppress
retrace
liftin
raping
divides
##roned
gripped
switchblade
panama
devious
punchline
continuous
prophes
nickname
vicod
plaque
lorraine
frayed
barbara
slumped
churning
mediocre
jedi
prejudice
pivot
acap
dvd
vind
##ought
##inas
##asions
withering
nev
albert
##ileen
spilt
mindset
enra
mustn
barney
##lining
region
colliding
dennis
factories
splashing
deput
hollered
wheeler
shelves
discovering
bursts
tinsel
fluorescent
axis
aqui
tulsa
pioneer
lsd
noisy
obnoxious
cee
fated
hence
hugged
x8
xxx
##rates
##owing
shu
shen
shrie
frig
laby
sledge
##athed
scour
smold
davy
unans
bodyguard
illin
misd
tribul
griff
birdman
portal
practically
matthew
pitching
greeting
convo
lurk
tubes
gimmicks
management
persistence
helicopters
dictionary
futuristic
kard
koo
##tic
##stock
bebop
##isance
sabb
whoops
gonn
consent
quart
crypt
tabs
silen
completed
tribes
medium
trickle
calmly
revolt
entry
resisting
puffy
shifted
approaches
bluffin
firmly
patches
ballerina
employed
kurupt
gesture
tangerine
##rats
##ook
##zers
stored
hak
shey
manson
wally
##ulent
##acha
tremend
##mored
tene
sticker
softest
undying
expired
loung
basin
ambitious
afternoons
nicole
##rinth
reservations
migos
optimistic
infernal
wanders
wrinkles
impulse
ysl
sacrament
eiffel
aime
gul
gale
##hist
##lli
andrew
beng
liable
immen
lightening
unimp
partridge
marion
wining
mony
harass
solita
scrilla
cherie
porque
sighed
pitter
swayed
microphones
wipes
scorched
stamped
frequent
##burgh
principal
fascinating
priority
wrinkled
pestilence
labyrinth
unanswered
icing
jb
##ais
##fra
##urus
##alie
plunge
boond
##uled
##ulsion
conver
conqu
tends
crossin
charger
digit
drawl
rumour
awareness
##drop
piran
incredibly
fulfilling
flocks
napalm
backstreet
spiraling
einstein
trinidad
pitts
calamity
pennsylvania
tribulations
7th
biding
nets
tet
zin
caw
anesth
wills
lax
##iman
headless
ensemble
crazed
teasin
windowp
commod
bowls
capacity
vanishing
weaken
slicker
##ophane
rodney
cynic
marshmall
obliged
cranium
unplug
disintegrate
twinkling
omnip
gumbo
yams
##rene
iniqu
shrooms
yeaah
flann
belive
##best
godfather
talker
quic
freesty
dougie
whichever
worryin
quickness
strengthen
roma
pinnacle
desperado
lifetimes
procrast
grinch
gallop
juggle
exploded
warden
##cracker
politely
vegetable
theatre
schizophrenic
paragraph
overflows
pals
yar
##isl
wana
##amor
alad
aloha
##roach
emma
endured
starb
insat
##bbit
shameful
memorized
casey
wanderlust
electrified
##parable
tuna
dipset
guarantees
punct
declaration
permanently
earthquakes
percs
##shells
granite
deliber
sullen
charleston
##mint
injection
##aris
haile
bland
##pels
diagn
lemons
playlist
##coy
beaver
##shop
context
snub
sorcer
stripping
iceberg
twister
lockdown
borin
techno
textin
cabaret
blissful
fairytales
reminiscin
declared
necessity
trembles
aaaaah
cussin
hemis
crystals
34
ufo
##ez
##cro
##aye
nots
fruity
##iem
blake
therell
yeahhhh
heartstrings
orb
breakers
vibin
##viol
boombox
soften
bootleg
erry
emotionally
provides
approval
beanie
expanding
prostitute
coyote
prometh
opponents
wes
xanny
zulu
말
##rations
lids
goli
##aders
saggin
brrr
oohhh
peg
prolong
arctic
disarm
uhn
bougie
attire
stripe
legisl
rosemary
weatherman
erad
cellophane
tarant
collective
gaps
karats
practiced
campus
avenge
opposites
shields
avec
subjects
viper
365
optimist
novoc
vendetta
informer
reappear
72
kel
yan
##pour
##서
##aters
sores
upward
hoy
brushing
smirk
deciding
insign
safest
faked
ignites
masoch
duper
bothering
nipple
sweeps
avenues
tragedies
cuffed
bluffing
stampede
glittering
peeking
prosperity
bewitch
aphrod
higg
huss
js
vandal
##bout
##bred
thund
itty
##melon
##ldo
allright
blister
veiled
rogue
##rian
flakes
drains
ahn
olds
mixture
doug
parlay
mistaking
retali
##vian
superb
defence
transfer
knob
witchu
stinkin
carniv
gymna
parasites
ozone
supplies
persevere
kristen
gnaw
supermarket
napoleon
goliath
eard
kok
##bab
andro
##ormed
socket
doz
roamed
overcame
##ulars
rabid
phases
watermelon
burbs
swearing
jeopard
chicka
panor
194
degen
reeb
dishon
janos
tropic
nascar
selves
frogs
craziest
cavalry
overthinking
joshua
41
obe
##kh
##lete
##pill
##brew
##bury
##ᅩᆨ
stats
##asm
seper
twine
##ema
bluest
apron
payroll
barra
meetin
ringt
refill
sixes
ladders
owo
ponies
discretion
detour
dummies
hollowed
cheesy
flava
meltdown
dunn
commandments
pads
heeee
domestic
disrespectful
gradually
rascal
companies
delusional
corridors
plex
resonate
odys
technicolor
cobwebs
solitaire
51
bant
ceased
jester
jamb
##nant
##comb
##ptable
##bank
##inter
ons
bened
bases
##arted
handgun
sib
parli
memo
cornerstone
beetho
interf
gender
rougher
transformed
bubblin
##nnnn
junction
khakis
kyrie
summoned
granddaddy
freckles
uninv
beethoven
tints
vesse
##rad
##uation
##bol
##igators
flair
maca
##getic
pau
buena
affections
##alling
bringer
smiley
distrib
teachin
grinder
thundering
constr
conversate
locs
rotate
rejoicing
stirs
grasping
ingred
writings
nuisance
repentance
nodding
experienced
flinch
condescend
3x
nix
nanny
rend
canadian
noche
chores
##unes
backfl
##pelo
crotch
midday
confisc
reconsider
collars
freakshow
coasting
echoed
hypoth
psyche
limitations
plainly
nipples
##weather
leech
replacement
##flowers
napkin
wigs
barrier
purchased
interviews
inheritance
##osaurs
shirley
acquaintance
metropolis
vessels
ingredient
jou
jello
##vp
##erra
##lele
noodle
chrom
##uns
willows
clings
moh
prism
twat
peps
afghan
cheats
cutter
acre
madam
comply
##mination
dressin
tupelo
jerks
sensi
microsc
wardrobe
effortless
yeezy
reincar
mangled
flourish
tremendous
vene
zing
##fig
spi
##issance
twe
twig
precip
poof
realms
hardwood
maui
beau
freaked
payphone
smalls
freshest
medals
wrecks
exposing
histor
##ooooooo
caskets
sacrifices
unlucky
foolishness
sentiments
determine
obscure
conclusions
annihilate
tribute
margarita
sessions
grizzly
committee
dade
hil
juggin
thugged
##atown
shipped
up1
whate
hocus
asia
everythang
##roke
waver
aber
flack
lively
envelop
afterwards
resides
frontline
jacking
##ivan
undiv
castaway
poundin
dinosaurs
buttercup
reversed
anthems
huds
bankrolls
muffin
caterpill
##charge
disasters
virgins
zodiac
cipher
dames
gild
gains
mumbling
tugging
##wee
##cuts
##onn
##onk
alo
blit
mobbing
ama
email
eyesight
scored
smear
bitchy
muz
exh
mucho
surve
tai
kidney
growl
##izi
paramed
purg
purses
smelly
spellbound
dinners
2012
clicking
diseases
smartest
ambass
epit
dishonest
vowed
jagger
stalker
virtual
labour
##iht
unchanging
vulgar
contraband
monuments
eskimos
balmain
conductor
vicodin
gil
vette
yule
##erals
topless
##anana
mena
##edy
pocus
badda
meanings
##ifa
##ivable
electro
aimlessly
risking
dubai
##annon
collector
linked
punished
suffice
brews
nasa
beckons
shooby
influenced
aquarius
peasants
osama
bourge
irrational
nikki
666
exorc
uuuh
financial
insatiable
eerie
fittin
jumper
ply
pok
##gic
##itos
limer
cav
chise
hogs
##rika
howls
slugg
semin
ragg
units
carlo
remem
blackberry
hurroo
mikey
##abi
ridden
idaho
##umbered
shamed
forgives
devoid
##rrh
smoother
tingling
conditioned
talented
trojan
tumbleweed
ravens
##capable
unexpl
orphans
shrinking
stilettos
category
lieutenant
lettuce
entertained
aladdin
37
52
hues
juss
jangle
##uctions
##jer
##대
##stack
inqu
##enci
shott
baff
##omin
seekin
##igon
##ilated
herbal
mover
##arte
sliced
##told
graces
addy
perverted
brazy
plannin
confer
murray
clause
givenchy
hilltop
recollect
wanderin
uncles
##lona
shocks
immature
outlast
anticipate
nunca
narcotics
athlet
jingling
chunky
refugees
economic
gordon
parliament
56
800
kk
yin
##ratic
##cled
##bish
tots
myspace
##igm
##amic
demented
lifelong
bossed
britches
immin
foster
headaches
unjust
handles
##aceable
setup
morgan
layed
skinhead
burgers
deleted
saloon
travellin
spleen
buckshot
##ensions
benches
jerome
towering
protector
voltage
governments
necessarily
josephine
overtake
chirp
infested
comparison
jeremy
cognac
adderall
hudson
athe
brist
elf
lub
nathan
##kie
##wild
##bush
bales
##urr
outshine
seething
reader
backside
hercules
boiled
converse
thoughtless
sinnin
giuse
reasonable
momentary
mirr
seatbel
generate
tarzan
cadence
expressions
dovey
examples
michel
gigolo
unconditionally
hysterical
barricades
opponent
reptile
fittest
bumb
fester
oc
##wan
##hun
##시
feenin
everyting
##rosion
clerk
runners
##issa
pecan
partna
martha
sire
barce
paroles
seeming
##look
195
deliverer
slaving
sprayin
practical
organize
suggestions
cords
solely
peanuts
icicles
automobile
bahamas
promethazine
lite
rates
##rown
theories
##etics
trina
plung
##rove
whoooo
clink
leans
muggin
argent
quad
owners
hitched
criss
beak
survey
coupes
peng
circuits
positivity
accuse
speeds
despised
combust
courtroom
stocks
sweethearts
doro
stimulation
depressing
masturbate
psalms
aster
bio
eileen
hong
jest
kom
##pons
##vard
##면
mantra
##opa
swat
guala
pebble
greets
freezin
cutthro
tights
somedays
chainz
copies
telep
formal
valium
odor
bunnies
pulpit
compromised
vibrant
admir
whirling
acquired
ethi
revived
vegetables
fertile
nazare
sculpt
bygones
hennessey
houdini
ao
gba
pak
pomp
wut
##rone
##러
likeness
moor
flirty
lect
leopard
hades
prank
glitch
marco
hotline
parlor
significant
##aaaah
explains
swims
chests
honored
##grass
missionary
patients
nipping
motorbike
jai
biddy
juggalo
francis
athlete
##looked
odyssey
63
kites
poth
##tide
menage
##itan
bellow
sopr
##ights
outn
molest
molot
maver
dapper
unear
checkmate
braw
sickly
honeycomb
lilac
graved
accum
cooks
spelled
sharin
posture
##oids
stretches
witchcraft
commander
described
ecstatic
cuffin
twitching
flirtin
pyrex
timbaland
aggravation
hickory
todos
cushion
moscow
unnecessary
janosz
cathy
hull
##fined
##graph
##eni
sloop
overlooked
home1
muy
graze
summit
braces
mista
lilies
claud
hyung
ignited
galway
spelling
chinatown
##voir
brilliance
intoxicating
requires
demolition
convertible
dandelion
overheard
mutherfuck
interfere
civ
jame
ode
##migo
thrift
##otent
bama
cables
ala
demeanor
seiz
morrow
contains
resigned
##ysis
balled
secre
murked
pension
doubtful
hydra
##ibus
posses
sparking
bummy
pleasin
tunechi
##ucin
bask
delivering
ryth
ouch
##block
greeted
customs
juggal
flocka
1994
racism
assassins
siege
activate
dolphins
accelerate
unforgiven
intervene
immense
jade
kri
ouh
vari
##neth
##uz
##26
##atar
lik
liv
livid
##urous
##oki
preva
arson
healin
crates
reminders
bendin
amazes
transm
thrilled
bona
suspense
terrifying
martian
##roman
lunar
lunacy
hauled
puddles
twerking
unemployed
kendrick
warehouse
onyx
remembr
erection
gt
kle
kittens
##kn
##cats
##ckin
uphold
flatt
overcoat
prud
encl
poked
maur
bugged
rockaway
tremor
housew
acta
decipher
vibing
undec
respectable
captives
coping
saviors
##pending
balenci
prophec
dangle
euro
binge
acquainted
geekin
tweakin
unfortunately
endorse
rhetoric
karaoke
haggard
chameleon
pepsi
undivided
eject
lint
ovation
tl
##game
##anza
loans
gol
out1
##amos
pled
##tering
spout
wap
flake
overweight
envious
realness
painfully
applied
confessed
collie
collard
##oya
concealing
artif
centip
bonus
iris
peeped
rena
introducing
lasers
humpin
injured
ibiza
koop
oow
ym
yr
theft
toby
cove
notions
fables
##usc
swip
enca
assumed
shakedown
promotion
shinning
superh
shaolin
discl
celly
##annies
##restrial
considering
caliber
propane
mournful
renegades
stimulate
laurent
foresee
pancakes
camino
amigos
tere
##eo
##aco
##rals
##loc
##overs
##bable
##orters
reigning
hebrew
chad
hoof
blushing
laka
##uma
abba
conmigo
rapt
sunroof
pebbles
##quo
musician
tefl
##ogra
refusing
indie
lawless
exped
pillar
relaxing
sheds
confessing
sensible
stabbin
##former
proceeding
manifested
simpler
divorced
persistent
pupils
recruit
tomahawk
molotov
cider
pate
vouch
##dlin
##full
##려
allows
haaa
##chies
withhold
assed
brady
preced
mase
nai
excel
unins
unified
##elia
pacin
##achi
marqu
perched
##umbers
barred
exploring
hyd
bowing
bandz
sweaters
wreath
flashbacks
oppressed
angie
complainin
##ographic
##sticks
necessities
virtues
embraces
delayed
scientific
crazier
eliza
sifting
residue
dysfunction
mueve
margiela
bourgeois
buses
kd
sways
##erv
##ician
lakers
waging
heretic
##oler
amanda
##atha
##arel
fins
restin
chases
blocka
edit
drunks
ashley
rulers
easiest
enterp
este
saturdays
concerns
kidnapped
ciao
aspirations
amusement
ringtone
limerick
actavis
hither
lumps
rica
vy
##dem
##jas
##member
##iso
gobble
coon
tile
lacks
raider
phife
contender
lowdown
barroom
visiting
furthest
eraser
directed
transit
petrol
advances
entourage
valerie
stroking
nutty
proclaimed
padded
scripts
shaping
chapo
benevol
hanky
scientists
observation
infiltrate
wrench
yessir
barcelona
prophecies
bids
cm
dane
fen
kaw
vale
vigo
wich
##cets
stony
knit
bagged
chong
waylon
manna
mool
##olar
amer
combo
emi
dazzle
unnatural
array
songbird
hurried
drippy
ministry
relatives
metamor
calming
complication
melon
natives
owww
beez
sparkles
bombing
detention
poisoning
terrific
feathered
narr
delighted
alleyway
tyrone
jonah
translate
persuade
clinic
fluffy
boondocks
pittsburgh
53
aun
##kok
##atur
somber
chimp
fringe
##ieve
alma
alumin
faulty
##ici
yeaaah
mann
clust
slander
breather
sender
leaping
##oof
hellish
adults
waterloo
eso
impost
harvard
numbing
terrorize
proportion
thumbing
stallin
safari
descended
requiem
jigs
advertise
margaritas
insomnia
seagulls
accusations
inhabit
bc
fanc
tumbled
##has
##say
##라
looming
loretta
chast
##nah
##akers
##arty
##ols
harden
mayo
meaner
contribution
madder
traff
refine
bustle
gladi
bucking
exposure
marking
snares
appreciation
absolution
tolls
stinky
umbrellas
contracts
trooper
guerr
amput
neutral
percocets
daffodils
deputy
bizz
dual
kiki
##eers
##한
lice
shal
##urp
chile
clas
holder
prest
pelic
fireball
mighta
jojo
streetcar
elation
contigo
truthful
thrash
register
reports
correction
mentions
marker
##ucas
urn
##uctive
refuses
whippo
epiph
sedan
dialed
nananan
mushrooms
syndrome
extremes
remembrance
whippoor
##lance
##bow
toting
##ayay
##urer
plough
##raced
abil
sep
impending
wring
newer
foretold
hurl
performed
musicians
moonbeams
fulla
braid
appease
esp
fronted
##brid
clair
figuring
thunderstorm
clouding
generals
flatline
##wauk
doggin
wacky
idolize
metall
dilated
utterly
bibles
sesame
evaporate
ascension
bewildered
mirrored
06
dal
pne
x6
yoko
오
##wi
##dal
##inished
allies
babo
doper
fax
smoo
headlight
ahold
listeners
sizzle
strands
illness
calmed
richmond
glassy
terrain
coron
spitter
keyboard
trucker
banners
unlear
gau
habitat
proposition
dumping
products
buffet
consumption
abracad
thugga
scoping
nimble
macaroni
gymnast
purgatory
83
azz
bion
bane
eug
ogs
tt
yas
##lark
##reets
bei
##eda
##lege
rey
moz
##eli
##acies
assign
kingpin
passer
deathbed
apparel
distort
penance
weekly
bandw
respects
surrendering
swayin
blanks
germs
faintly
alotta
decorations
reconciled
rendered
corazon
mundane
eulogy
schooly
renaissance
teflon
metamorph
oreg
vase
voted
날
##vag
##ᅡᆷ
thott
##ington
toora
##itutes
##struct
##otomy
##chal
dole
blad
hows
maw
##capes
quint
##cials
christina
calvin
milwauk
bangkok
explicit
defensive
##sett
reflex
turk
banished
macs
pissy
##weigh
reverence
blurring
chinch
plagues
msayin
elegance
lagoon
overlook
retaliation
enterprise
77
caked
kem
uff
##won
##lical
##uer
##ucked
##27
##mest
soiled
baggin
upstream
##ivel
reaping
navel
arnold
marine
airs
barack
simpson
regulate
secondhand
cashin
bandages
raises
coroner
antique
tarry
lenses
paralyze
unwound
jeeps
composition
apocalyptic
ahhhhhh
diddley
fascist
nomad
intertwine
gnar
precisely
cedar
windowpane
imminent
bans
lumin
oe
oph
ranc
##nest
##oes
##inos
##stool
stumbles
gogg
alligators
bagging
coog
spee
goodwill
suzie
##entious
##imi
preoc
realization
raoul
taps
dribble
doubles
attain
tracking
##reshing
dyed
electronic
mainly
constantin
##annie
##hammer
180
##jections
elijah
evangeline
sausage
abilene
dt
nw
rhin
vil
##orin
##orable
forbes
##urin
sayon
##ppies
deus
offensive
##iste
rapped
strained
buggy
farms
bodys
compelled
yearns
confir
impr
attorn
edward
ehn
sensei
welcoming
involve
evolved
interfer
cocaina
screwing
demonic
cheesecake
hostility
stretcher
helplessly
departure
rattled
disciple
pacify
tormented
mercen
vertical
phenomenal
dictate
alternate
suzanne
uninvited
undecided
bk
##eon
##dly
##pants
yout
##aton
me4
myrrh
##eton
hap
neil
ifs
shelly
##icides
roving
hiber
maybes
careers
grills
grins
##aveli
activity
barre
bulldog
##ocity
hyphy
incons
lockin
affirm
slapping
boarding
pulsing
mutant
lenny
##heim
victories
timothy
gooseb
slacks
lyricist
included
elle
transformation
lolli
trample
manipulation
premier
mockingbird
없
pneum
milwaukee
3am
fain
hir
wir
##found
##chester
caper
cobble
##amy
reactions
amps
amusing
craps
farthest
pretends
roommate
ills
mining
eyeing
shaded
sprint
coursing
roofs
pinball
suspen
spineless
suprem
pyth
effig
decaying
munchies
patriot
carlos
dormant
puzzled
murmur
intensity
epiphany
fon
##tor
##bana
##ayed
lis
alls
recy
hooves
##ppel
whoomp
abel
##ulator
conception
foil
##elope
freezes
##shirt
pretense
phili
watery
minst
creations
perfected
charco
dense
torped
tees
simplest
stuffing
woooh
ghettos
goddamned
guarding
gainst
savings
hushed
staten
smacking
utmost
auction
mockery
stuttering
briefcase
hitchh
##ropy
inhaling
unemploy
hordes
conquers
constantinople
43
ces
cunts
kah
kray
rhaps
uuu
wrought
지
##cs
##onos
likin
##etary
##etically
stow
##lda
##idian
canned
camb
tig
outstanding
##uset
##felt
##olence
dios
swig
twang
unnot
rockers
##atherine
##quette
snoring
reduce
##onda
syna
harold
icey
unfinished
televised
ducked
boner
falcon
malicious
hammered
benzes
versa
leeches
##paid
camaro
popsicle
particles
slinging
detective
keef
disposable
detached
jinx
dexter
suspension
pokin
##cils
##anth
itd
stated
##alee
outweigh
clad
heartland
dipper
fiji
enforce
maim
paces
dismember
##shad
windmill
catcher
param
claps
boxers
battleground
bossman
cymb
hunts
condone
riptide
trashed
imposs
pulp
convict
rambler
doctrine
otis
calculated
sandwiches
grimey
khalifa
improvement
bipolar
antenna
##emonium
unearth
oregon
dumber
ez
null
nether
sas
sne
##iya
##post
##yeah
##keting
##omatic
saber
mano
aground
dior
racer
strays
quand
pretentious
taboot
braille
bravo
picturing
syd
refresh
spinach
salmon
mmmh
##cript
stealth
transgress
treasured
frightful
fragment
norman
mutilation
##abye
pitchin
relying
stagnant
nuns
struttin
molten
molasses
huddled
psychopathic
engulfed
hulk
sloopy
sayonara
09
ads
pamela
yuk
##atible
##orah
love2
waning
chitty
##gey
##rims
##amese
flung
divers
headstone
stron
missions
funerals
deadbeat
elix
##ankind
signature
sexing
regen
travis
defl
unders
spotlights
fender
rubies
deth
addictions
matchin
entr
samples
providing
palest
campbell
epide
jawn
fleece
spectrum
britain
gaping
melanin
reservoir
scholars
excellence
ultraviol
hittas
writhing
adopted
skelter
pied
##ht
##자
##33
loch
forreal
ally
rema
dons
doze
upro
blot
spam
manor
abol
dilem
anyplace
realistic
rift
ade
siamese
reciting
traitors
strippin
fader
freshly
bummer
##anya
gathers
disguises
gateway
tapest
occurs
derail
##forms
spiteful
chapters
altitude
peppermint
companions
overthrown
##worth
extendo
irrespons
pilgrims
tourists
blatant
abomination
colossal
executive
twelf
erect
zips
우
##ᆻ어
know1
##amera
asi
baby1
whome
herit
abhor
##andi
poodle
naps
##quish
phoney
taill
merge
calms
eht
##ibble
##oyd
invitations
cupboard
artic
opposed
northwest
estr
sacrilege
evelyn
##eeeee
scoring
lucille
underdogs
absorbed
muhfucka
pandemonium
dilemma
twelfth
6th
cay
ning
nous
ratch
tard
##bear
thizz
##asma
neverending
##ilized
skim
malev
##eets
##msayin
burners
grues
##shaw
phonies
somebodys
ghana
##upa
mileage
cleop
maga
cleansed
lynn
coastin
discard
snacks
posts
cherished
henn
cardiac
iran
bentleys
gutters
##prit
pisces
techniques
frauds
eyelashes
khaki
injury
autographs
bernie
cauld
corazn
resources
alchemy
scapego
lesbian
gilded
unemployment
ech
kun
kama
matic
sash
조
##rater
##posed
##gence
##owa
mecca
canary
doses
facial
blight
bloke
decks
breakup
beatbox
blacking
helter
motherless
mouthful
prim
blameless
attitudes
obie
bowels
owls
splittin
##acts
olu
snail
bullshittin
nonchal
massach
slammer
imported
appropri
tito
##alalala
turntables
teeny
trois
gagged
##yyyyyyyy
undressing
solemnly
extinct
cathedrals
ludac
cheerleader
glazed
asthma
leroy
unnoticed
eti
fete
iggy
jays
##hea
##야
##oup
bess
bailey
##inky
##eaded
##ands
user
##ulsive
dreamland
##isters
unth
alongside
bellies
sandra
corrina
banish
dangerously
presented
benzo
hypnotizing
gallant
aiyo
unsteady
frequencies
fuels
lanterns
boughs
uncovered
tuxedo
volunteer
niece
tesla
syllables
stereotype
giuseppe
91
g5
gah
mf
pucker
x5
zonin
##nik
##sem
bagh
do1
upstate
spont
##itte
swizz
ard
badness
##agers
barbe
eyeball
supporting
circled
##oyo
invading
shadowed
maryland
youthful
cockpit
extravag
swaggin
portug
spoils
heartbreaks
technical
strawberries
carnal
spiderman
scorching
soothes
kylie
persuaded
grandmama
flushed
lunatics
privileged
scramble
academy
disobey
hambur
misdire
superhuman
gruesome
ludacris
67
gash
joo
##know
##pipe
##isive
##enes
##enna
##asa
##leone
##urring
heigh
chival
sporting
manual
hijack
fallacy
bub
##agus
mio
jockey
untill
elves
peru
perch
decency
secl
torso
genetic
expans
loubout
jailer
wisely
astro
threesome
roamin
puls
mailman
chipped
##cloth
chatting
peelin
industrial
feasting
outsider
katrina
confidential
ravenous
bogle
aisles
simplify
##ickens
snowflake
contrast
spraw
ramen
premonition
hemisphere
caterpillar
epitome
ries
wot
##etra
baseline
canoe
cabo
noooo
whatt
whatta
way1
spor
sped
spied
sprees
life1
dru
tonight1
arteries
firecracker
crum
jog
maroon
perplex
contents
miscell
senora
distinct
cleanin
spinal
twista
terr
bandits
coral
buckwild
evade
whiplash
birthed
robotic
intergal
honk
sharpest
puffs
centered
thumbin
suffers
dialogue
misunderstanding
fleeing
devouring
mmmmmm
initials
metaphys
##mobile
frigid
novocaine
uninspired
goosebumps
miscellaneous
za
##bath
libs
wann
makeshift
orion
##andro
thanked
enfold
proced
buju
##agin
helium
elses
assurance
##umberland
purified
tripper
##ivia
hustled
bossy
discount
interrog
recolle
##joyed
malign
witnessing
matador
index
cartel
mashin
objective
mortar
ensure
blistered
kweli
spectacle
crucifixion
shrouded
##idelity
patek
prist
von
##von
beta
##utical
shamp
forn
covet
##adada
aspire
bloo
rober
takeover
spicy
boof
sled
wouldve
##athetic
sci
pail
paused
quen
adams
brands
##ichrist
luckily
snowed
squab
squared
charmed
vermin
imagery
sevens
depot
vanessa
sensim
punani
cubes
organization
mortality
cinder
zeus
occasional
referee
obligation
percocet
turbulence
marianne
whomever
massachuset
03
aub
loathe
isis
knah
donut
##unity
##adie
veils
sult
overjoyed
##isty
##imen
crate
wallace
##ussions
leadin
recession
##bblin
homicidal
pretendin
probable
unda
whisperin
pimped
hookah
blender
miraculous
100k
stability
gaily
beretta
skept
pleaded
##fields
1990
philosoph
corporations
myths
geeks
stimul
delirium
rehearsal
censor
thesis
evacuate
moolah
massachusetts
bic
cnn
hints
##mines
##rider
##har
##fk
##seo
lilly
##arar
donk
calf
##ambe
saucer
sliver
diale
dreamless
##udges
braver
bullies
spotless
potions
bombed
captivity
tvs
capric
anton
hench
planetary
survivin
titans
bugle
infinitely
overwhelm
contacts
infectious
neatly
gowns
limousines
sustained
biblical
instrumentals
guerilla
loafers
amplified
lizards
outdated
receipt
jaguar
cutthroat
cleopatra
shampoo
cie
tart
##hot
##owo
oft
##asin
all1
issa
chak
washin
overrun
fiber
toni
prol
quas
minecraft
grotes
ela
drinker
strongly
darth
signin
schoolboy
harvey
freshman
shortly
creepers
sharon
antichrist
chemist
stunner
indef
maxim
##hehe
tropics
raindrop
octop
halves
slingin
indoors
mimic
syncop
hitta
psalm
pointin
predicament
taliban
neptune
oul
reels
riley
##wick
##orter
##utton
lib
stacy
soca
##lde
shah
dooo
hein
##riety
sleek
whys
moneys
ahora
forefather
hellfire
contend
remarks
colony
##aza
fleur
rubbish
slaps
beefing
godspeed
weepin
apologise
snapback
stingy
entertainer
socialize
slaying
jocking
outsiders
cinco
dimensional
liverpool
unchained
salesman
arrangement
reeds
advertising
unfurl
diminish
higgins
aluminum
speeches
aks
cort
##ao
##pee
##itzer
lovable
noggin
chron
mobs
sulf
yach
showered
stratos
glaze
standby
carb
citys
monty
monitor
conflic
richter
dicky
charmer
superfly
obi
genre
corps
hunned
grammys
agreement
##ooooh
elevators
competing
nyam
cradled
##ivalent
currently
unwinds
loopy
backstreets
aqua
ohohohoh
unchain
mixtapes
gadget
shuffling
controversy
administ
##ographer
schoolyard
epidemic
grotesque
dul
kud
niger
sassy
##woman
##fork
##ghold
resemble
canes
##icans
vez
roster
spines
waah
overkill
twid
poised
quay
wary
mothership
##qual
yearnin
mens
intest
laddie
bowie
yella
extensions
geome
teleport
balancing
dwarf
physics
stalls
fetus
revelator
sewing
examine
popularity
cussing
portraits
subscri
bionic
charcoal
heritage
aali
mee
rots
ronald
sord
vortex
##munk
##aq
##uva
##oys
##good
##anor
##store
##street
##lei
chlor
sak
aspect
brenda
##ulting
prance
badlands
partly
cryptic
owning
trailing
daddys
magdal
motors
##ibilities
mountaintop
violation
erra
petal
generally
schn
sleighing
automatics
110
##clock
pitchfork
germ
vinnie
##obi
admired
accidental
nurses
chipmunk
sidung
amazement
flares
priorities
convenience
leviathan
sponsor
sylvia
vocabul
sprout
belfast
obedience
intersection
update
flannel
bure
dork
latt
mvp
tnt
##hs
##biz
cabs
everbody
outlook
bleek
##icable
yeah3
##ideon
lacked
unison
armored
strewn
partial
marc
fasten
##liner
metron
sickle
horrid
persian
observed
fetty
cuffing
ingle
porsches
corporation
crippling
##bags
arrangements
jessica
compensate
decadence
burglar
ominous
capitol
whateva
paramedics
goggles
coney
kc
ked
kotch
sere
vl
보
하
##pm
##ᅥᆯ
tox
inex
stoke
reve
##oded
heist
trom
anus
clung
##akable
dimming
bettin
consec
prez
handout
foreman
funnel
gunner
minaj
##iche
humid
retail
typh
tycoon
pengu
hustlas
birdies
loadin
gente
coastline
detest
replies
##baby
quarrel
floodgates
strokin
malone
urges
schm
deacon
##heit
earnest
preference
molded
wizards
cooper
supplied
eeny
worshi
reperc
sapphire
aristoc
dozens
muzik
ophelia
gps
panky
##lu
##vise
##itable
##stown
beige
cavity
##urf
hoooo
notices
seeps
lloyd
anime
runaways
hissing
##antine
endo
unno
rockst
##quate
##apa
promo
gavel
ghoul
##bted
indign
graceland
jux
billboards
bloated
posting
horsesh
hamilton
suitable
liberal
pitcher
psychiat
predicted
##marked
jefferson
trendy
orchard
variety
illuminates
nodded
exploit
horde
remarkable
insincere
nympho
equipment
refrigerator
afghanistan
ambassador
abracadabra
bandwagon
stronghold
baghdad
82
figg
fern
icar
kath
pt
pus
##lib
##fru
##bomb
##31
##itic
gover
##illance
camo
##odi
trues
##igate
waa
moore
boj
levy
scuba
precin
watering
mono
follower
cuc
catchy
burrow
##icha
schooled
salam
traveller
splattered
feud
discarded
intermission
roughest
convoy
decayed
ceases
slayer
symphonies
improved
riddled
cinematic
bashful
handcuffed
scotland
detector
blindfolded
conformity
finessing
locomotion
pioneers
apparition
silicone
nurture
civic
aaliyah
vocabulary
cumberland
yike
해
thist
##inent
##stra
everynight
backroads
rogers
##heres
runny
seorita
headboard
putrid
realities
muzzle
handlin
starless
starlit
paintin
taber
sipped
##maids
gunned
resusc
deathly
birkin
greats
##ected
builder
blockin
squint
claire
obit
##ometer
incom
celebrated
##iko
protects
annoy
oooohhh
operating
hypnotised
bailin
pilots
julio
vibrating
frustrating
supported
sherman
yippy
assassinate
philosopher
cerebr
afflicted
fracture
tranquility
immigrant
promoters
unfurled
juggalos
pneumonia
fok
horm
##hee
##dler
##pike
##를
onions
downpour
hearth
needa
heartbre
##icker
whyd
guise
glizzy
quan
bigot
elab
marve
listener
wallets
goldie
wildly
popeye
ooou
mounted
charred
indig
weaknesses
dawned
mashing
beezy
catap
amazon
colorblind
autop
##ologist
wickedest
protoc
turmo
separating
deejay
garg
reese
effective
frowning
nicky
puppies
multiplied
licor
errbody
brainwash
unicorns
nitro
nourish
daniels
starbucks
deliberate
dishonor
surveillance
ops
sade
yola
##lig
##cate
##erna
##eab
whey
sockets
loora
shamb
chard
spangled
##gel
##uela
scy
smug
enlist
raced
rachel
##gette
killah
changer
sadden
seemingly
courthouse
loosely
invaded
medall
fateful
benih
transf
revolutions
thyme
lingered
dissolving
sneaker
vacc
birthdays
conquerors
berm
titles
awaited
heeled
appreciated
axes
admitting
development
3000
lalalalala
structures
columbia
acknowled
bargained
incarnate
confirmation
tarnished
prevails
metronome
turmoil
font
gand
gast
kotton
##gom
inco
##esis
nookie
plucked
lacer
heartfelt
##aku
##pection
bredda
sweden
smir
poe
showbiz
packet
starvation
##imes
tilted
comparing
declined
belongings
dickies
spaceman
selfie
bandage
fairies
corleone
potty
lyn
celebrities
animosity
wheelchair
throbbing
20th
unsc
majors
clickin
slams
occasions
scenic
dialing
preferred
relentlessly
undefined
veterans
biko
duplicate
argentina
supremacy
licorice
62
jada
vand
수
##nets
##rition
##래
you5
##inks
sposed
longin
drows
exhal
heaving
warring
##eman
morris
assert
resol
hurtful
baron
burberry
crackle
shutters
shuttle
lawdy
juices
depraved
extent
coastal
formation
blem
goddammit
extract
locals
studded
pippen
##itaph
seasick
honorable
restlessness
epitaph
smackin
pantom
auf
confronted
devastating
enlightenment
weeny
carpets
hydraul
pristine
kottonmouth
eiht
kos
meech
##tz
##uin
##put
##bled
toed
ingr
nebras
outg
sabes
manhood
moose
seized
yaw
mapped
guac
dae
dabbin
buick
freefall
kinder
marbles
damager
resolved
croon
grandp
garment
continents
texture
camps
##covered
curtis
biggity
mandy
hauling
##uuuuuuuu
decorated
1980
makaveli
bundles
380
franklins
injected
abounds
informed
spewing
writhe
kells
gypsies
effigy
sordid
duel
fod
figgy
io
jfk
sals
votes
ying
더
##some
throught
##erving
it2
lov
##eding
coot
blaring
brung
##entive
scurry
smeared
underway
unint
moroc
kidneys
illa
eachother
minn
peacock
trustin
sony
merle
storybook
bulldo
homer
radiance
edged
clappers
terrace
discern
bansh
relaxin
producers
nonny
martini
pedro
ramona
##ificance
seduced
##yeon
admitted
dominican
##rupting
correctly
dorothy
scrubs
splintered
carrots
cricket
cassius
shayo
detonate
insignificant
outnumbered
whippoorwill
rhapsody
intergalactic
##fruit
nebraska
68
d4
md
och
sakes
youse
##itin
befall
forrest
##ombs
coe
##rolling
clicked
abusive
imit
##ohh
turnpike
fonder
dairy
peering
killings
warped
damsel
musk
monarch
sexin
retard
collins
consol
packages
revoir
defining
teaches
transmit
mamm
entra
bonny
towels
sacrificial
jungles
foolishly
shocker
disgraced
lapse
visitors
mandatory
dominant
emerged
rattlin
scorch
sportin
dilig
narcotic
premature
moust
hooligans
isaac
nevada
cauldron
bermuda
bimmer
pse
vets
##aver
##40
##fell
##reens
whizz
shitted
revers
anom
##rak
comets
atari
howdy
headshot
wrigg
starr
##agi
bloodied
trek
checkers
riverbed
prima
syring
impart
radios
repo
lego
cyrus
wik
rowing
victimized
malt
studies
roarin
grillin
concerning
saran
gamma
exchanged
plateau
##rrrrrrrr
##rimony
repeatedly
goblins
rookies
rythm
05
2am
fess
nud
yg
##with
befriend
donde
lookie
bobbin
peat
rollies
elaine
assim
muster
womanizer
##ifter
parrot
mistook
misused
distin
brainless
visited
escap
sparkin
unsatisfied
bravest
knox
junkyard
brushes
toothless
bidness
frosted
hotties
behaving
mandolin
champs
clocked
intoxicate
acceptable
captivate
molecules
vitamins
mmhmm
nursing
grandson
ketchup
jigsaw
rancid
torpedo
ratchets
2k
ruse
sine
tm
##pre
##32
##ithe
##uri
coax
heats
##alu
hova
lager
mollies
overstand
mayweather
ripp
shoving
##udda
snorting
##umbag
saddam
humankind
crossroad
indones
reprod
denyin
estoy
disson
swagga
inspiring
scribble
experts
weaves
sideshow
heey
julian
velocity
gambled
dixieland
capsule
cannibals
crutches
tweaking
thuggish
assumptions
carrot
tribulation
nicht
pancake
syllable
anointed
supermodel
tapestry
chivalry
forefathers
sulfur
precinct
bert
bode
ouu
puck
##mode
##wed
##hat
##hey
##inc
##ono
messes
##chen
caucas
costa
tiles
ante
anita
anarch
sagging
laz
overlord
lighty
mudd
unatt
watcher
partied
wronged
gris
blackjack
phen
sierra
goldmine
riverbank
viking
recl
##lando
motown
courses
chasm
classified
interst
mystified
representation
savoy
ambush
physique
derby
psychos
suffocation
coughin
stalks
cloaked
bleached
binoc
latino
qualities
intrud
tammy
eclipsed
treachery
amateurs
accomplishments
exterminate
hooligan
scapegoat
bojangles
tabernacle
76
bony
jumbo
lassie
기
네
##tops
##rt
##ratin
##atable
init
inquis
ono
bach
hemp
downstream
##usi
rightful
brute
##ittles
mugs
strad
oldies
taurus
perk
damnit
partyin
ringer
whiskers
refreshing
styling
shallows
pretenders
conserv
jackers
corrod
evolving
benji
errors
thunderbird
duppy
generator
presley
2016
truer
##oleum
boned
vacations
versions
mutter
pierre
copyright
cowardly
oooooooo
##ffel
deceitful
therapist
sidd
steamin
restrained
observing
nicholas
mcgee
appointment
overalls
marshmallow
maurice
pelican
chinchilla
bg
cures
eri
ecc
feral
yey
##mus
##kast
##cling
toh
rewards
capped
assemble
##icies
vegg
atm
heart1
##atched
sco
pref
poisons
redman
kiddies
senator
empress
nearness
stopper
indisc
hoodl
denise
pencils
torrent
queenie
billows
speedy
focusing
##borne
magnified
tourn
betrays
stuy
piped
vaseline
jonson
winks
particularly
unveil
enhance
nostrils
trespass
condescending
centipede
stratosphere
salsa
hd
huckle
vita
vista
##cular
##ceable
##puted
##eaux
whir
incapable
butters
enfor
poca
heyy
raff
quok
perks
golds
felonies
tightest
regress
addi
sala
##ibi
literal
shaving
galang
panicked
prototy
turquo
diggers
flapping
tangible
avo
troubling
sowed
montgom
rejects
omoge
pamper
alarming
restaurants
rocke
nostalgic
squeaky
sponsored
eenie
undisputed
slogan
panoramic
appropriate
turquoise
07
mg
ned
사ᄅ
##28
##bees
##니
bender
##utations
logs
capp
hooh
plasma
delin
##umns
bool
booy
bohem
lighted
preying
mau
naomi
ahahah
quiz
##othe
kindred
redrum
##ifier
teary
sexually
patio
saliv
##locked
cros
boundary
eighties
mala
terrorists
akon
bidding
inflict
snatching
frustrations
straws
admiration
blacken
russians
bulbs
erratic
wylin
chunks
engagement
withdrawal
pushers
exhibit
mussi
dazzling
seatbelt
gladiator
elixir
auburn
pious
rott
xo
##zip
##each
##sex
##urable
shep
vegan
roost
##eeds
clot
moat
here1
night1
mindful
connie
scand
heyyy
raiders
dag
paving
arising
carmen
painkiller
darkside
bloodclaat
seaf
milking
indict
satisfying
woozy
seasoned
visionary
tuition
cheri
305
chokes
statistic
berke
stomachs
communist
tanned
1995
drilling
uncool
swisha
tacky
sparrows
percussion
##commun
verbally
##iyan
aroused
scorpio
turtles
kardash
##onnay
tlc
imprint
attorney
montgomery
4am
bd
cb
fusion
gank
jad
osh
pamp
rs
##nze
##gian
##itis
##itutions
##start
shrap
dookie
upwards
deba
##enta
scumbag
env
preview
racial
ragin
suntan
grudges
disrupt
chey
finance
gunplay
creole
brighton
##ormal
column
retros
##ugga
addressed
chooses
extras
10th
##going
casper
mali
journeys
striped
procre
muthafucking
karat
liberated
overdosed
shackle
juggerna
puddin
durk
dental
vicinity
illuminated
assistant
contradict
stanley
harmonies
takers
muhfuckin
decompose
intrigued
cancelled
publishing
application
baffled
##eabouts
chardonnay
jot
uz
wuss
yel
ziggy
##yn
whew
##sein
haz
outkast
alamo
##icates
herman
wannabes
slicing
overly
wright
quittin
firenze
##placeable
jook
begu
wildflower
forgi
snowfall
stylist
almond
lawrence
castro
bankrupt
rubs
papes
entrep
pageant
cheech
flicking
selfishly
matta
femme
snatchin
alej
identical
disturbia
steaks
blending
ransomed
hallucinating
persever
association
wifi
aunty
whattup
dialect
moustache
shrapnel
08
jitter
nwa
nya
pats
yack
yolo
##rons
##oever
whiz
forks
donny
butler
trades
veux
lazer
whop
looka
brett
offs
walkman
disfig
##acin
##achu
beguine
advised
uhuh
peripher
crippin
barstool
parap
confound
voicemail
menergy
intoler
reconne
denny
##loose
divas
romant
evicted
driftwood
robins
cruiser
foods
telephones
tuc
turp
meaningful
entre
angst
widows
##styles
virginity
mutiny
fractions
maidens
opium
collapses
ooooooooooo
rhonda
exchanging
dorado
familia
literature
crafted
retirement
irreplaceable
whereabouts
giggles
bamba
yippee
embarrassment
bikinis
glossy
demonstration
constructed
lofty
nazis
hahahahaha
haitians
tootsie
spiked
wichita
ultraviolet
cet
douse
eel
fassy
iq
kai
karen
##bz
##station
myr
stet
##chise
likewise
buts
whence
##alou
##rax
robo
hersh
slouch
leper
offset
poise
mufuck
mahal
sunbeams
tonkin
##queen
deadline
begotten
frees
markets
blueprints
relin
clement
nearing
stylish
##ibal
eights
cosby
olivia
fishy
telegraph
duffel
bayon
entice
dissolved
irate
villages
30s
sources
liner
weaponry
temperament
muted
maxine
chatty
multitude
positively
contentment
imperfection
qualify
architecture
chandeliers
spawned
enthroned
monsoon
diploma
diabol
silicon
swarming
fatigue
arsenal
bewitched
trombone
elaborate
entreprene
mittens
xx
##eme
##iam
##dah
##bite
##eries
soh
bailed
loveliness
whatch
cheep
trope
backtrack
rolly
roared
##ussed
##geist
ourself
##enting
headlock
##ulla
highland
davey
##cases
pagans
hitman
##atters
bouta
bloodbath
finale
pastime
controllin
retal
reported
veron
belliger
shuttin
delux
gimmi
##ieth
dryer
##ibles
poorly
paradigm
discord
cheerful
dimples
seductive
dodged
velcro
vince
affects
spliffs
sundress
walmart
occasionally
sharpening
concepts
selected
muffled
subsides
mathematic
##between
preservation
locusts
quickest
conference
bristol
marquee
eugene
oluwa
pantomime
dives
fuh
ian
lashing
matin
##dance
##bum
##bah
##50
##eta
isab
hoax
comed
##uson
spastic
dei
hearty
overre
##ffy
dai
maya
##cale
arman
shoppers
wonderfully
roundabout
perverse
bluegrass
sno
finite
password
whitey
compatible
esper
primary
insur
polter
edible
edison
membr
legally
##mined
courting
article
incision
ohhhhhhhhhhh
caption
discrete
throes
bonjour
##dai
equivalent
vacate
unloved
liberties
matrimony
lullay
gallons
toothbrush
gamblers
wizzy
scented
jockomo
percentage
tecca
increased
lucas
implied
shipping
inherited
inseparable
staggering
skanking
blistering
shanty
huey
diddit
pharaohs
merchant
appointed
graphic
thunders
bladder
taillights
etiquette
tourniqu
cheyenne
61
oars
sass
##wit
cairo
plump
roose
rightfully
##ental
wrinkle
newport
thoughtful
##allo
warlord
skys
permit
forgetful
topics
hideout
creases
trusts
misde
##dley
squaw
indes
sanders
viewed
viral
versatile
psychology
rooty
janine
fulfillment
straining
increases
procession
ridicule
laundrom
traditional
chiraq
thompson
skankin
twirling
mimi
stardom
shangh
coincide
overlooking
symptom
derek
pandora
shipwrecked
##holm
brothas
aurora
splurge
secrecy
sydney
turpentine
900
berg
kol
tumb
##atro
##atized
sobbing
alber
##ravity
##bye
clergy
##olent
brows
anythin
emble
cones
carne
redwood
gunpow
curling
tasteless
insta
reporting
reprieve
eleison
corr
romances
sweatshirt
expressed
luk
preserved
esto
basking
astrol
recklessly
stockholm
snitched
renowned
dumpty
bizzy
pursued
poses
leveled
fellowship
jellyfish
snoopy
heaviest
lengths
hesitant
lagos
pentagram
mediocr
speculation
undiscovered
weenie
##keeper
persecution
aggravated
aloft
seizure
preoccup
irresponsible
cerebral
drowsy
alejandro
retaliate
ei
lle
nio
wam
yor
##md
##hagen
##leen
shuck
##idon
wane
facul
plumb
lifestyles
oranges
highlights
exult
expend
afrika
carats
missp
founded
adul
pharo
hotta
filler
drape
##rett
composing
merit
secured
dickhead
policies
induced
consult
incess
drummin
extrater
inno
designated
uncl
whistlin
landscapes
languages
consideration
pulses
motorway
zoot
turntable
pawned
kyle
uncharted
insens
supplier
distrust
coltrane
scrambled
bloodstains
audemar
griffin
carnivore
seperate
banton
luminous
nonchalant
avoided
agh
h2
opa
rza
tous
##wear
##hog
##oa
whad
##utor
loon
bape
copen
oh2
outward
anvil
##amole
nightstand
orgy
enig
unor
paz
quilt
remedies
taunting
marig
seashore
millen
decays
fucken
voiceless
primo
thrashing
supple
impaired
tylen
jeannie
invaders
grimm
embar
littered
pillage
cruz
detox
petite
matched
porcup
valle
trashy
12th
toasting
volvo
louisville
gaunt
##walker
##hoot
propos
authorities
chiefin
proceeded
##metic
miniature
petey
dealership
inspires
stewart
interrupted
oscill
astronauts
scalpel
frisky
salvage
participate
reluctant
##frame
yarn
estranged
cielo
heartbreaking
dl
dora
oro
##cen
##cation
##bars
looney
goyard
babble
upgr
##that
trout
##nade
##amines
saigon
letdown
blaster
##opho
boz
agon
didi
##cage
doorways
seaweed
##fected
loverman
buries
compart
complained
footloose
weighted
violated
bankhead
##clef
devot
estates
arenas
moths
services
comforter
bouncer
declaring
##books
cordur
heresy
penetration
robinson
wyclef
##lamation
endeav
lolita
exorcise
reciproc
haitian
incorpor
fancies
crumpled
protocol
berkeley
gunpowder
mediocrity
faculty
dha
ooma
pell
##oose
##eria
##ghouse
libid
lolly
wak
deploy
##olous
conco
yappin
realign
racked
gone1
quota
rockies
##acles
coldness
countenance
layup
awoken
apathetic
moonbeam
relish
mistrust
##bbies
indica
hooded
embark
beeh
bearer
capri
bravely
fridays
ugk
strolled
guardians
punchin
neglig
mobster
raza
foxes
powdered
unwr
dismal
unpack
verte
glistenin
hubba
wheeling
minks
bmw
hopscotch
tinker
desecrate
kartel
segregation
chromed
omnipotent
iniquity
metallic
coogi
inglewood
04
bie
binary
eo
iya
oon
pike
여
##nb
whut
stap
coord
saks
plumber
roley
##inkable
nighter
ques
soulmate
starship
shoel
##cio
layla
monarchy
silken
promisc
teaser
compre
senor
eleanor
shutter
digress
stupidity
embod
booted
pocketful
bumpa
dykes
aims
seekers
##querque
bruv
foldin
represents
routes
doubters
whoopin
fluent
obsessive
sickened
maggot
exceptional
thoroughly
carrion
snortin
arabian
complacency
seraph
scopin
sobriety
worshipped
unrelenting
undeserving
atrocities
sabbath
piranhas
passerby
minstrel
transgressions
expansion
bis
jd
kp
vcr
xbox
zap
zaz
##mod
##lea
##gt
me5
ingest
goats
recycle
chino
laaa
clang
mog
##andra
unmade
watchu
quoth
##alla
lists
hots
finishing
wildwood
parl
chaotic
decatur
trape
collides
juju
disappointing
bankers
jewell
bonne
collects
demanded
##doll
##www
alleyways
lawns
dragonfly
sherm
rosco
flocking
dixon
omaha
pokemon
rigid
##ienne
novelty
adopt
shipwreck
valentines
misbehavin
marlboro
eradicate
precipice
pokmon
soprano
uffizi
mercenary
barbeque
armani
copenhagen
marigold
fis
junt
peels
rugg
tiring
vid
wuh
미
##eld
##pta
##feller
##jos
whinin
##send
hairl
##chio
nook
now2
anointing
herds
##riving
day1
lifeboat
sega
rainfall
closets
functions
margin
marketing
snug
##ichi
fatherless
squawk
secondary
indis
repose
crowding
courty
##cribable
shadowy
evry
dumps
surfboard
equator
tourin
yalla
macking
commanding
plantation
lamar
outlive
disrespecting
dynamic
skilled
intros
implore
hooptie
ellen
thongs
corpus
jivin
brazilian
gestures
validation
adversity
resource
submerged
distinguish
gouge
blitzen
housewife
shalom
indefinite
octopus
tylenol
73
illy
iye
jode
kut
sard
##hop
##bri
##요
you6
##antha
bebe
##utters
canc
manaman
wager
abilities
overst
##ssa
##ules
lele
longway
immor
ravers
warmest
marquis
pervert
finn
cutty
##aneously
hanger
barbers
checker
##viate
troublemaker
patent
saliva
groans
##velt
##hae
newsp
panel
turban
20s
enticing
noneth
sensational
danse
africans
tagged
temperatures
defenders
heeey
##held
compromising
championship
eased
discussing
umbil
condemnation
acquire
legitimate
democratic
monumental
sympathetic
inhibition
hiccup
illustrate
jurass
dopamine
receipts
humiliation
meenie
siento
nazareth
encased
guacamole
nonetheless
79
cisco
dd
efficient
hedge
kap
##dust
##cups
##fill
##animate
##itical
cogn
heft
##thought
tion
##adee
alp
rozay
bopping
brunch
longe
conno
heya
prohib
carri
hitchin
phel
restoration
##abilly
captains
animated
policemen
purely
cocktails
##baum
filed
bonnet
producing
samantha
fasho
shifty
depended
renown
suffra
oxen
accountable
maintenance
sanctify
crumblin
sexuality
penetrating
anaco
contradictions
scissor
immigrants
sycoph
plastered
glacier
manufactured
fattest
daytona
repercussions
morocco
juggernaut
pharoah
aesth
gideon
kre
zoning
##cie
##pond
##yi
##zac
##38
youknow
item
##chn
heine
tienes
alvin
monde
slashed
smurf
skatin
unmarked
quando
handker
stren
##ptured
freek
starfish
gringo
disbelie
joins
youngster
marri
crem
creaking
feline
felicid
chai
cougar
##erte
trait
hoodoo
shortest
drummers
bearded
entangled
texaco
toasted
rusting
applebum
tanquer
oaks
dominos
prescriptions
unchanged
roxy
tranquil
investigation
##horse
reassure
sprinkled
accompan
hakuna
backflip
ingredients
expedition
binoculars
tropez
deluxe
dwind
fang
igl
lars
oclock
peal
pian
rink
##mere
##uquerque
inbetween
##thod
assess
decept
abode
diseng
overpow
fizzy
yaself
souped
endanger
unify
##care
##caps
##angelo
afire
cringe
##ateral
##uhh
##irect
balla
picker
hums
throng
##iera
squirm
murderin
southland
corrosion
invoke
costello
ticker
entropy
bonaf
albuquerque
recalling
pillowcase
matata
beholder
zeroes
camping
skeptic
investment
grieves
prescribe
conflicted
assembled
raggedy
harmonize
dictator
whimper
##bourne
vamonos
ohhhhhhhh
tantrum
scholarship
adolescence
diablo
cascade
catapult
laundromat
shanghai
handkerchief
tanqueray
ile
##niac
##tron
##hil
##hati
##34
##atum
tokin
##anbul
onwards
negr
hob
fawn
##icting
hered
combed
newfound
glancing
latex
understate
goldfish
##aneun
drifters
deathless
madre
midw
braided
apprent
mischie
ooow
traits
dickie
murky
circular
awakens
salon
spender
juiced
fitz
medina
banking
otherside
transist
steelo
dissolves
seesaw
drankin
grinned
jails
stalled
ferrag
hospitals
traditions
cincin
zebra
tutor
uniforms
trimmed
squirrels
suspicions
evidently
uneven
vagabonds
specimen
omens
pontiac
monstrous
##sensit
escobar
abbott
roosevelt
extraterrestrial
felicidad
suss
##kit
##far
##fed
##bub
##grove
##kem
inward
##isma
chry
nex
hoard
assets
manly
cliques
##riet
moong
beenie
suge
stills
##istent
mujer
tonks
uniqu
unzip
heavin
starg
caressed
wishy
elm
winked
bedrock
choco
sites
##ggs
dadada
rhymer
##manship
humour
institutions
explor
ghostface
chari
brainstorm
default
tera
specialist
classical
easing
whatsoever
horsemen
offerings
troublesome
50s
largest
peddle
##levance
montreal
juggling
bigga
minority
fueling
catastrophic
lasso
promoter
emoji
scorpion
korean
caverns
retreating
nubian
smoldering
baboon
courtyard
umbilical
mame
oar
##ava
##oria
looms
##uru
ney
##nad
plaid
clare
desensit
##andy
diapers
fuckboy
scoff
playstation
greys
##allah
listed
monog
minions
drapes
cursive
##awo
tastin
retrieve
hombre
##ckett
joyride
spinners
##rieg
##zzie
corres
wooly
cellul
flexed
locate
gutted
magnets
routines
statistics
indec
ferna
blondes
challenged
skillet
krish
넌
널
sabros
thoroughbred
celib
selective
hasten
patriotic
feminist
wilted
sheesh
bloodstained
evapor
gibson
dissipate
ornaments
fossil
marionette
pauper
bloomed
gandhi
prototype
veronica
dred
kg
oval
ooga
##rush
##party
##itus
##otica
gogh
withers
chum
chattan
tiene
outlet
clic
abed
brides
unsett
marmal
##tina
##nyrd
parch
imposter
belonging
crackhead
jackal
jerking
bruising
puba
pubs
allowing
martial
scrapin
junky
##prot
alcoholics
battled
slaughterhouse
cubans
paralysed
civilians
jocks
oooooooooh
uppercut
scooped
streaks
totem
reunited
masturbation
bungal
scrambling
valentino
crystalline
orgasm
capricorn
tourniquet
staple
igloo
sabrosura
chattanoo
elys
nal
oou
vatic
wou
yoda
##hn
##29
##fc
##ᅩᆫ
soggy
##armed
outgrown
##iler
whoot
##rio
abn
bobbing
amped
sections
leaps
wrang
hardship
naaa
paced
hasnt
##oscop
funked
freer
droop
hotbox
wastes
sums
darkening
minim
creased
brav
##iously
shaddai
queers
harambe
hoodies
denzel
clothe
memorial
figur
scrutin
detri
letterman
crushes
saturate
banquet
garlic
shapeless
savoir
biological
ancients
cultural
weakening
skeng
cartwh
gwop
eases
1993
tablet
winking
gabbana
implode
klux
skrilla
selector
cranberry
reeks
doodoo
trifling
misbehaving
immersed
jameson
intestines
suffragette
58
cc
duff
oink
vai
##tta
stellar
##arium
cald
nosy
ano
fait
everyman
willed
##eens
clashing
##erspace
suv
##angin
anyweh
wooooo
yaa
raided
maison
##assin
workout
grants
##acc
windin
bestest
joanna
##quited
aftersh
marina
cursin
simult
graveyards
brixton
feign
mccoy
celebratin
devise
2010
cherub
furthermore
delivers
announ
oooohh
marrying
torturing
audacity
tidy
expressing
queensbridge
poseidon
suffocated
unwise
rugs
unrequited
##andoah
oysters
emerging
devastated
bunker
endeavors
peso
groaning
infamy
intimacy
drooling
promenade
gothic
korea
establishment
electrify
incarcerated
maraud
toothpaste
tenement
atheist
seafood
porcupine
libido
bonafide
mischievous
boney
eons
gour
ks
rural
vary
yolk
##warm
##hon
##hink
##holes
##pid
##치
topped
##anie
bele
##escent
rekind
chie
##named
outfits
spaced
dayton
##olith
prelude
raver
rale
##coats
freeing
##agas
graham
crass
openly
touchy
redder
acou
drizzy
creativity
mids
blinders
appalled
mouthpiece
inscri
squand
collided
weeded
brando
croak
fairer
bribe
incin
numbness
deville
hunh
stressful
matchless
forties
suites
racking
biology
wahala
scrapes
sweeper
chocolates
accountant
2004
grievin
250
flossy
obscurity
affecting
conclude
cynics
calculator
architects
erica
hannibal
quavo
innovation
beehive
jodeci
marmalade
beel
dune
ect
fide
pik
##mac
##marks
mele
##arity
bailing
hasty
trite
outlined
aloof
blab
back1
decked
hiv
abe
oral
overcast
##wny
skater
##antes
glaring
songwriter
hurled
hurray
helm
desi
adorable
uhhhh
bloodhound
sizes
##eryl
##mable
##plement
resil
miners
felons
##ogna
attrib
spiritually
excites
corrected
moderation
advocate
energies
##contin
creamy
cardinal
dreaded
sixties
##cloud
technolog
##uku
##ulele
custody
unreach
culprit
gusto
crayon
tumor
unraveled
내가
handshakes
neutron
aspirin
disneyland
acrobat
inconven
cadaver
amphetamine
shenandoah
scourge
jeopardy
raggamuffin
prudence
icarus
initial
siddung
unwritten
trapeze
phelps
incinerate
ging
kir
lured
puh
rumblin
yada
##cade
##gio
##35
theod
##atri
tok
ingen
##ldem
hoarse
frat
frolic
anem
##iga
##amn
bleep
laury
rovers
mania
brine
disemb
fallow
smif
playback
yao
pogo
raf
maybell
glidin
badges
disab
moron
contamin
lonelier
sawdust
wordplay
cools
sonnet
##bob
spirals
commin
theresa
slipper
bootle
geography
flashlights
petro
flexible
saturated
filet
##ixed
40s
volts
scribbled
spaceships
challenging
thoia
fidget
anticipated
wrestled
terminate
flamingo
pondering
greece
uncommon
prostitutes
slabs
captivating
##omaniac
wessun
werewolves
crescend
pixel
hazardous
counselor
perilous
sledgehammer
microscope
articulate
spontaneous
poltergeist
cic
ceasing
catherine
nann
rama
zoned
##ᅥᆼ
thi
##inence
##atan
##sto
inert
shith
##asive
reich
nods
tical
downright
clamp
eyo
users
callers
##ulco
prancing
poom
daaa
glides
ahoy
crappy
bugger
helluva
bestowed
taj
perf
perignon
beheld
sealing
barbra
##lins
##ogical
mermaids
simone
regulations
traction
complains
bagu
vernon
accusing
glowed
lupe
honors
panamera
antiso
thyself
productions
profane
uran
bedrooms
flickin
instruction
shoebox
kinetic
daydreamin
##screen
flux
haulin
navigator
diddily
reeking
neurotic
sarcastic
lounging
mozart
newspapers
bile
fumbled
fowl
hilton
xl
yeen
##nite
##nati
##ruck
##stead
ong
##isman
##aru
forte
ism
dover
uprising
tracked
hock
down2
downhearted
yeah4
clog
##opian
hermes
needn
moham
##olee
away2
##taste
seor
leapt
underage
alone1
bade
badger
soundly
marys
contam
cheques
monoch
kev
dropout
sont
empow
bowery
stuffin
deport
romancin
interc
pett
advancing
preached
pistons
poolside
demonstr
volatile
taxin
tommor
muthafuckers
solidarity
automatically
pleadin
obliter
convul
clutched
ragamuffin
obsessions
dispute
temporarily
thirties
aquaf
ventured
jeffrey
nineties
intoxication
ohoho
dmx
activist
sterling
istanbul
mjg
bawling
syndicate
rehearsing
##leeves
cuerpo
gravitate
nixon
gnarly
antisocial
fals
gory
tans
##kan
##lap
##fr
themes
##ndas
lig
stace
##illin
no1
##alized
##adu
pliers
aretha
backdrop
##opot
orlando
flattered
seb
sector
turnaround
prancer
posh
##ourt
nagging
sunflower
archa
handouts
fireproof
miney
wintry
understandin
aya
whoaa
shootout
regions
regurg
snowin
harb
quickie
vermont
loosey
invites
boxin
poser
viewing
mascul
romp
buckles
evis
##grain
sensing
neighborhoods
mutilated
mumma
dumpster
conga
clutches
unwilling
opry
encir
##ologetic
lobotomy
##becca
mesmerize
slurp
rebellious
vigor
scalp
grandeur
phillies
jeremi
brownsville
eardrums
vybz
kosher
distinction
stetson
membrane
preoccupied
vatican
lauryn
asta
dund
josie
kross
lus
utah
yoh
##fre
##zu
##워
whod
ston
knicks
donnie
tron
outlines
deere
runneth
##ulas
hardships
naus
quaking
particle
##quad
bloodlust
musics
birch
##renheit
tenor
receding
futon
melo
solving
patric
hipsters
galactic
coloring
thunderous
defeating
panes
blasts
ugliness
405
sensitivity
purposes
lionheart
niag
##missions
mutt
dimmed
nicks
hawks
cowardice
overtaken
bbc
tahoe
evergreens
bereft
unmist
rigged
negoti
affiliated
benevolent
hamburger
fodder
indescribable
correspond
ary
eruption
jal
ml
rind
rital
wart
안
##dr
##first
##stage
##esia
soot
##idd
bakers
##amation
##river
moly
boll
bruck
suds
flim
dich
swivel
overp
mind1
enf
rapp
unbelief
craved
bueno
musically
wallpaper
fearin
ministers
earthbound
confines
insults
mags
cleanest
defied
teachings
groves
pasa
subm
grinds
artistic
expiration
cya
animation
froggy
wolver
adores
henne
lusting
deez
ryde
roams
approved
weighin
competitors
sedatives
pyroman
fulfil
eleventh
encouraged
whirlpool
supplying
scorin
attempted
cinders
duro
##oshima
shredded
developing
wheelin
pews
preparation
hallucination
blasphemous
screeching
decrease
siblings
procedure
sensimilla
scythe
benihana
rockefeller
diabolical
millenium
promiscuous
hefty
02
hod
mitt
ollie
rw
rotted
yutes
zan
##meal
##his
##hard
##cule
##creen
##ouette
##isiac
forked
forma
cadd
spose
moond
sube
flurry
usain
skit
rabies
beatings
gibr
relic
cren
midgets
shadra
cantalou
mirth
clubbin
repress
hybrid
bombo
freedoms
businessman
boobies
folder
presentation
irs
announced
provoc
credenti
jamaicans
pyro
convicts
##obia
ditched
peaking
descendants
vests
proceeds
improving
rewarded
bodda
radiator
kangol
lukewarm
ipan
leonard
adversaries
eloqu
nugget
quantum
tussle
emphas
essay
wholesale
removing
discriminate
maverick
confirmed
henchmen
reconnect
cull
eaves
fict
ged
olly
toun
비
##ucc
##pal
##inet
##iddy
allison
colin
chants
##unked
wasp
blurs
##ppled
waged
clearest
abi
slung
##osexual
again2
follies
##antan
carson
beamin
rizz
unturned
skylark
afterthought
marlon
cuties
growling
keke
trusty
sermons
banga
traph
distressed
cleaners
treaty
recorder
incub
studios
ryders
tarot
carton
nickle
troubad
cumming
whoopee
serpentine
dispose
krue
13th
quieres
scottie
tissues
episodes
waddle
harpoon
podium
blitzk
pessimist
apprehension
contribute
negotiate
patrn
raspberry
enraged
sacramento
gravedigger
hiroshima
extravagant
antonio
pseudo
upgraded
bieber
jurassic
ritalin
credentials
cout
dv
hilar
satch
wiley
zed
##horn
##jug
##zib
thc
##atonic
toils
##vester
##isers
stating
rebecca
##ellers
##rip
more1
calle
pox
##antial
toned
cravin
buen
starstruck
diem
##acist
skylines
##udi
cheered
reliving
crev
teased
blindin
beginners
tensions
commiss
cashier
heatwave
obeah
igniting
brandon
johnnie
concord
coro
woodgrain
wreak
discom
duet
fila
enjoyment
represented
dunce
toyota
shotguns
sedate
geez
favours
yeee
migraine
ukulele
bologna
consistency
pending
zags
allez
relatively
pharmace
escort
nuggets
degrad
candidate
transportation
amendment
aphrodite
heeeey
python
banshee
salaam
vallejo
ferragamo
chattanooga
ipanema
pelle
tate
yad
##nity
##iq
##wash
##woy
##cane
##casting
##jee
##37
##ᆭ아
##inked
toda
go2
coch
coaches
tijuana
anta
alk
blunder
robbie
spheres
movers
slices
agrees
amg
##ente
raged
unnu
craves
arbit
greased
brood
##plate
crusher
##osi
eloh
redes
whoaaa
minivan
madhouse
compon
popo
vik
charisma
horoscope
booking
juda
wiscons
bootie
internally
costly
mystik
hurrying
jerm
jerkin
ordering
oughtta
avar
tailored
##aaaaaaa
pedals
karl
societ
sorted
audible
haystack
barks
disrespected
##eeeeee
serena
omg
obscen
ultimately
zeppel
robberies
explanations
outcasts
enthra
ravaged
puzzles
exhibition
reeboks
chimpanz
entrails
longevity
transistor
traphouse
wisconsin
78
81
ehhh
lly
mime
naming
roth
zee
##belle
##까
##atron
mends
##still
beso
soir
shaman
coex
##oree
alan
one1
clatter
britt
brudda
amok
stillborn
scur
playful
##redo
enduring
watchful
lefty
##ahhh
graft
warner
warrants
yesh
togetherness
prompt
honeybee
confed
milo
intang
searches
rethink
imposed
denies
circulate
posin
mcqueen
throb
foreigner
mainline
irreg
volcan
socially
habitual
leng
bouncers
pitched
psychosis
fifths
looting
rituals
gurdy
criticism
shakur
shabby
babysitter
investigate
nobodies
vocab
interpretation
lodge
cluster
palestine
wriggle
##communication
myrtle
understatement
cincinnati
celibate
unreachable
aaaaaaaaa
gle
pg
wie
##ioh
##tles
##oi
##cot
##pd
##와
##음
##nders
##storms
be1
hag
domes
frass
rondo
mana
bolo
##olics
thinker
##itto
scuse
headfirst
unfu
leftover
killy
rocka
rainstorm
tabl
floored
monks
misuse
suppressed
miranda
indication
drunkard
boxcar
depravity
##iente
devout
fortified
puedo
fisted
antelope
##iker
malik
ryder
##headed
yardie
albat
cheesebur
mata
everlast
mourns
psychological
nylon
griev
unwrap
civilian
sanctus
battleship
ooooooooooooooo
responsibilities
obscured
effortlessly
philosophies
limping
hanuk
expands
yawnin
narcs
insisted
devastate
giggling
athens
commercials
있
injuries
ceremon
reunite
beyonc
flattery
homegirls
minerals
completes
beetle
acapulco
tetris
benediction
recycled
retrospect
cetera
ruggish
##thodox
crenshaw
oats
xannies
##hose
##uil
##bad
##간
##xi
##melo
shucks
gooo
reps
alicia
feena
bludge
##icient
atroph
aba
pram
##ffa
sunbur
leftovers
quell
##penses
##osin
##achie
##cised
earring
adela
afterparty
kisser
redis
redund
apar
checkout
distances
homos
edgar
figment
deformed
oba
crawfish
accol
browning
rhythmic
##ifty
porridge
irons
savour
provoked
volumes
taxis
respir
origami
milkman
cultures
corey
clutchin
challenges
humping
nananana
otra
##oxide
sigel
steward
escalate
mossberg
quiere
tokens
recreation
quivering
frisk
cavalier
eloquent
fahrenheit
insomniac
diaper
inspector
chisel
tremors
kardashian
heineken
moonglow
aquafina
albatross
adelaide
fn
ful
##eus
##awn
##inates
##iters
shill
tiem
saver
overcoming
lightweight
mindin
converted
foaming
putty
unbe
glutt
prozac
##aholic
displaced
youngsters
elmo
gunfire
##unga
illiterate
creators
##ifah
##onte
infin
natalie
defiled
jeje
teacha
crock
incite
hoochies
palmer
honkey
monthly
condos
caresses
virgo
punchlines
innocents
leathers
commando
weirdos
efx
debit
visitor
opposing
janitor
trembled
mandela
slackin
beckoned
antiqu
reacting
succeeded
requests
royals
ascended
surgical
withdrawn
inhuman
distracting
therm
immigration
polaroids
pharmacy
resembles
muslims
##ranean
impaled
impalas
looser
fernando
cantaloupe
c4
nying
patt
qb
rp
rive
yol
##uv
thera
meu
meters
##edia
bazo
cack
dodo
heirs
chugga
##igi
faux
##usal
abu
boca
leff
woi
guantan
quaint
heaps
rockabilly
dislike
phoned
perme
layaway
finessed
passages
giv
barge
cooled
kicker
columns
confid
prizes
crossover
harps
harlot
circulation
terrors
footing
footage
mache
catwalk
yeea
hillary
cosign
palaces
mystique
wreckless
valhall
deemed
continually
continuing
taxing
libert
toolie
favored
stretchin
##uki
difficulty
inequ
twinz
prescribed
laboratory
fabricated
multiplying
icicle
obligations
vegetarian
numerous
republican
experiences
spazzin
sculpture
걸
faygo
quinn
snuggle
cuervo
commodity
ethiopia
krayzie
pocah
사랑
emblem
anaconda
chariots
tounge
krueger
blitzkrieg
dion
komb
nue
thrice
##inn
##esa
hacked
coarse
hoss
sheik
reas
spake
mocha
right1
byes
fuckas
woooooo
skully
newton
guzzle
sunlit
pais
placement
##oos
beatz
rikers
miy
uhu
##ggle
ballistic
brazen
hairdo
cleft
babel
ooze
storyt
retrie
impure
trainer
shoesh
genitals
beemer
mixer
##ergirl
pleaser
intercept
panicking
sleight
photographer
rywhere
##lton
collectors
succession
brooks
suprise
cheaters
challenger
contented
skillz
fictional
improvise
infecting
consumer
flavored
orchid
suspects
ahhhhhhh
illuminating
fluttering
sahara
guinea
bumblebee
같
burrito
ouija
enchantment
mitchell
isabel
dandelions
scabs
prosecutor
balenciaga
recollection
psychiatrist
tucson
raleigh
crescendo
pharmaceutical
bise
dents
gitch
nia
uuuuu
vive
wimp
xzib
##mil
##mills
##makers
##47
##fies
##got
inverted
loath
hae
capping
facil
areas
wayo
##ctors
orang
flore
dib
swind
highlands
maest
maana
expenses
prover
handstand
##plus
graced
disown
##irsty
bestow
joc
##quins
boutta
demi
##iably
gunfight
significance
thankin
install
seller
hoodrat
keyhole
splat
gents
bummed
autob
flipmode
handlebars
hmmmmmm
lifer
nationwide
goddamnit
talons
120
tempered
##alalalala
camper
##ophagus
pavements
##alding
reminiscent
stitching
aux
fiddler
tablo
platoon
greensleeves
steamy
icons
oblige
escalator
featuring
underestimated
recomme
resounding
perceived
abundant
tacos
astounded
iconic
disillusioned
blogs
catacombs
uncontrollable
silencer
barrac
metamorphosis
entranced
typhoon
##rakhan
jewellery
stacey
zeppelin
czar
hugg
km
mating
nibble
pigg
pss
rr
zoe
zillion
##gown
##gang
##reci
liq
allure
nolia
chy
chugging
##alam
holed
downtime
ashy
##icon
spacious
wavel
mocked
girl1
finders
fixture
shite
daft
ungod
rollergirl
##osse
skyd
elated
##uben
partys
checkered
sativa
##hyd
compute
decon
curved
kneels
knockout
sellout
schooling
sighted
editor
vera
factual
cashmere
southeast
poorer
travesty
accom
birdland
catar
##dddd
parades
stormed
replen
cockin
flailing
published
negatives
##altar
blinkin
salted
measuring
decker
inflation
ultim
fluids
slayin
admiring
permanence
unwinding
outlawz
##theid
hanks
rigam
##인
fraudulent
employment
tamales
navigation
repetitive
pallet
wagons
snuggled
adorned
subdued
flacko
unlearn
skeptical
anomaly
booyaka
rottwe
entrepreneur
astaire
unfulf
apartheid
xzibit
bha
g4
gnac
hb
jizz
ocho
tj
##afe
##worm
##ᅮᆷ
##erog
inning
libra
##etical
stig
stoney
sox
##ength
knif
##iris
timers
##adonna
alison
sais
yeaa
##geons
devised
hij
##amean
dise
seizing
lepre
##imation
smitten
yai
sleepers
farce
adi
adjac
monolog
whitest
madmen
##cesses
ghast
##ontas
milf
eaters
schoolgirl
collateral
eddy
icebox
norway
ashanti
favorites
shortcut
auton
boob
devote
matchbox
nosebl
antar
uncanny
muthaf
fashionable
##movable
oooohhhh
unapp
nihil
macks
##missive
describes
maxed
scripted
hussein
possessing
technically
caveman
223
tremblin
stroller
contemplation
comprehension
nuke
bedsh
assassination
yankees
aaahhh
reinforce
hinder
tentacles
tweets
snipers
excessive
vaguely
nouns
snapshot
shufflin
shunned
diminished
vicky
##jacket
extinguish
android
disclose
yachts
apprentice
yeshua
leprecha
pouch
sind
ub
##rty
##rator
##39
##lley
gogo
nore
saj
##user
bystand
##entric
switzer
turnst
##iselle
prerog
premi
prehist
himalay
exiled
pare
##zek
farrakhan
winded
percy
kidd
monolith
sorcery
confron
cecil
solider
claust
sinker
incomp
businessmen
buckled
discothe
palis
despicable
muddle
worshiping
jimmie
colourful
immunity
blinks
puncture
dependence
audition
authors
gerald
revelry
crankin
gwen
alabam
bronco
declares
stankin
recovered
columbine
slurred
spooks
dosage
luger
achilles
alfie
rectify
nadie
tweedle
narcissistic
analysis
registration
sorcerer
hussle
guerrilla
gymnastics
rhino
obituary
endangered
stargaz
gibraltar
intangible
switzerland
echel
kas
pounce
sce
tup
tatt
ua
vuel
##auc
##lady
##던
##inable
youuu
tol
lois
shannon
bared
canaan
loveliest
##alia
hoody
##untin
tier
##igod
sauced
##roy
willis
laf
boon
slicked
swed
ley
lightness
poco
glanced
carat
crue
##ossed
wines
winnie
waterfront
summa
wildflowers
parody
mera
woahh
bullsey
ladybug
reprim
fewer
softness
posers
sugarcane
holland
devine
transformer
duo
reigned
hypn
ninjas
wireless
sams
screwin
thirsting
wahe
stringing
scraper
dashed
##blades
shrive
forsaking
steamboat
illumination
shakers
##yyyyy
smothering
ethics
latifah
inevitably
alleviate
sheena
militia
apparatus
trolley
apostles
barbarian
voting
monotony
cultivate
synchronize
reincarnation
thotties
huckleberry
heaviness
pocahontas
shoeshine
kilt
lank
mots
tush
##iope
##rn
##cakes
##fol
thud
allan
##alid
hobble
notches
spires
flunk
wonka
priced
plaything
hardware
ung
unner
freeband
##ahn
fargo
ado
redd
gunz
remake
parish
landmine
dres
schoolin
harris
shutdown
claude
sprang
torto
revved
shortie
meddle
catatonic
galilee
cloudless
caprice
estas
filip
valor
limitation
100s
grays
fashions
puffed
smarts
dungeons
choos
alias
firin
shovels
janie
amelia
baptism
selena
inebri
geeking
ummm
bulging
adjusted
stammer
detectives
cauter
launched
bicycles
absorbing
selecta
troopers
cranked
sterile
euphoric
inhum
merchand
obtained
associate
brunette
ostrich
amphetamines
recluse
relinquish
krishna
theodore
irregular
wavelength
premiere
swedish
dell
fidelity
gushing
iowa
kum
m1
##bock
##ᅩᆯ
somers
isolate
faction
blinked
cometh
##ppie
boppers
impe
##ohhh
carrier
badu
##ahi
firefight
dispens
kindest
pharis
rounded
passers
waken
parr
felix
clearance
confusin
fuk
attended
defile
thunderbol
costumes
wheelie
mamy
capo
blended
baths
broadcasting
deem
macdonald
buncha
experiments
sweepin
pleads
approachin
fredo
fabienne
independently
concerts
suggested
overwhelms
ritmo
clarify
vicar
1985
culo
vividly
overloaded
roasted
mwah
astounding
biker
nobility
scavengers
weekdays
delinquent
roscoe
mystikal
coexist
adjacent
01
aie
gills
litty
sv
wic
##제
##orum
hacer
trs
neb
##nty
man1
heron
diagram
overpass
imbal
imitating
naut
extern
underhand
carin
displ
hellb
##nego
silkk
airborne
brightens
##boats
simmons
ida
refund
sucky
tyga
##easant
deng
paperwork
dusting
##estern
crockett
fatality
invader
ayyo
innue
bumming
becomin
porches
hollygrove
linga
dissap
sangria
representative
gaug
reverber
pedic
linin
portmore
operations
motorola
elevating
lenox
chipping
eggshells
##roller
tombstones
piping
messengers
tragically
buddah
maintaining
oooooooooooh
faintest
1992
triumphs
splashed
stairwell
replaying
hypocritical
dilate
staggered
unaffected
plummet
degraded
depleted
glaciers
rhinestone
mp3
confinement
unimport
jamboree
pakistan
malignant
heinous
hormones
interstellar
##ophob
abednego
intercourse
arbitr
claustroph
bullseye
bhe
jt
jme
kor
qur
zipped
##rake
##hl
##haw
##pip
##fing
##여
##99
tolling
starks
sovi
shiva
knaps
coiled
feets
downing
blocc
plaza
atcha
##ilia
mani
abrupt
boing
beens
slashing
flab
swast
seme
anyday
leaky
##ulence
lester
emails
wobb
##berish
stoplight
##elo
dissent
disowned
bestie
untangle
lister
elope
morrison
adhere
surging
beauties
prominent
madlib
birdy
colise
milan
syph
mounting
reprise
repaid
edgy
johns
judo
pathways
incant
embal
extortion
erin
cyl
django
interplan
postal
2015
vacay
sedative
virtuous
programs
wuz
concentrated
pollen
slutty
disturbance
giraf
apex
jugular
arriba
unexpectedly
traumatized
70s
margiel
tantal
resignation
oracle
meshach
koopa
sneer
conflicts
thistle
resuscitate
impecca
knapsack
gaming
gbon
mb
tinder
uy
wist
##pic
##pter
##bus
thurr
##ouac
##inals
soars
locc
##idh
reocc
saucin
asians
babydoll
##rised
aborted
brash
suc
sued
##icky
sei
##imba
skittles
mazes
quent
quakes
childlike
gunman
drizz
madda
checklist
pars
mists
tightening
misread
##unde
magist
dregs
drugstore
escapin
temps
attackin
unsus
avant
toeing
swayze
combing
tending
lampl
whooped
rooting
dealings
unheal
sherlock
##yeo
boulevards
guapo
eeeh
sophom
tramps
responding
optimism
activated
assumption
reviews
housin
bradley
catalogue
cascading
lalalalalala
douchebag
acapella
gnawing
enclosed
hereditary
mohammed
degradation
maestro
tortoise
ald
bons
gue
mout
tir
vor
wides
##ione
##azy
##ucted
##늘
thriving
onye
lox
reuben
caz
doreen
getta
neh
plaint
##rost
labba
manus
dehyd
bonded
world1
leban
scams
popper
rarest
pepa
unqu
glitz
##ooked
grabba
crater
##uger
deadlines
perversion
seashells
##pha
understandable
ayee
drizzle
append
##aware
stickers
distribution
blames
homicides
reporters
yuhself
jefe
sailboat
expan
defeats
postp
puking
hamster
buttoned
erases
2013
basil
releases
ignores
pigment
trademark
collectin
tomboy
muthafucker
rewinding
fragrant
blazer
debon
112
defendant
ecstacy
beamers
thumpety
14th
disposed
cudi
symbolic
dignified
##rrrrr
mechanism
franchise
chirpin
chirping
astronom
drench
coconuts
##ouraging
ravage
sleaze
nieces
glimmering
enchanting
screech
audemars
zinada
wesley
claudette
artifacts
gauze
geometry
toxins
vaccine
clementine
overreact
hilarious
unfulfilled
prehistoric
unimportant
interplanetary
giraffe
cs
iwo
lt
mear
searing
uma
vv
wub
yest
##nier
##uated
##gard
##xy
##llers
##lland
sten
##ener
##arms
##uration
gotham
chute
##ilin
laker
takeoff
sloth
##ulus
##ileo
yapping
madeline
glands
##cahy
standstill
quien
##ahua
starch
##uga
hurdles
joes
surplus
##ubber
taper
contem
damages
todays
motherfuckas
colosse
meridian
fucc
trav
syner
buyer
sanit
natasha
defies
deface
owens
supposedly
beards
heroic
bombshell
existent
hunna
##leton
antics
sacrificing
emotionless
tara
appearances
publicity
mobsters
##ifications
skepta
projected
cartridge
defendants
battlin
bores
derri
shapesh
slimy
displays
protein
budda
##nnn
vineyard
encomp
cussed
behaved
riddance
##arents
toupee
pamph
applying
employee
1984
benjis
icp
hammock
broomstick
gingerbread
originally
premises
elimination
mulcahy
dismayed
coyotes
##phetamine
sutra
misconception
colossus
##ogenic
obedient
swapping
atrocity
reebok
obese
plunged
narrative
administration
dissonance
exultation
bravado
patricia
rwanda
antagon
jermaine
accolades
echelon
margielas
lebanon
apt
della
fus
ime
kak
kuk
lard
niss
oat
pp
tand
uck
v12
zealous
##rer
##kka
##dup
##yan
itunes
incest
shing
shane
butth
##aling
time2
backfire
spunk
manana
##opic
biter
home2
scound
woos
##bele
godhead
pokey
hardstyle
maure
macy
unself
unident
blackbirds
camels
jogging
childs
voila
meri
merk
misin
calmer
pusha
oozing
retract
melrose
delaware
rupture
fairground
grandchild
divisions
inclin
problematic
surpass
sufferer
armad
honol
yellowman
snappy
hookin
electron
presume
unsolved
designers
limos
buzzard
exceptions
malfunction
samuel
avoc
provision
unap
witching
ambig
tortures
scrimm
2003
uttered
vowels
roddy
thieving
executed
glimpses
luxur
functioning
abandoning
hubb
trayvon
numero
igor
whims
indulgence
astonished
ohhhhhhhhh
cyclops
redefined
adversary
necrom
unforgivable
sulph
minneap
alberta
pikachu
sunburnt
valhalla
rigamort
debonair
aca
grist
hup
lith
lulu
peed
watt
##actions
theology
inade
bem
##eting
webby
##ensed
##idious
knie
haf
trac
##iendo
aspen
degrade
flamin
overcom
oohooh
breakaway
glenn
olde
bup
partially
##oosh
rockabye
disk
riz
snipe
kiddie
monta
restoring
hanged
lovingly
crossh
dolled
hatas
##unted
doobies
elemental
jackass
##zza
generic
weathers
armstrong
cosa
rumm
honies
mystify
horseman
wisest
clowning
travelers
ordained
nervously
unav
stabs
borrowing
empties
competitive
##obic
battering
jugging
sicken
criticized
strutting
includes
ellis
##offs
timberlands
attendant
steroids
australian
nought
foreseen
frisbee
stranglehold
montego
mascot
apostle
hehehe
olympics
diplomat
exorcist
hoodlum
butterscotch
hellbent
quentin
manuscript
honolulu
aii
gp
hors
nea
tents
##pread
##zoo
##atis
##ayers
stature
shre
##asi
chester
noted
out2
##icott
##raw
lak
flank
diarr
ami
overhe
biters
drills
hadnt
ravin
dagga
endicott
unprot
glutton
quee
brock
##pert
die1
mine1
yog
cameo
windmills
marinate
bloodcl
treme
shakey
##abl
reliable
dogma
fourty
trappers
imply
strikin
verdad
memoria
paperback
##appa
invol
incline
woodwork
numbs
evan
birthright
105
nerdy
estar
pinoc
basements
scrappin
matty
renov
oxford
2001
productive
dominance
slacking
bodily
horrified
composer
frailty
sophia
membership
dasher
lassies
ribcage
essentially
municip
demolish
envisioned
necro
completion
pessimistic
distinguished
athletes
telepath
potholes
cymbals
pulsating
penguin
h2o
incorporated
fictitious
ghastly
external
maureen
unselfish
biling
iver
jang
kad
kkk
kaya
zum
##2k
##bwoy
##zerk
##esha
shhhh
alla
hemi
everthing
outsh
##amar
feeder
feelins
spand
dement
devin
howled
abras
bogg
byrd
flushing
amoe
dabb
undermine
startled
endurance
doorman
tactic
sike
blowjo
apache
gung
##abab
bracket
mistakin
signify
compact
##pecting
cleats
moma
stocked
harmed
charades
factors
revision
tempers
magically
footprint
castin
subter
submissive
feces
settlin
storage
devours
hooking
petition
buttered
ugliest
lingu
lustful
buzzer
habibi
cheeky
domine
allowance
chemically
weddin
dutchie
##ippity
151
etcet
personalities
barker
maintained
progressive
inventing
alignment
directing
aaaa
thirteenth
attracts
1983
rampant
impatiently
twentieth
scanning
##adadada
hopsin
bernard
##llllllll
n9na
exterior
pharmacist
oriental
bryant
bessie
caucasian
matinee
nausea
rediscover
reprimand
4s
fudge
gino
hatter
oma
oily
sr
tse
tess
자
##aca
##var
##ben
##base
##zt
##ouble
##atto
##resent
stoked
hailed
up2
chomp
##alach
##alama
asphy
asbest
fabo
blimp
##ilian
backroom
boh
bobb
boasting
slumbers
##adelic
tweeting
poon
underco
ooh1
glady
moneymaker
watchman
handwr
##oob
blackstreet
stein
voye
straighter
millie
esa
ganga
destin
whisk
squall
supercal
horrib
visine
salutations
revving
defer
corrine
owna
trickery
extort
cosm
jerked
tourna
recalled
rammer
betraying
shivered
epmd
carts
matte
beseech
cranking
ooooooooo
discussions
dispatch
micheal
appeals
abandonment
muses
requested
wilin
recovering
splendour
wastelands
accordingly
reloaded
beverage
##charged
noddin
huffin
clients
circuitry
scrolls
defective
disastrous
compensation
slopes
atonement
stifle
incarceration
daytons
cataclys
zayto
venez
hydraulics
anarchist
bohemian
negril
rekindle
dundee
luscious
ungodly
listerine
impeccable
synergy
knievel
horribly
dms
eart
gump
jj
psh
tte
wile
zam
##tel
##sie
##piration
##vict
##무
incase
inception
loosed
nooooo
##thers
##adin
outdoor
timed
blvd
vem
vega
##idels
manila
herr
herea
gona
orn
aga
lei
smite
playaz
ener
preca
maimed
guzz
pecker
quer
badd
heah
forecl
##oove
hellbound
fung
##quished
roadhouse
##phus
monsta
tect
laughable
eyein
chaper
vienna
calab
dogwood
instigator
harle
crackling
melissa
##riest
ashen
crawler
medulla
ayyy
feigning
trapdoor
truckers
discussed
constip
tickled
boatman
unsafe
flagrant
protective
shyne
garland
martians
unavail
courtney
importantly
overcomes
etta
derry
freder
avert
ragtime
jager
deterior
replying
proceedings
capsize
vengeful
gigs
cliches
fascists
maniacs
dmc
plowed
sophie
chevys
pronounced
neglecting
hallucinations
modeste
amplify
oreo
rerun
pixie
trifle
tampa
scuffed
모ᄃ
vigilante
colombia
lbc
extinguished
paragraphs
degenerate
athletic
turkish
interference
incogn
resolutions
indonesia
debauch
hairline
alpine
disabled
stoners
prerogative
unidentified
unavoid
asbestos
unavailable
cest
gus
rouse
uuuu
##tical
##cter
##jor
##qo
thail
##anim
lipped
##etted
weld
relevance
love3
ches
chola
trud
trio
everest
sae
yeaaaah
backaz
backhand
rovin
manure
cloned
howd
abiding
aman
theses
mupp
maury
arith
arches
starters
hurdy
setter
morse
adject
##enders
marines
musket
waterbed
voldem
sorting
darwin
betweens
compress
boum
boujee
calories
sensed
impose
hundredth
testicles
weevil
bridget
evoke
innit
sorrowful
lully
captures
snails
generosity
presses
formless
pinto
booger
falcons
enjoyin
purposely
##falls
yaya
taggin
sheeps
evey
descriptions
aahh
pantry
vagrant
lending
bongs
inventions
vinegar
ponytail
alabaster
bronson
achieving
pollute
otf
scattering
##bells
hacking
wheeled
botany
scaff
crayons
attendance
volcanoes
slithering
mullet
bimbo
mcdonalds
stereotypes
snotty
wholesome
aphrodisiac
unthinkable
louboutins
prolific
shambles
blemish
shepard
monochrome
lamplight
spandex
zaytoven
bok
bist
dure
fused
ject
jib
sears
눈
머
##tte
##uwine
##faced
##mets
sooo
bau
baile
bails
##illah
lovelight
heidi
frickin
llamas
##igible
blair
blaine
##raiser
yeast
comedown
waco
decoy
looker
##ryl
bray
##ulo
##uls
scuffle
mayonna
##cond
pappa
rememberin
wishlist
soundboy
tailed
roadrun
fines
lowlands
##izations
barter
parched
inspection
imperson
collared
styx
infidels
swinger
bummin
bombin
lickle
unfit
foreigners
techs
flipper
shockin
dependency
pipeline
mutilate
dahmer
fettu
rambled
swanging
trendset
giry
1989
insisting
restrictions
crunchy
ethic
jeez
fugazi
charted
executioner
1969
abundantly
unplugged
foresight
impulses
arthrit
bungee
apparitions
olympic
unveiled
residents
sarcasm
synchronized
shriek
eardrum
slugger
kawas
secluded
caboose
worshipping
misdemeanor
compartment
corduroy
zazou
baguettes
unmistakable
recommended
palisades
hypnosis
pinocchio
etcetera
thailand
mayonnaise
aly
ckin
hin
nr
raking
ust
나ᄅ
##nog
##ws
##hide
##pole
myri
myers
##arney
##uro
coded
neato
##alaya
frater
##adan
seedy
##ignty
alge
##ongo
plent
hearses
##ilot
roly
##uckers
deci
nightgown
diallo
tooken
fuckboys
levis
emm
##ohoo
##bem
godsend
raze
singap
##assee
propped
crud
##osas
##ieder
marlene
snar
acne
cuis
wasteman
floorboard
midway
felicia
yearned
tearful
readily
homi
squid
strivin
melbourne
moto
patna
courte
chasers
creeks
##laught
tallah
poncho
hunny
slaved
ports
##when
terrify
annual
lioness
125
recalls
chokehold
duncan
gays
punisher
frankinc
horizont
hostess
hostages
terrorism
severing
pulver
mothafucker
calibr
threatens
prepares
cummin
##aahh
footstep
conditioning
synonym
capsized
##burst
anxiously
hippopot
##vieve
jugs
sovereignty
tulips
specifically
experimental
toddler
clenching
leonardo
elderly
ponte
comrade
nephews
scarcely
barbarians
cowgirls
prospects
emancipation
diversity
echos
metaphysical
outgrow
bodega
pampers
uniqua
pettico
niagara
barracuda
accommod
bedsheets
merchandise
arbitrary
sophomore
fettucc
frankincense
dway
fats
gist
kia
mise
nm
neal
rumba
tann
새
##iency
##tid
##fus
##atio
##anine
ands
##asco
goh
knotted
upsets
chr
nemo
##adh
alg
##ummer
hiph
brudd
slag
##itti
agin
agua
mindstate
belg
skis
mugging
sunbeam
uni
handin
rollup
partake
forens
hurdle
shoest
phd
taunts
contort
redbone
doused
coolie
wildlife
##inesses
compelling
popul
recieve
shineth
reporter
edm
dens
probly
sprinter
heatin
##ruci
smelt
furrow
##guards
eviction
lucked
otha
booby
filtered
portable
bonkers
bruisin
luster
cardi
males
rents
squadron
portals
weaver
epile
mutation
paula
akbar
razorblade
cubs
investing
sewers
mescal
regarded
rosanna
nestled
cusp
labelled
napkins
treadmill
confidentially
fryin
gleamin
bredren
350
5000
superheroes
afflictions
dunkin
modesty
derel
erupts
pantyhose
planks
wielding
intimidate
colonial
resemblance
spongebob
lumberjack
decapitated
onslaught
indigen
tmz
jitterbug
belligerent
bungalow
caldonia
archaic
avarice
sulphur
supercalif
hereafter
scaffold
700
bope
dined
gummy
jc
nes
nord
pher
rous
sss
xs
##nated
##crest
##park
##yp
##89
##llis
##anos
meme
##idid
gomor
babbling
wank
##odod
tril
necked
##alis
outerspace
ani
blamin
##icut
##rave
wanton
yeah5
saydem
##iless
whooooo
spen
manchester
waff
dek
floo
usur
scrolling
twiz
heyo
maus
endz
mademo
beauc
dontcha
helper
openin
shovin
shoals
##ignment
musty
bloodless
snore
##maph
##iao
promoted
peaked
creme
mouthed
teng
woahhh
intake
rapids
squealing
delays
addin
juk
parkway
specialize
embry
depri
eras
bombers
swallowin
pancho
##ologically
funkytown
recognizing
towed
190
locations
lacka
flatbush
odin
receives
portions
scraw
dingy
choosy
padlock
engineers
ginny
##aldem
cleverly
grilled
bizkit
clutter
cluttered
cubicle
cancerous
rugers
##aments
complexity
mortis
influential
tradin
trending
coachella
girba
grapefruit
decoration
jolie
arcane
originality
wailin
rivalry
polyester
seamless
ethereal
krispy
mongol
quoting
melodic
decapitate
announcement
spartan
kokomo
exorcism
michelangelo
klein
regenerate
우리
quenched
magdalene
horseshoe
gaston
coeur
insensitive
jeremiah
pyromania
tablets
florence
unhealthy
unprotected
eed
erick
gins
mord
neden
pence
sesh
tc
vanc
x7
zy
바
##dit
##cars
##거
##onous
mezz
whitt
##uter
##utic
sookie
##arations
canibus
doooo
##urk
nog
getters
trice
trudge
##amer
alay
downed
deux
hermit
slanted
combs
comics
smither
##isen
prancin
heady
##ffee
godf
maz
guile
buffer
grate
disloc
assigned
kinderg
aftertaste
taw
marcy
marsell
lowing
cuter
alive1
bedlam
parar
appalling
decimate
feller
serum
praisin
reclining
greenest
ides
squish
indies
penned
delia
infirm
westbound
crocker
welcomes
correl
incisions
yeeah
bucktown
eval
mixes
##ensible
benign
mentor
datin
cruella
dui
fortify
entwine
##hhhhhhh
bali
swagg
triggered
gyaldem
schwar
ratings
commanded
coucher
palmdale
indebted
seventies
dimmer
chiqu
eggnog
bushwick
pilates
prediction
predators
fantasizing
materials
suffocates
buddhist
sniffed
argued
drillin
rhode
patched
doctr
##writers
jonny
jonathan
octane
gagging
hoopty
exhausting
swirls
melanie
overtakes
hesitated
responded
wyoming
slurring
mules
resounds
astonishing
withdrawals
deposits
impulsive
rollersk
encounters
aeons
intimidation
oppressor
##brook
prophesy
mannish
cobblestone
medallion
syringe
conservative
disfigured
seraphim
acoustic
diarrhea
bilingual
debauchery
unavoidable
derelict
beaucoup
vancou
71
bard
bins
ezek
fy
g6
gbo
juel
mish
mite
okey
oogie
rass
rating
rations
tattle
taint
wales
##iye
##vill
thе
##veston
##orize
lizzie
looph
gobe
hace
donner
##ombed
coer
outland
worser
blare
feelgood
##ilating
rogues
##uming
mocc
##ulah
dray
enlar
hardaway
dally
daps
pey
quoted
warhead
adel
demigod
drinkers
mineral
brightened
pariah
applies
perfecting
insuff
destitute
##undo
buyers
superwoman
viscer
jacki
sentine
[...]
